<unk>	0
<s>	0
</s>	0
<pad>	0
<mask>	0
<cls>	0
<sep>	0
<turkish>	0
<TR>	0
<question>	0
<answer>	0
<news>	0
<social>	0
<formal>	0
<thinking>	0
</thinking>	0
<thought>	0
</thought>	0
<reasoning>	0
</reasoning>	0
<analysis>	0
</analysis>	0
<|endoftext|>	0
<|startoftext|>	0
<|system|>	0
<|user|>	0
<|assistant|>	0
<|im_start|>	0
<|im_end|>	0
<instruction>	0
</instruction>	0
<input>	0
</input>	0
<output>	0
</output>	0
<context>	0
</context>	0
<turn>	0
</turn>	0
<conversation>	0
</conversation>	0
<history>	0
</history>	0
<function_call>	0
</function_call>	0
<tool_use>	0
</tool_use>	0
<json>	0
</json>	0
<code>	0
</code>	0
<safe>	0
<unsafe>	0
<warning>	0
</warning>	0
<filter>	0
</filter>	0
<çeviri>	0
</çeviri>	0
<özet>	0
</özet>	0
<soru>	0
</soru>	0
<cevap>	0
</cevap>	0
<image>	0
</image>	0
<audio>	0
</audio>	0
<video>	0
</video>	0
er	-0
ar	-1
an	-2
in	-3
en	-4
▁b	-5
il	-6
ir	-7
ın	-8
▁k	-9
al	-10
▁s	-11
ak	-12
▁d	-13
▁y	-14
el	-15
lar	-16
ek	-17
et	-18
▁v	-19
▁g	-20
ay	-21
or	-22
▁t	-23
es	-24
am	-25
▁i	-26
as	-27
▁o	-28
ler	-29
at	-30
iz	-31
un	-32
▁B	-33
de	-34
▁h	-35
▁ve	-36
da	-37
im	-38
ik	-39
▁A	-40
on	-41
em	-42
iy	-43
▁K	-44
ır	-45
▁S	-46
ul	-47
ur	-48
▁m	-49
ed	-50
is	-51
ıl	-52
aş	-53
ad	-54
▁bir	-55
▁T	-56
it	-57
▁ol	-58
ün	-59
az	-60
ım	-61
ab	-62
ık	-63
ap	-64
iş	-65
ür	-66
▁M	-67
▁ç	-68
ah	-69
um	-70
le	-71
▁E	-72
ız	-73
▁D	-74
▁Y	-75
▁H	-76
ey	-77
▁İ	-78
▁G	-79
▁p	-80
lan	-81
▁il	-82
ış	-83
st	-84
li	-85
▁iç	-86
ol	-87
ağ	-88
ev	-89
▁ö	-90
▁f	-91
ac	-92
lı	-93
▁al	-94
ları	-95
..	-96
eğ	-97
ok	-98
▁P	-99
esi	-100
dan	-101
ası	-102
▁için	-103
üz	-104
ların	-105
leri	-106
▁gö	-107
ya	-108
▁n	-109
eri	-110
ec	-111
▁yap	-112
la	-113
ında	-114
ini	-115
▁ş	-116
uz	-117
den	-118
ine	-119
iniz	-120
iğ	-121
▁ar	-122
üm	-123
▁O	-124
uy	-125
ük	-126
eb	-127
ilir	-128
du	-129
inde	-130
alar	-131
▁C	-132
mak	-133
aç	-134
▁F	-135
iler	-136
▁(	-137
dir	-138
ığ	-139
af	-140
▁bu	-141
▁ile	-142
us	-143
▁c	-144
av	-145
ut	-146
om	-147
▁N	-148
ekt	-149
ıy	-150
▁z	-151
ma	-152
lik	-153
ıs	-154
▁ed	-155
iyor	-156
▁et	-157
ez	-158
ort	-159
ilm	-160
ını	-161
eler	-162
ül	-163
lam	-164
▁r	-165
▁Ç	-166
uk	-167
ip	-168
eç	-169
ullan	-170
oğ	-171
▁an	-172
▁ver	-173
di	-174
dır	-175
inin	-176
şt	-177
▁gör	-178
▁da	-179
▁de	-180
len	-181
iye	-182
ön	-183
▁R	-184
larak	-185
ib	-186
▁bil	-187
▁baş	-188
▁V	-189
▁kullan	-190
ce	-191
ro	-192
▁ön	-193
▁in	-194
▁iş	-195
üy	-196
lem	-197
▁en	-198
▁tar	-199
▁kar	-200
ına	-201
▁ger	-202
▁olarak	-203
tır	-204
▁son	-205
▁gel	-206
eş	-207
ti	-208
▁Bu	-209
▁ad	-210
orum	-211
ta	-212
...	-213
ayı	-214
man	-215
▁Ö	-216
▁oldu	-217
op	-218
lık	-219
cı	-220
ından	-221
acak	-222
▁kon	-223
▁değ	-224
me	-225
▁Ş	-226
▁ay	-227
ınız	-228
os	-229
aya	-230
imiz	-231
▁bul	-232
ör	-233
eni	-234
ist	-235
ep	-236
▁L	-237
ması	-238
lu	-239
abilir	-240
aha	-241
ürk	-242
ih	-243
ic	-244
yon	-245
▁U	-246
anı	-247
üş	-248
▁ist	-249
isi	-250
▁An	-251
▁olan	-252
▁sit	-253
▁çok	-254
▁uy	-255
▁“	-256
met	-257
▁gün	-258
uş	-259
▁yer	-260
ede	-261
▁Ar	-262
▁her	-263
unu	-264
ark	-265
ot	-266
▁Ü	-267
tı	-268
▁-	-269
▁kal	-270
▁es	-271
aman	-272
ans	-273
gil	-274
ibi	-275
aki	-276
cort	-277
tir	-278
eli	-279
gi	-280
eh	-281
▁aç	-282
inden	-283
ıyor	-284
▁sür	-285
se	-286
ayan	-287
▁kad	-288
ca	-289
▁kur	-290
te	-291
dı	-292
mek	-293
alı	-294
▁Türk	-295
ığı	-296
edir	-297
ter	-298
▁daha	-299
ının	-300
alış	-301
ğu	-302
siniz	-303
ımız	-304
ama	-305
san	-306
▁üz	-307
if	-308
tan	-309
ER	-310
▁sağ	-311
▁olm	-312
aber	-313
eki	-314
▁bel	-315
▁yıl	-316
▁yaz	-317
laş	-318
ef	-319
▁geç	-320
ra	-321
öz	-322
eden	-323
öy	-324
art	-325
imi	-326
end	-327
iği	-328
▁Al	-329
▁üzer	-330
AR	-331
▁var	-332
mış	-333
üt	-334
ara	-335
▁gibi	-336
ilen	-337
ers	-338
zel	-339
▁veya	-340
ru	-341
▁ek	-342
▁yaş	-343
▁on	-344
id	-345
▁ür	-346
izmet	-347
▁l	-348
▁çalış	-349
▁yar	-350
▁bulun	-351
oy	-352
ada	-353
▁yapıl	-354
liğ	-355
eleri	-356
ki	-357
▁oy	-358
▁Bir	-359
lerin	-360
iyat	-361
est	-362
urum	-363
AN	-364
iyet	-365
▁çık	-366
ecek	-367
▁el	-368
miş	-369
▁taraf	-370
sa	-371
akk	-372
öl	-373
▁gerek	-374
▁uyg	-375
▁şek	-376
let	-377
▁zaman	-378
adır	-379
asında	-380
ğr	-381
unda	-382
▁say	-383
ade	-384
▁I	-385
erk	-386
lü	-387
eye	-388
▁yön	-389
▁tek	-390
▁siz	-391
ahis	-392
edi	-393
daki	-394
eniz	-395
od	-396
▁kiş	-397
üc	-398
ayın	-399
elik	-400
oc	-401
arak	-402
▁alan	-403
iyle	-404
lara	-405
▁doğ	-406
▁ak	-407
tr	-408
tadır	-409
lığ	-410
▁pro	-411
ebilir	-412
▁Es	-413
aları	-414
ağı	-415
emiz	-416
cak	-417
▁kay	-418
ven	-419
alık	-420
▁sah	-421
▁hizmet	-422
▁kadar	-423
iç	-424
ost	-425
▁Baş	-426
▁hal	-427
yi	-428
ımı	-429
ektedir	-430
▁kap	-431
ısı	-432
▁tak	-433
▁sor	-434
▁İn	-435
▁gir	-436
▁dev	-437
▁gü	-438
aret	-439
bet	-440
erek	-441
ley	-442
lat	-443
üyük	-444
res	-445
▁escort	-446
arı	-447
▁Ay	-448
kin	-449
sel	-450
▁özel	-451
▁Z	-452
▁karş	-453
▁iz	-454
larını	-455
uşt	-456
iv	-457
unun	-458
▁şekil	-459
ram	-460
ıcı	-461
▁kat	-462
ken	-463
▁düş	-464
asıl	-465
eceğ	-466
▁a	-467
▁belir	-468
men	-469
mas	-470
▁tarafından	-471
deki	-472
▁yeni	-473
lerini	-474
cu	-475
▁ort	-476
unuz	-477
▁W	-478
▁En	-479
lere	-480
maktadır	-481
asyon	-482
üs	-483
▁w	-484
işim	-485
▁ev	-486
▁"	-487
ht	-488
esinde	-489
ob	-490
çek	-491
▁şekilde	-492
der	-493
ast	-494
▁Türkiye	-495
cel	-496
▁olduğ	-497
▁yan	-498
gili	-499
oz	-500
▁ben	-501
ci	-502
eg	-503
nin	-504
iştir	-505
▁at	-506
og	-507
ştir	-508
▁tüm	-509
lay	-510
▁top	-511
▁yük	-512
adan	-513
ret	-514
▁sonra	-515
▁ürün	-516
han	-517
▁hay	-518
ılan	-519
ster	-520
larda	-521
▁am	-522
▁içer	-523
▁dön	-524
ub	-525
▁Bil	-526
▁durum	-527
▁den	-528
usu	-529
▁sev	-530
ig	-531
▁uz	-532
▁Ek	-533
▁ne	-534
lad	-535
abil	-536
▁ok	-537
uyor	-538
▁sat	-539
▁Kar	-540
▁gen	-541
▁or	-542
▁seç	-543
mesi	-544
oj	-545
ant	-546
▁düz	-547
azı	-548
bul	-549
up	-550
ılı	-551
▁bak	-552
▁İl	-553
▁yak	-554
▁tam	-555
siz	-556
▁bağ	-557
▁İst	-558
▁sun	-559
com	-560
▁ise	-561
ing	-562
abilirsiniz	-563
dur	-564
▁yol	-565
istem	-566
aat	-567
▁Er	-568
ıyla	-569
leş	-570
ilik	-571
▁fark	-572
▁ul	-573
▁değil	-574
▁Gün	-575
re	-576
uç	-577
mam	-578
ehir	-579
▁iyi	-580
anbul	-581
dür	-582
▁açık	-583
▁böl	-584
kan	-585
▁ki	-586
orm	-587
dım	-588
▁ü	-589
oş	-590
ten	-591
liği	-592
uştur	-593
una	-594
▁–	-595
eyi	-596
iğer	-597
EN	-598
▁mü	-599
▁yüz	-600
▁gerçek	-601
▁göre	-602
▁hem	-603
ran	-604
▁Haber	-605
▁Ak	-606
▁göster	-607
▁uygul	-608
oloj	-609
▁önem	-610
▁kend	-611
▁faz	-612
azan	-613
anlı	-614
net	-615
bir	-616
ileri	-617
▁Son	-618
▁bilg	-619
▁Escort	-620
▁büyük	-621
▁Kur	-622
▁ser	-623
leştir	-624
raf	-625
malar	-626
▁aş	-627
▁işlem	-628
▁ilgili	-629
▁insan	-630
rı	-631
▁oyun	-632
▁ilk	-633
▁biz	-634
atır	-635
▁öğr	-636
lama	-637
▁dol	-638
▁har	-639
▁İş	-640
▁kullanıl	-641
▁sahip	-642
larına	-643
▁alt	-644
▁tarih	-645
▁Sit	-646
sız	-647
▁hakk	-648
tar	-649
▁:	-650
maya	-651
ide	-652
▁ya	-653
tal	-654
▁önce	-655
İN	-656
ag	-657
▁neden	-658
inizi	-659
AL	-660
ket	-661
▁güven	-662
ili	-663
acağ	-664
▁eğ	-665
mektedir	-666
▁olduğu	-667
nı	-668
aylaş	-669
▁tut	-670
enin	-671
ka	-672
▁/	-673
▁Ad	-674
▁yet	-675
osy	-676
ika	-677
▁bahis	-678
por	-679
▁yorum	-680
LER	-681
eme	-682
▁yok	-683
▁alın	-684
▁ede	-685
lığı	-686
▁par	-687
üzel	-688
▁tes	-689
asar	-690
▁kol	-691
▁çek	-692
etim	-693
▁sır	-694
▁Kon	-695
esine	-696
diğ	-697
larının	-698
etir	-699
▁kab	-700
▁devam	-701
IN	-702
▁der	-703
▁ter	-704
esini	-705
▁Kas	-706
▁Pro	-707
anın	-708
▁Bel	-709
aj	-710
çe	-711
ulu	-712
lerde	-713
itim	-714
ye	-715
ilerin	-716
ça	-717
▁İstanbul	-718
AK	-719
▁ot	-720
▁art	-721
▁is	-722
nın	-723
▁adres	-724
▁fazla	-725
▁Gen	-726
sek	-727
▁söz	-728
▁değer	-729
▁san	-730
▁göz	-731
dığ	-732
lendir	-733
▁as	-734
▁J	-735
▁ulaş	-736
ızı	-737
he	-738
▁az	-739
ocuk	-740
▁getir	-741
▁mu	-742
▁sistem	-743
ediğ	-744
azır	-745
lerinin	-746
▁kıs	-747
ent	-748
▁Bak	-749
erkez	-750
▁fiyat	-751
Lİ	-752
▁Yap	-753
ET	-754
si	-755
▁Ev	-756
ov	-757
▁gön	-758
diği	-759
lardan	-760
AT	-761
iyorum	-762
▁|	-763
▁İç	-764
▁tem	-765
▁yapt	-766
alan	-767
▁kazan	-768
likle	-769
▁e	-770
dü	-771
ilmesi	-772
isel	-773
▁hiç	-774
▁Kasım	-775
▁dün	-776
▁etm	-777
▁dest	-778
▁söy	-779
ici	-780
▁Tar	-781
▁haber	-782
▁önemli	-783
▁hes	-784
ne	-785
▁tan	-786
dığı	-787
esin	-788
▁web	-789
▁duy	-790
ılık	-791
▁Eğ	-792
emek	-793
▁üy	-794
▁olmak	-795
ektir	-796
▁fir	-797
▁im	-798
ülk	-799
lerine	-800
▁diğer	-801
osta	-802
▁nasıl	-803
▁dış	-804
çi	-805
▁düzen	-806
▁taş	-807
▁Tek	-808
▁etk	-809
▁şey	-810
larında	-811
▁birlik	-812
ıp	-813
sun	-814
▁mes	-815
▁hak	-816
maz	-817
▁olur	-818
▁mil	-819
tik	-820
▁tür	-821
▁bur	-822
acaktır	-823
▁El	-824
acı	-825
▁Or	-826
▁uygun	-827
▁ağ	-828
LAR	-829
ternet	-830
▁düşün	-831
irket	-832
kanı	-833
endi	-834
lim	-835
▁hayat	-836
tt	-837
nak	-838
▁Yorum	-839
rup	-840
gün	-841
eyen	-842
▁arasında	-843
eği	-844
▁içinde	-845
OR	-846
▁Bur	-847
adece	-848
▁kr	-849
asin	-850
▁zor	-851
▁olduğunu	-852
üp	-853
▁kan	-854
larımız	-855
▁hazır	-856
▁mod	-857
▁bas	-858
▁Av	-859
▁öğren	-860
▁gönder	-861
▁saat	-862
leme	-863
▁er	-864
▁güzel	-865
ındaki	-866
İR	-867
erez	-868
▁görün	-869
▁konu	-870
AM	-871
▁tamam	-872
AY	-873
▁doğru	-874
min	-875
▁eş	-876
▁farklı	-877
larla	-878
iyon	-879
ES	-880
▁ülk	-881
obil	-882
azar	-883
▁boy	-884
▁kor	-885
▁TL	-886
▁öl	-887
▁mak	-888
▁Mü	-889
tür	-890
▁birlikte	-891
dem	-892
▁paylaş	-893
▁üzere	-894
atı	-895
olit	-896
AS	-897
▁kim	-898
lük	-899
▁iliş	-900
osyal	-901
▁mal	-902
▁bek	-903
isinde	-904
▁tel	-905
ON	-906
▁ama	-907
▁Ser	-908
ge	-909
uv	-910
anıt	-911
▁#	-912
▁bilgi	-913
▁dik	-914
▁oluştur	-915
EK	-916
▁değiş	-917
abı	-918
▁bin	-919
lah	-920
▁Aralık	-921
efon	-922
▁kurul	-923
▁yayın	-924
ank	-925
▁tekn	-926
lerimiz	-927
▁İs	-928
kat	-929
▁u	-930
sam	-931
▁kabul	-932
lül	-933
▁Dev	-934
lamak	-935
ünde	-936
▁Tem	-937
ile	-938
▁aynı	-939
▁üst	-940
egor	-941
▁‘	-942
eti	-943
aştır	-944
öyle	-945
ahat	-946
na	-947
▁dedi	-948
▁edil	-949
luk	-950
ver	-951
ebilirsiniz	-952
olu	-953
▁iht	-954
üyor	-955
ale	-956
▁yapılan	-957
posta	-958
dar	-959
▁destek	-960
gel	-961
lerinde	-962
eda	-963
eks	-964
▁Ön	-965
▁gelen	-966
gram	-967
▁Ey	-968
iyoruz	-969
▁İz	-970
lak	-971
▁Mu	-972
▁Gir	-973
▁hat	-974
▁San	-975
▁Cum	-976
esinin	-977
▁eder	-978
ook	-979
ünü	-980
▁kö	-981
▁Yeni	-982
ayıs	-983
▁Oy	-984
▁yardım	-985
asına	-986
▁Kat	-987
lerden	-988
▁hakkında	-989
lanan	-990
▁ilet	-991
kara	-992
usunda	-993
asino	-994
yla	-995
urt	-996
fa	-997
LE	-998
▁yüksek	-999
okt	-1000
nun	-1001
enk	-1002
▁iki	-1003
▁Her	-1004
▁karşı	-1005
▁öz	-1006
ps	-1007
▁sadece	-1008
ch	-1009
iyaret	-1010
amaz	-1011
ink	-1012
▁dah	-1013
ücret	-1014
//	-1015
▁em	-1016
ektör	-1017
▁belirt	-1018
amp	-1019
▁kullanıcı	-1020
▁olması	-1021
▁ücret	-1022
ite	-1023
▁sitesi	-1024
▁eden	-1025
▁[	-1026
▁Tüm	-1027
ece	-1028
▁%	-1029
▁tal	-1030
iyas	-1031
ri	-1032
▁para	-1033
kü	-1034
▁yay	-1035
▁hız	-1036
ivers	-1037
://	-1038
▁ark	-1039
▁mad	-1040
adığ	-1041
UR	-1042
▁,	-1043
asını	-1044
ılır	-1045
ow	-1046
ex	-1047
▁haf	-1048
evap	-1049
meye	-1050
▁htt	-1051
olitik	-1052
▁Ok	-1053
▁Gü	-1054
▁Ben	-1055
ladı	-1056
may	-1057
▁At	-1058
ektr	-1059
tü	-1060
mi	-1061
▁yatır	-1062
▁Özel	-1063
vur	-1064
▁mut	-1065
cih	-1066
ww	-1067
▁if	-1068
▁Kullan	-1069
edav	-1070
▁sal	-1071
▁Gaz	-1072
ikay	-1073
▁Öz	-1074
tiğ	-1075
▁önc	-1076
▁yas	-1077
ayıt	-1078
▁giriş	-1079
ack	-1080
▁su	-1081
gul	-1082
rıca	-1083
▁Genel	-1084
atik	-1085
▁Hakk	-1086
▁Ol	-1087
▁kadın	-1088
▁tab	-1089
▁sorun	-1090
--	-1091
sal	-1092
▁çıkar	-1093
ana	-1094
▁çev	-1095
▁edilm	-1096
abilm	-1097
▁genel	-1098
▁sık	-1099
▁mev	-1100
▁Kan	-1101
▁gerçekleştir	-1102
▁Dün	-1103
ütün	-1104
▁hav	-1105
▁mi	-1106
det	-1107
▁bölüm	-1108
aba	-1109
▁takip	-1110
▁bulunan	-1111
▁film	-1112
▁Kay	-1113
▁tasar	-1114
adaş	-1115
dik	-1116
▁Ür	-1117
▁müşt	-1118
▁it	-1119
sanız	-1120
hur	-1121
layan	-1122
▁kendi	-1123
▁dil	-1124
▁As	-1125
▁Kad	-1126
ize	-1127
▁bilgiler	-1128
▁dav	-1129
mıştır	-1130
EM	-1131
▁Uy	-1132
▁olduk	-1133
▁anlam	-1134
▁Ver	-1135
▁oyn	-1136
eşit	-1137
itap	-1138
oh	-1139
▁dönem	-1140
▁edeb	-1141
oloji	-1142
ari	-1143
▁dikkat	-1144
▁ör	-1145
▁uygulam	-1146
larından	-1147
▁üret	-1148
▁On	-1149
▁üzerinden	-1150
ınır	-1151
▁Yön	-1152
▁seb	-1153
▁Gör	-1154
▁Yar	-1155
▁sen	-1156
▁Ün	-1157
ğü	-1158
ebil	-1159
▁bey	-1160
lerle	-1161
ete	-1162
▁yaşam	-1163
▁çocuk	-1164
dık	-1165
▁sorum	-1166
▁Beled	-1167
▁Tak	-1168
▁teş	-1169
gan	-1170
▁tık	-1171
▁biri	-1172
▁Eylül	-1173
tem	-1174
▁kaç	-1175
▁Am	-1176
üne	-1177
▁kolay	-1178
İZ	-1179
elim	-1180
lilik	-1181
▁tercih	-1182
go	-1183
onom	-1184
lerinden	-1185
çok	-1186
▁ihtiy	-1187
eğen	-1188
▁Gel	-1189
▁Doğ	-1190
▁Haz	-1191
oğlu	-1192
lenen	-1193
▁Par	-1194
▁Top	-1195
kı	-1196
sik	-1197
ildi	-1198
▁karar	-1199
muz	-1200
rak	-1201
umar	-1202
ırak	-1203
hangi	-1204
▁çöz	-1205
▁Şub	-1206
LI	-1207
▁hast	-1208
▁bun	-1209
▁kalit	-1210
▁gid	-1211
elerin	-1212
enek	-1213
▁deney	-1214
▁Et	-1215
ucu	-1216
avaş	-1217
▁Ot	-1218
uluk	-1219
trol	-1220
▁etmek	-1221
▁ziyaret	-1222
ıza	-1223
▁eğitim	-1224
▁içerisinde	-1225
▁şirket	-1226
▁Ürün	-1227
▁Mal	-1228
orn	-1229
ideo	-1230
AD	-1231
İM	-1232
▁bölg	-1233
),	-1234
umuz	-1235
adı	-1236
▁sak	-1237
eklam	-1238
▁geçir	-1239
ışı	-1240
....	-1241
▁kapsam	-1242
üç	-1243
▁ip	-1244
▁Kal	-1245
▁karşıl	-1246
▁diye	-1247
▁ik	-1248
▁Kr	-1249
sin	-1250
EL	-1251
İT	-1252
▁satın	-1253
mayı	-1254
mir	-1255
suz	-1256
▁Sat	-1257
ere	-1258
ukuk	-1259
▁Ekim	-1260
▁Kiş	-1261
▁of	-1262
▁katıl	-1263
maları	-1264
▁telefon	-1265
▁Ankara	-1266
▁size	-1267
▁Yaz	-1268
▁sonr	-1269
oğraf	-1270
etay	-1271
iversit	-1272
▁res	-1273
▁edilen	-1274
▁Bet	-1275
▁uzun	-1276
gin	-1277
erli	-1278
▁Yıl	-1279
▁Sağ	-1280
resi	-1281
rar	-1282
▁güç	-1283
▁Daha	-1284
ıma	-1285
▁Ne	-1286
▁fa	-1287
ümüz	-1288
▁bit	-1289
▁un	-1290
▁üzerinde	-1291
▁Bey	-1292
ion	-1293
▁düny	-1294
▁sayf	-1295
▁yür	-1296
ültür	-1297
▁Tr	-1298
▁bazı	-1299
isan	-1300
▁Mil	-1301
▁görev	-1302
▁dur	-1303
tif	-1304
anlar	-1305
▁oluş	-1306
iran	-1307
▁yönet	-1308
eket	-1309
▁üç	-1310
▁hiçbir	-1311
▁bırak	-1312
▁indir	-1313
gın	-1314
AB	-1315
▁In	-1316
▁han	-1317
▁Kap	-1318
ansı	-1319
▁met	-1320
▁...	-1321
▁Say	-1322
▁Bahis	-1323
stos	-1324
ök	-1325
ekk	-1326
▁Ağu	-1327
▁Güven	-1328
▁çeşit	-1329
ber	-1330
ud	-1331
baş	-1332
oru	-1333
▁Başkanı	-1334
▁olabilir	-1335
▁Mayıs	-1336
▁*	-1337
landır	-1338
▁Mah	-1339
▁erk	-1340
las	-1341
▁Temmuz	-1342
▁Nasıl	-1343
▁sı	-1344
▁'	-1345
▁https	-1346
tur	-1347
bol	-1348
▁herhangi	-1349
▁mı	-1350
▁&	-1351
madan	-1352
duğu	-1353
▁site	-1354
edik	-1355
▁Ağustos	-1356
anda	-1357
▁dem	-1358
▁ait	-1359
▁av	-1360
duğ	-1361
▁canlı	-1362
▁incel	-1363
▁Tur	-1364
ayıcı	-1365
lıy	-1366
abileceğ	-1367
▁serv	-1368
▁ediyor	-1369
masını	-1370
▁olacak	-1371
hat	-1372
ipar	-1373
▁Cumhur	-1374
dın	-1375
▁sağlık	-1376
din	-1377
▁arkadaş	-1378
▁çerez	-1379
▁kaynak	-1380
meler	-1381
malı	-1382
istan	-1383
izi	-1384
▁Kır	-1385
masına	-1386
gı	-1387
▁bile	-1388
form	-1389
▁Hizmet	-1390
sunuz	-1391
▁Nisan	-1392
per	-1393
▁Aç	-1394
▁bayan	-1395
▁kişisel	-1396
▁başka	-1397
edya	-1398
onus	-1399
▁Merkez	-1400
taj	-1401
▁Büyük	-1402
▁proj	-1403
AŞ	-1404
▁birçok	-1405
AZ	-1406
kün	-1407
▁Haziran	-1408
erj	-1409
▁mark	-1410
▁Fiyat	-1411
▁kom	-1412
mez	-1413
▁program	-1414
▁Giriş	-1415
ij	-1416
line	-1417
▁has	-1418
▁konusunda	-1419
deme	-1420
▁Ko	-1421
lum	-1422
amak	-1423
▁iletişim	-1424
ipariş	-1425
▁güncel	-1426
▁rahat	-1427
inize	-1428
▁Şubat	-1429
rim	-1430
▁mer	-1431
▁kişi	-1432
indeki	-1433
▁Uz	-1434
▁git	-1435
▁internet	-1436
▁Değ	-1437
▁Mer	-1438
İK	-1439
▁bilgil	-1440
üçük	-1441
ekte	-1442
▁ortaya	-1443
▁amaç	-1444
IR	-1445
▁merkez	-1446
▁başvur	-1447
▁kız	-1448
▁Mart	-1449
for	-1450
▁cevap	-1451
▁Söz	-1452
▁Hav	-1453
▁bütün	-1454
.”	-1455
all	-1456
edef	-1457
▁AB	-1458
▁tav	-1459
▁tah	-1460
▁Başkan	-1461
▁üzerine	-1462
▁başar	-1463
ımda	-1464
▁İlk	-1465
▁Oyun	-1466
▁anlat	-1467
İY	-1468
▁bah	-1469
▁yapmak	-1470
▁Böl	-1471
▁zar	-1472
inc	-1473
▁Alt	-1474
▁geliştir	-1475
▁görüş	-1476
sat	-1477
ecektir	-1478
rupa	-1479
UN	-1480
▁kurum	-1481
otoğraf	-1482
▁araç	-1483
tiv	-1484
▁Mak	-1485
ümkün	-1486
▁Tekn	-1487
▁Hay	-1488
ıyoruz	-1489
ni	-1490
▁veren	-1491
▁ayr	-1492
▁geliş	-1493
ünkü	-1494
▁Ancak	-1495
tığ	-1496
muş	-1497
şehir	-1498
ilere	-1499
▁hesab	-1500
▁yöntem	-1501
▁Der	-1502
gu	-1503
▁sektör	-1504
▁kontrol	-1505
DA	-1506
manın	-1507
▁almak	-1508
ulan	-1509
▁plan	-1510
▁yerine	-1511
alt	-1512
DE	-1513
ali	-1514
▁ancak	-1515
▁geri	-1516
▁Ocak	-1517
aban	-1518
▁Yazı	-1519
isini	-1520
▁yılında	-1521
İL	-1522
dana	-1523
iyesi	-1524
▁Ayrıca	-1525
isine	-1526
▁yatırım	-1527
▁mas	-1528
▁içerik	-1529
ınızı	-1530
▁bağlan	-1531
adığı	-1532
zer	-1533
▁Web	-1534
ılması	-1535
UL	-1536
hal	-1537
▁sonuç	-1538
ediği	-1539
akat	-1540
▁konuş	-1541
dak	-1542
▁Dr	-1543
nek	-1544
▁değiştir	-1545
▁olup	-1546
talya	-1547
aliyet	-1548
▁yazı	-1549
▁mümkün	-1550
▁sınır	-1551
▁dak	-1552
ekten	-1553
manız	-1554
▁Yük	-1555
▁Eğitim	-1556
ıyorum	-1557
▁fır	-1558
▁kes	-1559
▁tr	-1560
▁Çok	-1561
▁sosyal	-1562
fen	-1563
▁hızlı	-1564
▁din	-1565
imdi	-1566
▁verm	-1567
▁izle	-1568
▁id	-1569
ediğiniz	-1570
▁Allah	-1571
▁Hal	-1572
▁Bakan	-1573
▁model	-1574
cek	-1575
ekkür	-1576
▁Tel	-1577
▁vardır	-1578
▁yaptığ	-1579
▁gerekli	-1580
▁the	-1581
▁benim	-1582
IM	-1583
latform	-1584
ime	-1585
▁tat	-1586
bu	-1587
lenmiş	-1588
▁yapan	-1589
▁tedav	-1590
▁hemen	-1591
▁his	-1592
▁bildir	-1593
asının	-1594
UM	-1595
üsü	-1596
of	-1597
▁Ve	-1598
▁Yaş	-1599
undan	-1600
ayd	-1601
▁kısa	-1602
▁do	-1603
abet	-1604
cü	-1605
ele	-1606
▁Kor	-1607
▁Mes	-1608
▁şu	-1609
any	-1610
▁mah	-1611
▁adresimi	-1612
▁Avrupa	-1613
ÜN	-1614
tık	-1615
▁talep	-1616
▁etkin	-1617
▁Hat	-1618
üşt	-1619
ınıza	-1620
▁işaret	-1621
▁koy	-1622
▁özellik	-1623
▁Üniversit	-1624
van	-1625
▁Yan	-1626
lo	-1627
▁değerlendir	-1628
ST	-1629
▁yen	-1630
▁Har	-1631
▁iptal	-1632
▁etti	-1633
akl	-1634
log	-1635
▁Dünya	-1636
imli	-1637
▁elektr	-1638
▁kayıt	-1639
luluk	-1640
▁gelir	-1641
▁araştır	-1642
▁büy	-1643
icaret	-1644
▁zamanda	-1645
eriler	-1646
▁bilin	-1647
orno	-1648
▁mesaj	-1649
▁diy	-1650
▁oldukça	-1651
▁kır	-1652
▁yaklaş	-1653
enc	-1654
lemek	-1655
ohbet	-1656
etler	-1657
▁Kom	-1658
▁mem	-1659
▁Biz	-1660
ıldı	-1661
abilecek	-1662
ibar	-1663
▁yakın	-1664
uc	-1665
AP	-1666
wit	-1667
▁Mar	-1668
▁gereken	-1669
▁hesap	-1670
▁siteler	-1671
▁hep	-1672
▁Bay	-1673
▁hareket	-1674
ıştır	-1675
▁Gal	-1676
ekli	-1677
ilmiş	-1678
▁söyl	-1679
▁VE	-1680
doğ	-1681
▁maç	-1682
▁temiz	-1683
lıyor	-1684
▁teslim	-1685
iyi	-1686
▁ün	-1687
leyen	-1688
nde	-1689
onusu	-1690
▁kesin	-1691
▁kam	-1692
ırı	-1693
▁Öğr	-1694
tiği	-1695
▁Kategor	-1696
▁yüzde	-1697
▁bar	-1698
üb	-1699
▁günü	-1700
▁kullanım	-1701
▁list	-1702
▁hedef	-1703
pr	-1704
bi	-1705
▁çalışmalar	-1706
▁inan	-1707
ame	-1708
lif	-1709
▁soru	-1710
lus	-1711
sman	-1712
▁gaz	-1713
yum	-1714
imleri	-1715
▁İçin	-1716
co	-1717
▁değişik	-1718
ve	-1719
dından	-1720
▁.	-1721
ütfen	-1722
▁Haberler	-1723
▁edin	-1724
▁Rus	-1725
▁bağlı	-1726
▁aşağı	-1727
▁ac	-1728
▁Politik	-1729
▁tur	-1730
sınız	-1731
ınıf	-1732
cut	-1733
▁veri	-1734
layın	-1735
▁milyon	-1736
iri	-1737
tin	-1738
endir	-1739
lis	-1740
▁Film	-1741
ÜR	-1742
▁per	-1743
unca	-1744
▁St	-1745
eğin	-1746
br	-1747
üler	-1748
▁to	-1749
▁elde	-1750
ail	-1751
▁İzmir	-1752
▁değildir	-1753
kinci	-1754
ie	-1755
▁faaliyet	-1756
▁açıklam	-1757
▁Kişisel	-1758
▁İnternet	-1759
ital	-1760
▁geçen	-1761
acağı	-1762
to	-1763
anış	-1764
▁sef	-1765
ate	-1766
▁Man	-1767
▁Bunun	-1768
▁Tarih	-1769
▁yazıl	-1770
▁şart	-1771
▁ih	-1772
▁Bul	-1773
gun	-1774
▁itibar	-1775
▁kav	-1776
▁pr	-1777
▁Canlı	-1778
onu	-1779
çı	-1780
aların	-1781
▁hük	-1782
arası	-1783
▁amac	-1784
▁Dem	-1785
oğun	-1786
osu	-1787
▁olsun	-1788
eriğ	-1789
ment	-1790
▁ilişkin	-1791
▁Devam	-1792
▁artık	-1793
▁cih	-1794
uğ	-1795
▁görül	-1796
ebook	-1797
▁süre	-1798
ımızda	-1799
▁prof	-1800
▁kil	-1801
▁sitemiz	-1802
▁cez	-1803
▁yardımcı	-1804
▁ber	-1805
▁altında	-1806
mel	-1807
onik	-1808
▁çözüm	-1809
landı	-1810
).	-1811
▁ortam	-1812
▁engel	-1813
▁Sağlık	-1814
▁Müdür	-1815
▁+	-1816
imler	-1817
ata	-1818
imize	-1819
oşul	-1820
▁hukuk	-1821
zem	-1822
▁diz	-1823
uh	-1824
anan	-1825
uyla	-1826
etleri	-1827
▁dünya	-1828
one	-1829
sil	-1830
▁sizin	-1831
mal	-1832
fer	-1833
ünün	-1834
▁Çalış	-1835
imizin	-1836
▁böyle	-1837
ebek	-1838
▁edebilir	-1839
▁Res	-1840
lerdir	-1841
▁mey	-1842
▁casino	-1843
isyon	-1844
▁doğr	-1845
▁kez	-1846
tay	-1847
▁Yayın	-1848
▁Çocuk	-1849
▁spor	-1850
▁veriler	-1851
eyin	-1852
▁Tes	-1853
▁satış	-1854
▁siteleri	-1855
▁numar	-1856
▁Pr	-1857
imde	-1858
▁yarat	-1859
▁tekrar	-1860
▁ses	-1861
▁Kadın	-1862
ens	-1863
▁reklam	-1864
▁Fir	-1865
▁kut	-1866
alama	-1867
atif	-1868
▁Hak	-1869
emi	-1870
▁Ör	-1871
▁Bit	-1872
▁Siz	-1873
ayıp	-1874
▁alış	-1875
iyeti	-1876
▁gerekir	-1877
▁Ter	-1878
▁aktar	-1879
▁Giz	-1880
▁tanım	-1881
▁pek	-1882
witter	-1883
▁ölç	-1884
▁öğrenc	-1885
▁Serv	-1886
▁form	-1887
isay	-1888
lenm	-1889
▁mik	-1890
bahis	-1891
tığı	-1892
üğ	-1893
▁arac	-1894
▁izin	-1895
▁bugün	-1896
▁türlü	-1897
ons	-1898
▁Met	-1899
▁temel	-1900
▁genç	-1901
ami	-1902
▁Kol	-1903
▁li	-1904
▁erkek	-1905
▁herk	-1906
eci	-1907
▁Prof	-1908
▁cin	-1909
larınız	-1910
▁renk	-1911
▁İngil	-1912
▁Nedir	-1913
▁Seç	-1914
▁teşekkür	-1915
▁ihtiyaç	-1916
▁Ab	-1917
elere	-1918
▁yarar	-1919
ation	-1920
▁detay	-1921
acebook	-1922
▁•	-1923
▁Sev	-1924
▁dahil	-1925
▁konusu	-1926
▁ilişk	-1927
▁Ger	-1928
▁Sosyal	-1929
uyu	-1930
agram	-1931
dim	-1932
dum	-1933
▁Gerek	-1934
ıntı	-1935
ıt	-1936
▁yağ	-1937
▁Deniz	-1938
▁küçük	-1939
aliz	-1940
▁Has	-1941
ou	-1942
▁ABD	-1943
▁hafta	-1944
şte	-1945
arb	-1946
▁mevcut	-1947
▁Sak	-1948
▁onay	-1949
▁çalışan	-1950
▁Alan	-1951
▁anlaş	-1952
▁uzman	-1953
▁Aş	-1954
▁Spor	-1955
isk	-1956
öv	-1957
inizin	-1958
▁madd	-1959
▁zarar	-1960
▁platform	-1961
▁halinde	-1962
▁sayesinde	-1963
▁Ah	-1964
stagram	-1965
▁AK	-1966
veriş	-1967
▁olmayan	-1968
ED	-1969
▁tük	-1970
aln	-1971
▁kaliteli	-1972
▁hizmeti	-1973
▁ardından	-1974
▁sey	-1975
▁geniş	-1976
link	-1977
▁mobil	-1978
▁kir	-1979
▁ifade	-1980
▁st	-1981
▁Sür	-1982
▁Han	-1983
▁yönelik	-1984
▁Osman	-1985
ift	-1986
▁seçenek	-1987
▁servis	-1988
ücad	-1989
▁nedeniyle	-1990
▁bakım	-1991
▁Üniversitesi	-1992
▁ekonom	-1993
AH	-1994
▁sağlamak	-1995
lüğü	-1996
su	-1997
▁Geç	-1998
▁fayd	-1999
▁sipariş	-2000
▁boz	-2001
imizi	-2002
▁bilm	-2003
▁uç	-2004
▁hiss	-2005
▁bunu	-2006
gesi	-2007
esinden	-2008
▁yat	-2009
▁sil	-2010
etmen	-2011
▁adet	-2012
nda	-2013
▁Ağ	-2014
lıdır	-2015
isinin	-2016
isayar	-2017
üncü	-2018
alnız	-2019
ind	-2020
İS	-2021
▁vak	-2022
doğan	-2023
▁kapsamında	-2024
▁Mod	-2025
▁Su	-2026
asyonu	-2027
▁©	-2028
▁nokt	-2029
IZ	-2030
▁sab	-2031
erik	-2032
adolu	-2033
LERİ	-2034
▁geldi	-2035
alım	-2036
ılmış	-2037
ogle	-2038
▁Tam	-2039
▁nedir	-2040
▁ab	-2041
dül	-2042
duk	-2043
▁Em	-2044
▁yayım	-2045
▁İnsan	-2046
▁Çerez	-2047
lararası	-2048
erler	-2049
▁sözleş	-2050
▁ner	-2051
larıyla	-2052
▁man	-2053
▁fotoğraf	-2054
amız	-2055
▁and	-2056
▁otom	-2057
lulu	-2058
▁isteyen	-2059
▁oran	-2060
abancı	-2061
▁Sistem	-2062
▁vat	-2063
edim	-2064
▁dolayı	-2065
▁dir	-2066
▁içeriğ	-2067
▁iy	-2068
▁kaydet	-2069
IK	-2070
epe	-2071
▁Af	-2072
pit	-2073
tım	-2074
▁çeşitli	-2075
▁sebep	-2076
▁kaldır	-2077
▁Eğer	-2078
tül	-2079
▁video	-2080
miştir	-2081
▁Mobil	-2082
str	-2083
▁alanlar	-2084
▁Go	-2085
ord	-2086
▁Cev	-2087
elerini	-2088
▁istem	-2089
▁bizim	-2090
ba	-2091
▁devlet	-2092
▁tasarım	-2093
▁Diğer	-2094
▁Üy	-2095
dağ	-2096
▁Antalya	-2097
▁yüksel	-2098
andaş	-2099
▁beraber	-2100
▁parç	-2101
esyon	-2102
▁Ed	-2103
▁cihaz	-2104
OL	-2105
▁hangi	-2106
ılığ	-2107
▁toplan	-2108
▁Sh	-2109
üf	-2110
umu	-2111
▁kit	-2112
▁Şirket	-2113
▁ödeme	-2114
acklink	-2115
alarda	-2116
iyim	-2117
▁İlet	-2118
▁Bas	-2119
uan	-2120
atör	-2121
asa	-2122
esel	-2123
lardır	-2124
uştu	-2125
eceği	-2126
▁Hakkında	-2127
gisi	-2128
▁Per	-2129
▁Aj	-2130
ight	-2131
▁Bayan	-2132
▁ettiğ	-2133
izm	-2134
▁dayan	-2135
▁dair	-2136
▁yaptığı	-2137
ümü	-2138
▁pan	-2139
acağını	-2140
▁ücretsiz	-2141
mem	-2142
afa	-2143
▁hüküm	-2144
----	-2145
siyon	-2146
uvar	-2147
▁toplum	-2148
urda	-2149
İŞ	-2150
▁oluyor	-2151
▁yetk	-2152
▁Politikası	-2153
▁boş	-2154
▁Bağ	-2155
__	-2156
▁j	-2157
▁sayı	-2158
ücü	-2159
▁le	-2160
ect	-2161
lenme	-2162
▁X	-2163
aket	-2164
▁yine	-2165
▁kural	-2166
▁sağlay	-2167
esyonel	-2168
▁ko	-2169
▁ele	-2170
▁Un	-2171
meniz	-2172
▁sizlere	-2173
▁dakika	-2174
erson	-2175
▁yeniden	-2176
IL	-2177
▁şekl	-2178
▁pazar	-2179
mamız	-2180
▁vur	-2181
▁bana	-2182
meyi	-2183
▁{	-2184
▁teknik	-2185
▁Açık	-2186
▁uygulan	-2187
▁olacaktır	-2188
▁ağır	-2189
▁kullanılan	-2190
ince	-2191
day	-2192
▁uzak	-2193
▁özellikle	-2194
tim	-2195
▁Çek	-2196
erji	-2197
asından	-2198
▁olun	-2199
▁ister	-2200
▁sar	-2201
▁Yak	-2202
ünden	-2203
aması	-2204
▁Sitemiz	-2205
▁can	-2206
▁kitap	-2207
asındaki	-2208
rik	-2209
▁Güncel	-2210
uar	-2211
▁unut	-2212
ınızda	-2213
▁bor	-2214
adık	-2215
▁Türkçe	-2216
▁dışında	-2217
▁Bun	-2218
lanır	-2219
▁sin	-2220
isans	-2221
▁sahibi	-2222
▁tarihi	-2223
ova	-2224
▁medya	-2225
elerde	-2226
▁mağ	-2227
▁başladı	-2228
▁Aydın	-2229
lek	-2230
mayacak	-2231
▁kısm	-2232
▁Ap	-2233
▁öner	-2234
emin	-2235
ınav	-2236
▁ilç	-2237
▁Den	-2238
▁dep	-2239
evi	-2240
▁Gön	-2241
▁Sor	-2242
ebilm	-2243
▁çağ	-2244
▁kuruluş	-2245
▁eski	-2246
ilecek	-2247
CI	-2248
zu	-2249
▁Düz	-2250
▁tavs	-2251
his	-2252
▁kamp	-2253
▁istiyor	-2254
can	-2255
▁çalışma	-2256
▁teknoloj	-2257
arken	-2258
▁bunun	-2259
erken	-2260
▁gez	-2261
▁bilgileri	-2262
our	-2263
ess	-2264
▁tarayıcı	-2265
dığını	-2266
US	-2267
irt	-2268
▁etkil	-2269
▁Bah	-2270
▁»	-2271
▁güvenilir	-2272
▁ortak	-2273
▁biraz	-2274
▁Kö	-2275
▁Merkezi	-2276
▁dok	-2277
oğu	-2278
oktor	-2279
▁savaş	-2280
▁politik	-2281
opy	-2282
ukarı	-2283
▁sürdür	-2284
▁Anadolu	-2285
▁Casino	-2286
▁İletişim	-2287
kın	-2288
ışık	-2289
alet	-2290
▁nedenle	-2291
▁?	-2292
▁bonus	-2293
▁hale	-2294
▁Haberleri	-2295
▁bize	-2296
▁Sin	-2297
▁uğr	-2298
▁Belediyesi	-2299
▁►	-2300
mayan	-2301
▁yapı	-2302
düğ	-2303
▁ekip	-2304
▁Taş	-2305
▁Sitesi	-2306
adığını	-2307
▁gerç	-2308
▁Uygul	-2309
▁saldır	-2310
cısı	-2311
iliğ	-2312
umaş	-2313
ult	-2314
▁adım	-2315
inizde	-2316
▁yanı	-2317
▁adam	-2318
ku	-2319
▁nit	-2320
mer	-2321
name	-2322
▁müz	-2323
▁sanat	-2324
▁by	-2325
deş	-2326
▁amacıyla	-2327
▁Kim	-2328
lin	-2329
▁Kategoriler	-2330
▁verilen	-2331
atur	-2332
▁No	-2333
▁birbir	-2334
▁sıra	-2335
lüğ	-2336
...]	-2337
▁yemek	-2338
lanması	-2339
ersin	-2340
LAN	-2341
mar	-2342
igort	-2343
▁durumda	-2344
▁fik	-2345
▁Hem	-2346
▁bet	-2347
▁tamamen	-2348
air	-2349
ore	-2350
rafik	-2351
diğini	-2352
▁üretim	-2353
▁ulus	-2354
▁key	-2355
ört	-2356
▁Facebook	-2357
▁Çev	-2358
▁mücad	-2359
YA	-2360
meden	-2361
▁Sam	-2362
▁kul	-2363
umlu	-2364
esiyle	-2365
▁ederek	-2366
aca	-2367
▁olay	-2368
▁şehir	-2369
▁Çünkü	-2370
▁Gö	-2371
şam	-2372
▁Bursa	-2373
▁organ	-2374
▁Ama	-2375
▁Kullanıcı	-2376
▁biç	-2377
▁Gizlilik	-2378
▁Önc	-2379
▁Kültür	-2380
▁Sp	-2381
ijital	-2382
ısından	-2383
▁işlet	-2384
▁çıkan	-2385
inci	-2386
▁bay	-2387
▁piyas	-2388
ork	-2389
▁Para	-2390
▁yapıyor	-2391
▁süreç	-2392
▁Erdoğan	-2393
elidir	-2394
▁Alman	-2395
▁Tab	-2396
▁artır	-2397
▁şeh	-2398
▁makin	-2399
leriyle	-2400
çiler	-2401
omment	-2402
▁saç	-2403
▁imz	-2404
uma	-2405
▁[...]	-2406
▁gec	-2407
▁adresi	-2408
▁mek	-2409
▁tespit	-2410
▁Meh	-2411
▁İyi	-2412
menin	-2413
lenmesi	-2414
antaj	-2415
▁Ulus	-2416
▁üye	-2417
▁AR	-2418
ân	-2419
▁Google	-2420
▁kişiler	-2421
▁boyunca	-2422
▁Twitter	-2423
▁Re	-2424
▁Devlet	-2425
▁okul	-2426
yar	-2427
▁Belediye	-2428
▁mis	-2429
▁adı	-2430
▁eksik	-2431
ıyı	-2432
inal	-2433
otor	-2434
▁min	-2435
▁Bilg	-2436
▁koşul	-2437
▁Yer	-2438
EV	-2439
▁kart	-2440
▁uyar	-2441
opüler	-2442
▁Kurum	-2443
▁bilim	-2444
▁vatandaş	-2445
forman	-2446
sit	-2447
iant	-2448
ısında	-2449
▁kültür	-2450
▁Beğen	-2451
▁grup	-2452
▁ders	-2453
ırken	-2454
▁Ch	-2455
▁deneyim	-2456
▁İlan	-2457
▁Ali	-2458
lanmış	-2459
▁korum	-2460
▁ilan	-2461
▁kargo	-2462
▁str	-2463
▁açıl	-2464
▁onun	-2465
▁dönüş	-2466
▁ayar	-2467
yle	-2468
LARI	-2469
enler	-2470
▁seks	-2471
▁etmiş	-2472
tern	-2473
sak	-2474
be	-2475
▁hey	-2476
▁giz	-2477
▁ayrı	-2478
▁Kayıt	-2479
ese	-2480
iantep	-2481
▁yalnız	-2482
▁Kitap	-2483
ome	-2484
▁admin	-2485
▁Cevabı	-2486
par	-2487
▁çiz	-2488
bar	-2489
▁Devamını	-2490
▁oyuncu	-2491
▁Kız	-2492
▁Ajansı	-2493
aten	-2494
▁oku	-2495
▁doğal	-2496
lında	-2497
▁yani	-2498
▁dosy	-2499
▁iade	-2500
akliyat	-2501
▁Sal	-2502
ıda	-2503
▁Mark	-2504
HP	-2505
▁rağ	-2506
▁iddi	-2507
ült	-2508
▁müşteri	-2509
▁çevr	-2510
▁siyas	-2511
iliği	-2512
ham	-2513
OS	-2514
▁suç	-2515
ene	-2516
lk	-2517
ınca	-2518
▁tarif	-2519
▁sistemi	-2520
▁us	-2521
▁Sel	-2522
▁gerekt	-2523
▁kah	-2524
▁Sanat	-2525
bilir	-2526
larınızı	-2527
ws	-2528
▁belg	-2529
▁edilir	-2530
▁kanal	-2531
▁memnun	-2532
▁burada	-2533
▁günlük	-2534
▁ikinci	-2535
▁toplam	-2536
üle	-2537
kaç	-2538
▁gerekmektedir	-2539
▁döv	-2540
▁benz	-2541
lış	-2542
tic	-2543
alara	-2544
▁Eş	-2545
▁Bar	-2546
▁Paylaş	-2547
üst	-2548
▁takım	-2549
ünüz	-2550
▁Adana	-2551
▁Fr	-2552
▁for	-2553
▁sağlar	-2554
fi	-2555
▁sağlam	-2556
emez	-2557
▁sayılı	-2558
alarını	-2559
EY	-2560
▁adına	-2561
▁Diy	-2562
▁Yönet	-2563
gür	-2564
▁olsa	-2565
▁sik	-2566
▁sorumlu	-2567
asıyla	-2568
aza	-2569
▁tıklayın	-2570
www	-2571
mamış	-2572
▁yık	-2573
inans	-2574
▁Genç	-2575
▁gar	-2576
anışman	-2577
▁Dön	-2578
apor	-2579
▁Yardım	-2580
lerinizi	-2581
▁ail	-2582
cret	-2583
▁sebeb	-2584
▁ic	-2585
ly	-2586
▁sıcak	-2587
ESİ	-2588
ayi	-2589
izyon	-2590
▁teh	-2591
blem	-2592
▁Video	-2593
dası	-2594
▁sav	-2595
▁hesabınız	-2596
▁sırasında	-2597
istik	-2598
ina	-2599
adem	-2600
▁kullanılmak	-2601
▁sürekli	-2602
▁başvuru	-2603
▁Proj	-2604
abilmek	-2605
mamak	-2606
▁net	-2607
▁müşteriler	-2608
▁Bilgi	-2609
▁yürüt	-2610
▁güvenlik	-2611
leniyor	-2612
▁okuy	-2613
ekor	-2614
OK	-2615
sı	-2616
▁Yanıt	-2617
▁Mas	-2618
▁rağmen	-2619
▁onu	-2620
luğu	-2621
▁anda	-2622
▁Dest	-2623
▁tüket	-2624
ılığı	-2625
▁kelim	-2626
▁tarihinde	-2627
▁Program	-2628
▁sınıf	-2629
▁Bank	-2630
ABER	-2631
▁Ekle	-2632
▁yaptır	-2633
▁Cumhurbaş	-2634
elerine	-2635
▁re	-2636
ise	-2637
▁Göz	-2638
likleri	-2639
liyor	-2640
ala	-2641
fak	-2642
lâ	-2643
ormal	-2644
▁ey	-2645
eşil	-2646
▁ana	-2647
▁konuda	-2648
▁kategor	-2649
▁itibaren	-2650
▁hikay	-2651
▁kişinin	-2652
▁fiyatları	-2653
ladığ	-2654
▁vüc	-2655
▁hastalık	-2656
elikle	-2657
▁Ac	-2658
▁bulunmaktadır	-2659
▁ilaç	-2660
liğini	-2661
▁Sah	-2662
out	-2663
▁Sar	-2664
▁inş	-2665
ies	-2666
utbol	-2667
▁kapat	-2668
lıkla	-2669
lerce	-2670
▁yoğun	-2671
▁adımı	-2672
▁hatır	-2673
▁geliyor	-2674
ern	-2675
▁AN	-2676
▁Yüksek	-2677
ediye	-2678
▁karşılaş	-2679
yan	-2680
ecr	-2681
▁Post	-2682
are	-2683
}}	-2684
▁Elektr	-2685
elen	-2686
laka	-2687
malıdır	-2688
ube	-2689
▁malzem	-2690
▁Sözleş	-2691
astik	-2692
▁doldur	-2693
etik	-2694
▁sok	-2695
ipto	-2696
lot	-2697
mayın	-2698
ağıt	-2699
▁ah	-2700
aşa	-2701
acağız	-2702
▁istediğiniz	-2703
likler	-2704
▁online	-2705
sın	-2706
▁Yatır	-2707
ersiz	-2708
▁kullanarak	-2709
▁sp	-2710
▁belli	-2711
ımıza	-2712
▁Etik	-2713
▁)	-2714
erç	-2715
ress	-2716
▁lütfen	-2717
▁beni	-2718
▁Yazar	-2719
▁davran	-2720
▁verilm	-2721
seniz	-2722
▁Tasar	-2723
▁Ücret	-2724
adaki	-2725
mesini	-2726
luğ	-2727
▁bes	-2728
meleri	-2729
▁AL	-2730
ayet	-2731
▁derece	-2732
▁Var	-2733
▁Demir	-2734
▁üçüncü	-2735
▁bağlantı	-2736
▁HABER	-2737
▁isim	-2738
tion	-2739
▁Kurulu	-2740
ira	-2741
▁Haf	-2742
gen	-2743
mail	-2744
▁ettiği	-2745
▁seçim	-2746
eksiyon	-2747
dız	-2748
ıc	-2749
▁The	-2750
qu	-2751
stafa	-2752
▁Kurul	-2753
▁firmalar	-2754
alarında	-2755
▁Esk	-2756
itör	-2757
▁sizi	-2758
uru	-2759
ard	-2760
ilerini	-2761
▁hava	-2762
▁halk	-2763
▁profesyonel	-2764
LİK	-2765
▁yaşan	-2766
▁ask	-2767
▁sefere	-2768
▁deniz	-2769
▁pat	-2770
ia	-2771
ısını	-2772
elerinin	-2773
▁gerekiyor	-2774
▁Soru	-2775
▁tarayıcıya	-2776
olojik	-2777
▁anlay	-2778
▁varsa	-2779
▁teklif	-2780
▁yaklaşık	-2781
MA	-2782
▁don	-2783
▁porno	-2784
▁dahaki	-2785
▁Gönder	-2786
▁alışveriş	-2787
▁Samsun	-2788
▁Yüz	-2789
▁aray	-2790
▁durumunda	-2791
meyen	-2792
▁Gazet	-2793
▁kredi	-2794
▁Mehmet	-2795
▁Rusya	-2796
ga	-2797
erv	-2798
med	-2799
lev	-2800
▁Gerekli	-2801
▁söyledi	-2802
makta	-2803
mızı	-2804
▁kas	-2805
Bu	-2806
▁Telefon	-2807
▁sohbet	-2808
ary	-2809
▁hoş	-2810
▁Kah	-2811
▁test	-2812
▁yönetim	-2813
▁yurt	-2814
üme	-2815
▁Müşt	-2816
▁merak	-2817
▁ürünler	-2818
▁tutul	-2819
▁Bonusu	-2820
▁yaptığımda	-2821
▁mez	-2822
▁sunul	-2823
▁eriş	-2824
emal	-2825
▁ekran	-2826
allesi	-2827
▁Bal	-2828
erçev	-2829
▁çar	-2830
▁problem	-2831
▁yayınlan	-2832
▁OL	-2833
seri	-2834
▁seviy	-2835
ASI	-2836
iliyor	-2837
▁kaybet	-2838
▁aldı	-2839
▁Dil	-2840
▁Koca	-2841
▁şah	-2842
▁sek	-2843
▁baz	-2844
▁başlat	-2845
▁Çık	-2846
▁Site	-2847
▁yazın	-2848
▁not	-2849
lenir	-2850
tuk	-2851
▁hacklink	-2852
lendi	-2853
ME	-2854
▁kayn	-2855
▁açısından	-2856
▁ayrıca	-2857
▁İh	-2858
**	-2859
neğin	-2860
acağınız	-2861
içek	-2862
geç	-2863
endik	-2864
tu	-2865
▁yapılır	-2866
eyn	-2867
alarına	-2868
eliğ	-2869
▁Boy	-2870
hane	-2871
▁fazl	-2872
.)	-2873
▁muht	-2874
▁edilmesi	-2875
abiliyor	-2876
her	-2877
▁yayımlan	-2878
▁Sonr	-2879
▁boyut	-2880
▁Hes	-2881
ha	-2882
▁ham	-2883
▁Fiyatları	-2884
▁Kıs	-2885
vey	-2886
▁gider	-2887
▁Net	-2888
masının	-2889
▁Sur	-2890
and	-2891
▁fırsat	-2892
▁Yet	-2893
akır	-2894
haba	-2895
elleri	-2896
▁düşük	-2897
işehir	-2898
evk	-2899
vet	-2900
▁İngiliz	-2901
tand	-2902
▁Mad	-2903
▁aj	-2904
▁edebilirsiniz	-2905
▁Bakanlığı	-2906
▁İşte	-2907
▁taşım	-2908
tul	-2909
▁Güzel	-2910
unan	-2911
▁Şehir	-2912
▁belirtilen	-2913
elerdir	-2914
okr	-2915
alıdır	-2916
▁edecek	-2917
▁tabi	-2918
▁iler	-2919
imizde	-2920
▁dışı	-2921
▁Bugün	-2922
amay	-2923
▁durumu	-2924
▁tip	-2925
diğiniz	-2926
▁birkaç	-2927
▁Hız	-2928
▁muh	-2929
▁Kir	-2930
kr	-2931
izik	-2932
▁tart	-2933
▁verir	-2934
▁Parti	-2935
▁temsil	-2936
▁x	-2937
▁örnek	-2938
▁güçlü	-2939
eceğini	-2940
▁Reklam	-2941
▁TV	-2942
▁Ort	-2943
▁şif	-2944
lüm	-2945
▁yanında	-2946
▁bahs	-2947
▁Yol	-2948
▁Az	-2949
sim	-2950
▁Çin	-2951
▁cid	-2952
▁sahiptir	-2953
larım	-2954
▁Şimdi	-2955
▁yararlan	-2956
▁oyunları	-2957
▁Can	-2958
sen	-2959
▁Pazar	-2960
▁başlam	-2961
▁Erz	-2962
▁tedavi	-2963
▁Kür	-2964
enüz	-2965
IŞ	-2966
AĞ	-2967
▁ıs	-2968
arya	-2969
ry	-2970
▁Sep	-2971
oda	-2972
▁Tarif	-2973
▁yapılacak	-2974
anız	-2975
▁İlgili	-2976
▁bilgisayar	-2977
ilerine	-2978
▁gerçekleş	-2979
▁person	-2980
ceğ	-2981
artesi	-2982
▁yanlış	-2983
▁Kaynak	-2984
▁Vak	-2985
ısına	-2986
▁Aynı	-2987
mesine	-2988
▁Erk	-2989
▁yoktur	-2990
ıllı	-2991
İLİ	-2992
KK	-2993
▁risk	-2994
▁Düny	-2995
▁Cevap	-2996
taş	-2997
▁hakkı	-2998
▁insanlar	-2999
▁Q	-3000
ımızı	-3001
▁yabancı	-3002
abz	-3003
▁başarılı	-3004
▁istiyorum	-3005
unc	-3006
▁çıktı	-3007
▁bulunuyor	-3008
▁Mustafa	-3009
kem	-3010
anka	-3011
▁yeterli	-3012
▁Kam	-3013
mey	-3014
ezi	-3015
▁şeklinde	-3016
▁yüzden	-3017
▁miktar	-3018
▁Büyükşehir	-3019
ilt	-3020
cuz	-3021
ilerek	-3022
cılar	-3023
▁ederim	-3024
▁Bonus	-3025
▁rak	-3026
ladığı	-3027
▁Mut	-3028
▁kayb	-3029
▁tanıt	-3030
üştür	-3031
asal	-3032
▁SE	-3033
▁Dol	-3034
▁alanında	-3035
▁avantaj	-3036
▁karak	-3037
▁hizmetleri	-3038
▁Kart	-3039
layarak	-3040
▁sayısı	-3041
▁ted	-3042
okta	-3043
▁prot	-3044
tepe	-3045
▁yazar	-3046
▁Altın	-3047
▁yasal	-3048
▁geçmiş	-3049
ecrüb	-3050
▁Oku	-3051
▁bilgilendir	-3052
▁zorun	-3053
▁Ark	-3054
▁Gül	-3055
oto	-3056
▁tavsiye	-3057
▁İslam	-3058
▁sürec	-3059
ezon	-3060
▁İk	-3061
▁doktor	-3062
gü	-3063
▁güvenli	-3064
▁seçen	-3065
ağa	-3066
▁Servisi	-3067
alarının	-3068
▁ürünleri	-3069
▁Satın	-3070
▁Of	-3071
itimi	-3072
▁şimdi	-3073
▁yaptı	-3074
▁elektrik	-3075
▁part	-3076
▁med	-3077
▁elektronik	-3078
kar	-3079
▁=	-3080
▁Mersin	-3081
▁sur	-3082
▁www	-3083
leriniz	-3084
▁tep	-3085
icari	-3086
▁Pol	-3087
▁kötü	-3088
▁dolar	-3089
▁Kend	-3090
abileceğiniz	-3091
▁vb	-3092
▁doğrudan	-3093
ören	-3094
anya	-3095
▁ifad	-3096
ren	-3097
▁sene	-3098
▁yolu	-3099
enizi	-3100
▁Kab	-3101
eceğiniz	-3102
▁çerçev	-3103
▁Konya	-3104
▁Böyle	-3105
atej	-3106
▁Yazılar	-3107
▁Yanıtla	-3108
▁kı	-3109
▁ödem	-3110
elerinde	-3111
amı	-3112
formans	-3113
▁Özellikle	-3114
pt	-3115
ax	-3116
▁vaz	-3117
▁Bilim	-3118
latma	-3119
▁vermek	-3120
▁uygulama	-3121
▁aşağıdaki	-3122
▁isten	-3123
▁İndir	-3124
elt	-3125
AV	-3126
▁otur	-3127
▁Bat	-3128
son	-3129
laştır	-3130
▁Kul	-3131
▁Destek	-3132
▁Ülk	-3133
Beğen	-3134
köy	-3135
▁Porno	-3136
▁millet	-3137
uro	-3138
kil	-3139
▁yum	-3140
th	-3141
luluğu	-3142
▁<	-3143
▁kıy	-3144
▁kıl	-3145
▁katkı	-3146
▁alır	-3147
▁bal	-3148
ısınız	-3149
▁kullanılır	-3150
▁etme	-3151
▁Hikay	-3152
ilebilir	-3153
▁tartış	-3154
▁korun	-3155
▁Karş	-3156
ity	-3157
ai	-3158
▁diş	-3159
asi	-3160
▁cm	-3161
ener	-3162
eyiz	-3163
▁olmaz	-3164
▁yanıt	-3165
▁Do	-3166
▁analiz	-3167
lılık	-3168
engin	-3169
▁Is	-3170
▁değerli	-3171
▁mük	-3172
▁Güvenilir	-3173
neği	-3174
▁Part	-3175
dev	-3176
hats	-3177
ERİ	-3178
▁olmadan	-3179
eder	-3180
▁Gaziantep	-3181
▁kardeş	-3182
adım	-3183
▁sonrası	-3184
▁olduğunuz	-3185
acılık	-3186
An	-3187
▁Sır	-3188
▁şöyle	-3189
▁görüntü	-3190
▁yıllık	-3191
▁Yönetim	-3192
UK	-3193
▁verdi	-3194
▁Detay	-3195
▁Neden	-3196
mıyor	-3197
▁meydana	-3198
bah	-3199
yap	-3200
▁Düş	-3201
▁oluşan	-3202
▁hakları	-3203
▁Pan	-3204
teki	-3205
tandart	-3206
▁dal	-3207
imin	-3208
▁bank	-3209
▁sol	-3210
iyel	-3211
▁haline	-3212
isa	-3213
AC	-3214
▁{{	-3215
coin	-3216
▁Reh	-3217
▁Medya	-3218
▁çünkü	-3219
▁soğ	-3220
▁sürede	-3221
ümüş	-3222
emizde	-3223
▁Tan	-3224
âh	-3225
▁çift	-3226
▁Mahallesi	-3227
dığında	-3228
▁Kı	-3229
iddet	-3230
▁işlemi	-3231
▁paket	-3232
iden	-3233
▁Tat	-3234
ebilecek	-3235
▁ann	-3236
ilmiştir	-3237
▁Kil	-3238
▁kamu	-3239
▁gerçekten	-3240
▁Ham	-3241
tayız	-3242
▁Durum	-3243
gar	-3244
▁Kullanım	-3245
▁Bunu	-3246
gal	-3247
gaz	-3248
▁Online	-3249
▁içeren	-3250
▁lisans	-3251
ternatif	-3252
▁Hakkımızda	-3253
düz	-3254
▁KAR	-3255
▁İL	-3256
tis	-3257
ger	-3258
hend	-3259
▁etkili	-3260
▁kalan	-3261
cr	-3262
▁Hukuk	-3263
▁çerezler	-3264
▁içi	-3265
irüs	-3266
▁men	-3267
▁ediyorum	-3268
▁mutlu	-3269
▁Çan	-3270
▁eğlen	-3271
▁Veri	-3272
▁taleb	-3273
▁yukarı	-3274
▁keş	-3275
▁katılım	-3276
▁tesis	-3277
▁birey	-3278
iğini	-3279
▁ruh	-3280
▁üyelik	-3281
▁Bor	-3282
▁Bölüm	-3283
▁oper	-3284
yen	-3285
▁Dav	-3286
oli	-3287
ton	-3288
▁Başvur	-3289
âr	-3290
ros	-3291
ust	-3292
▁Dik	-3293
▁Müz	-3294
▁Con	-3295
leyin	-3296
▁aktif	-3297
ain	-3298
▁verdiği	-3299
▁okum	-3300
▁yayımlanmayacak	-3301
▁Cumhurbaşkanı	-3302
▁pol	-3303
rac	-3304
say	-3305
port	-3306
emmel	-3307
▁Balık	-3308
fet	-3309
ınt	-3310
ous	-3311
err	-3312
uyoruz	-3313
▁yerde	-3314
▁İZ	-3315
▁kumaş	-3316
Sil	-3317
ılım	-3318
dığınız	-3319
▁diyor	-3320
▁Görün	-3321
▁bab	-3322
müş	-3323
▁hurda	-3324
▁fikir	-3325
▁emin	-3326
ÜK	-3327
▁milyar	-3328
▁Millet	-3329
▁And	-3330
▁rapor	-3331
▁aldığı	-3332
▁Güvenlik	-3333
üper	-3334
▁bonusu	-3335
▁Uzman	-3336
▁Br	-3337
▁mekan	-3338
▁alıyor	-3339
ladık	-3340
▁Üye	-3341
▁aday	-3342
▁mon	-3343
▁erişim	-3344
▁hastan	-3345
edeki	-3346
ÜM	-3347
▁kesinlikle	-3348
EB	-3349
▁kod	-3350
ser	-3351
▁Mec	-3352
▁sonucu	-3353
▁sağlayan	-3354
▁sunu	-3355
▁Tarihi	-3356
▁eser	-3357
aşır	-3358
▁sem	-3359
▁detaylı	-3360
▁Fakat	-3361
▁gru	-3362
muştur	-3363
▁kapı	-3364
abilmektedir	-3365
▁konum	-3366
pek	-3367
arbakır	-3368
▁tutar	-3369
ultan	-3370
ikayet	-3371
▁odak	-3372
▁Hava	-3373
▁bağım	-3374
dal	-3375
▁Günü	-3376
▁hukuki	-3377
HA	-3378
▁http	-3379
▁takdir	-3380
▁iletişime	-3381
larca	-3382
▁Ticaret	-3383
yıl	-3384
UT	-3385
........	-3386
▁mat	-3387
▁işaretlenmiş	-3388
▁yaparak	-3389
lent	-3390
▁basın	-3391
▁Med	-3392
▁müda	-3393
▁sağlıklı	-3394
▁arasındaki	-3395
Türk	-3396
▁dost	-3397
▁ciddi	-3398
▁yapar	-3399
ue	-3400
iyer	-3401
▁Takip	-3402
ocuğ	-3403
▁Aks	-3404
▁Galeri	-3405
atürk	-3406
bur	-3407
▁gelecek	-3408
▁cinsel	-3409
ded	-3410
▁ES	-3411
tere	-3412
▁resmi	-3413
gam	-3414
▁Not	-3415
▁yazılım	-3416
▁poz	-3417
▁Araştır	-3418
▁yaptık	-3419
▁tecrüb	-3420
▁dünyanın	-3421
▁düzey	-3422
▁Yani	-3423
▁Temiz	-3424
▁Yen	-3425
▁BeğenBeğen	-3426
."	-3427
▁ekonomik	-3428
▁kendini	-3429
cılık	-3430
ısıt	-3431
▁od	-3432
▁Erkek	-3433
▁ödül	-3434
▁istanbul	-3435
ORUM	-3436
▁BİR	-3437
▁geçerli	-3438
▁mutlaka	-3439
▁Teknik	-3440
▁yarış	-3441
ümüzde	-3442
▁sayıda	-3443
▁mevzu	-3444
▁dört	-3445
▁List	-3446
▁zaten	-3447
▁sonrasında	-3448
▁İçerik	-3449
▁sınav	-3450
▁fakat	-3451
▁nerede	-3452
▁süresi	-3453
akt	-3454
▁Sen	-3455
▁Ahmet	-3456
▁insanların	-3457
▁genellikle	-3458
▁Satış	-3459
▁tarz	-3460
▁YanıtlaSil	-3461
unma	-3462
▁ilgi	-3463
▁pas	-3464
▁otomatik	-3465
▁görüntül	-3466
şiv	-3467
▁nes	-3468
▁artış	-3469
spor	-3470
▁kork	-3471
▁ona	-3472
▁Konu	-3473
▁gazet	-3474
▁GÖ	-3475
▁ticaret	-3476
efer	-3477
▁eve	-3478
▁buraya	-3479
▁yapılması	-3480
▁bizi	-3481
▁gece	-3482
▁Ekonom	-3483
▁Frans	-3484
kray	-3485
▁Trabz	-3486
▁altına	-3487
ülen	-3488
▁bed	-3489
▁Kocaeli	-3490
▁sağlan	-3491
▁arama	-3492
ediğini	-3493
▁düzenlenen	-3494
▁ulaşabilirsiniz	-3495
omments	-3496
IS	-3497
esiz	-3498
iber	-3499
ati	-3500
▁yalnızca	-3501
ahtar	-3502
▁esn	-3503
▁alınan	-3504
▁zorunda	-3505
▁motor	-3506
▁Ef	-3507
▁hâ	-3508
▁Hızlı	-3509
CE	-3510
roid	-3511
▁enf	-3512
ayısıyla	-3513
altı	-3514
erseniz	-3515
▁başlayan	-3516
▁Cumhuriyet	-3517
iyah	-3518
▁zevk	-3519
▁normal	-3520
▁başlık	-3521
düğü	-3522
güt	-3523
ner	-3524
▁öğretmen	-3525
▁kür	-3526
▁Hast	-3527
▁Siteleri	-3528
▁İşlem	-3529
▁yılı	-3530
ayla	-3531
▁mar	-3532
▁dolaş	-3533
atya	-3534
▁ayak	-3535
▁Uzun	-3536
▁beri	-3537
çak	-3538
▁Almanya	-3539
▁verilerin	-3540
ilerinin	-3541
umsuz	-3542
anti	-3543
layıcı	-3544
▁belirli	-3545
▁buna	-3546
▁Tasarım	-3547
▁Siv	-3548
▁soy	-3549
alığ	-3550
▁bulunduğu	-3551
dit	-3552
▁Saat	-3553
▁Zaman	-3554
yal	-3555
lığını	-3556
▁kişilerin	-3557
▁kaf	-3558
▁Osmanlı	-3559
▁yana	-3560
▁Instagram	-3561
app	-3562
▁aslında	-3563
▁sonuc	-3564
▁cook	-3565
▁duyur	-3566
har	-3567
▁yasak	-3568
▁Milli	-3569
▁nef	-3570
▁basit	-3571
▁emek	-3572
▁İÇ	-3573
▁Mev	-3574
▁köy	-3575
▁zam	-3576
▁trans	-3577
▁ta	-3578
▁yem	-3579
zz	-3580
▁heyec	-3581
▁enerji	-3582
▁edildi	-3583
▁sonunda	-3584
raman	-3585
▁Art	-3586
▁Sey	-3587
▁um	-3588
ze	-3589
▁Tav	-3590
▁sitesinde	-3591
▁doğrult	-3592
dıktan	-3593
▁haberleri	-3594
OT	-3595
gör	-3596
RA	-3597
OP	-3598
▁etmektedir	-3599
▁türk	-3600
cil	-3601
incan	-3602
ilmektedir	-3603
SS	-3604
▁Dış	-3605
▁özgür	-3606
vek	-3607
osyon	-3608
ady	-3609
dük	-3610
▁ihtiyac	-3611
rem	-3612
▁firma	-3613
elif	-3614
ke	-3615
azım	-3616
▁Gerçek	-3617
▁hatta	-3618
▁Lütfen	-3619
▁sel	-3620
▁giy	-3621
▁yazılı	-3622
▁GÜN	-3623
rek	-3624
▁Fat	-3625
we	-3626
laması	-3627
▁link	-3628
▁keyif	-3629
▁end	-3630
▁Bazı	-3631
eliyat	-3632
▁For	-3633
▁benzer	-3634
▁Üst	-3635
▁taz	-3636
▁saldırı	-3637
üya	-3638
▁Müdürlüğü	-3639
ALAR	-3640
▁işlemleri	-3641
▁ma	-3642
▁Hakları	-3643
▁Uluslararası	-3644
▁du	-3645
▁dam	-3646
▁Le	-3647
▁Bebek	-3648
▁kurtul	-3649
üph	-3650
▁cep	-3651
ılmaz	-3652
▁hayal	-3653
gileri	-3654
▁izley	-3655
▁Hayat	-3656
▁Tah	-3657
alığı	-3658
▁Gök	-3659
right	-3660
▁derec	-3661
▁Teknoloji	-3662
hendis	-3663
▁·	-3664
ilim	-3665
▁karakter	-3666
▁Kaç	-3667
▁Sı	-3668
miyor	-3669
▁kampany	-3670
▁Halk	-3671
▁halde	-3672
▁yapabilirsiniz	-3673
üny	-3674
▁kuş	-3675
▁yere	-3676
rol	-3677
▁Eskişehir	-3678
▁ülke	-3679
diğinde	-3680
ıb	-3681
▁araya	-3682
▁CHP	-3683
gat	-3684
▁Kanunu	-3685
▁çevir	-3686
▁Sipariş	-3687
▁yaşayan	-3688
▁@	-3689
▁Atatürk	-3690
diğimiz	-3691
arkı	-3692
▁arttır	-3693
▁alım	-3694
▁yada	-3695
▁bulundu	-3696
▁Ana	-3697
);	-3698
▁Mesaj	-3699
izasyon	-3700
▁zengin	-3701
▁Kayseri	-3702
beri	-3703
▁cam	-3704
▁ET	-3705
▁alanda	-3706
ılıyor	-3707
era	-3708
win	-3709
▁Sex	-3710
ediy	-3711
▁düşünc	-3712
▁Kemal	-3713
▁yoksa	-3714
▁Ukray	-3715
acağım	-3716
▁Hizmetleri	-3717
▁beyaz	-3718
▁DE	-3719
▁hoc	-3720
ınızın	-3721
mm	-3722
▁Kut	-3723
ledi	-3724
▁Mon	-3725
▁başarı	-3726
▁dijital	-3727
▁değişim	-3728
sızlık	-3729
ÜL	-3730
enci	-3731
▁kanun	-3732
gr	-3733
alim	-3734
▁Yatırım	-3735
oya	-3736
▁veriyor	-3737
üslüm	-3738
▁idar	-3739
▁ayk	-3740
▁Araç	-3741
▁del	-3742
▁bi	-3743
▁devr	-3744
▁değişiklik	-3745
▁Sadece	-3746
▁madde	-3747
▁beş	-3748
▁çarp	-3749
yı	-3750
▁Diyarbakır	-3751
▁yüküm	-3752
etin	-3753
▁EK	-3754
▁Sohbet	-3755
elerden	-3756
üyorum	-3757
ılığıyla	-3758
▁Kamp	-3759
ılarak	-3760
▁hayvan	-3761
ısının	-3762
▁ateş	-3763
madı	-3764
emiş	-3765
erg	-3766
▁Whats	-3767
▁sonraki	-3768
▁arada	-3769
▁adlı	-3770
▁ayır	-3771
▁yapmış	-3772
▁şans	-3773
▁yönetic	-3774
omosyon	-3775
▁Yemek	-3776
osya	-3777
▁nitelik	-3778
▁öyle	-3779
▁olmadığını	-3780
▁önemlidir	-3781
▁sex	-3782
▁BAŞ	-3783
▁puan	-3784
lerim	-3785
▁Sepete	-3786
daa	-3787
▁Şart	-3788
▁Fır	-3789
▁Anal	-3790
▁kendisine	-3791
uzey	-3792
▁dolu	-3793
▁lim	-3794
▁finans	-3795
▁çoğu	-3796
▁ölüm	-3797
▁Kredi	-3798
▁You	-3799
▁YAP	-3800
lisi	-3801
▁Bl	-3802
▁uluslararası	-3803
▁Etkin	-3804
pe	-3805
▁alma	-3806
obet	-3807
▁görmek	-3808
OM	-3809
lerimizi	-3810
akkale	-3811
▁Se	-3812
▁ticari	-3813
OĞ	-3814
▁eşy	-3815
▁ettik	-3816
afir	-3817
▁Fak	-3818
▁beğen	-3819
▁Blog	-3820
▁Merhaba	-3821
▁Dep	-3822
▁vakit	-3823
add	-3824
▁istek	-3825
▁ust	-3826
▁blog	-3827
evizyon	-3828
▁Kazan	-3829
▁faydalan	-3830
▁kent	-3831
▁gerektir	-3832
ill	-3833
▁eg	-3834
ple	-3835
▁hisset	-3836
▁söylem	-3837
▁İncel	-3838
▁Kargo	-3839
▁başına	-3840
▁İle	-3841
▁Sayf	-3842
▁Adres	-3843
▁gay	-3844
ela	-3845
▁olmadığı	-3846
▁ediyoruz	-3847
▁herkes	-3848
▁Hastan	-3849
▁cami	-3850
bal	-3851
▁kaz	-3852
▁biçimde	-3853
opyright	-3854
taki	-3855
▁gösteren	-3856
ban	-3857
▁aracılığıyla	-3858
▁Yal	-3859
ave	-3860
▁Yaşam	-3861
▁taşın	-3862
▁İN	-3863
ox	-3864
▁fil	-3865
▁Çar	-3866
▁Th	-3867
ildiği	-3868
irin	-3869
oker	-3870
▁Birliği	-3871
▁vardı	-3872
▁Yorumlar	-3873
▁Burada	-3874
▁Savaş	-3875
▁müşter	-3876
▁Mat	-3877
▁esk	-3878
▁Dair	-3879
▁aydın	-3880
ORT	-3881
▁Otom	-3882
unuzu	-3883
ÜRK	-3884
ock	-3885
ılacak	-3886
IT	-3887
▁nokta	-3888
▁kims	-3889
▁ilgil	-3890
▁kullanmak	-3891
ekteyiz	-3892
▁Etiketler	-3893
▁alacak	-3894
avi	-3895
ıklı	-3896
”,	-3897
▁Okul	-3898
▁anal	-3899
▁Fil	-3900
org	-3901
▁derin	-3902
▁şar	-3903
erika	-3904
veya	-3905
ıldığı	-3906
ımızın	-3907
mür	-3908
▁YAZ	-3909
▁Beş	-3910
▁alabilirsiniz	-3911
▁standart	-3912
▁ayında	-3913
Tİ	-3914
▁be	-3915
▁olmay	-3916
▁işe	-3917
▁merkezi	-3918
indow	-3919
▁kullanımı	-3920
▁Kanun	-3921
▁Bakanı	-3922
▁başkan	-3923
▁Sakarya	-3924
▁hus	-3925
uf	-3926
Dİ	-3927
▁kaş	-3928
▁Tür	-3929
▁popüler	-3930
▁alarak	-3931
▁performans	-3932
▁eğer	-3933
ekim	-3934
▁AY	-3935
▁EN	-3936
▁içine	-3937
▁aittir	-3938
ahim	-3939
▁öldür	-3940
▁Hol	-3941
ırnak	-3942
▁Teş	-3943
▁toprak	-3944
▁konuştu	-3945
edava	-3946
▁arası	-3947
▁Din	-3948
▁başta	-3949
▁tahmin	-3950
ecik	-3951
▁SON	-3952
hone	-3953
ates	-3954
ılabilir	-3955
▁mükemmel	-3956
▁Cuma	-3957
▁Üret	-3958
▁altın	-3959
▁Tut	-3960
▁day	-3961
▁dök	-3962
▁Makin	-3963
▁Rom	-3964
▁bebek	-3965
isiniz	-3966
▁dönemde	-3967
▁sigort	-3968
--------	-3969
sas	-3970
DI	-3971
▁Van	-3972
▁Küt	-3973
▁olmuş	-3974
▁yeri	-3975
eceğiz	-3976
masında	-3977
▁başlay	-3978
▁Üyelik	-3979
uzu	-3980
▁Bin	-3981
▁esas	-3982
▁Hazır	-3983
▁defa	-3984
▁kazanç	-3985
▁aks	-3986
emesi	-3987
▁başk	-3988
eytin	-3989
▁Sayfa	-3990
▁müzik	-3991
UZ	-3992
▁içeriği	-3993
▁henüz	-3994
▁Forum	-3995
▁firmamız	-3996
encer	-3997
estiv	-3998
▁azal	-3999
▁şiddet	-4000
____	-4001
esir	-4002
▁personel	-4003
bay	-4004
▁süt	-4005
▁aşam	-4006
▁Değiş	-4007
▁fizik	-4008
▁olursa	-4009
▁İngiltere	-4010
▁Örneğin	-4011
Al	-4012
▁$	-4013
▁Cam	-4014
▁akl	-4015
ampiyon	-4016
anlıur	-4017
▁İm	-4018
▁Lig	-4019
abileceği	-4020
▁öde	-4021
▁lider	-4022
eğe	-4023
▁marka	-4024
▁takipçi	-4025
▁fiyatı	-4026
itam	-4027
▁Amerika	-4028
ategor	-4029
▁önceki	-4030
▁Ders	-4031
tiğimiz	-4032
▁Pas	-4033
▁Önceki	-4034
▁Taraf	-4035
▁şeyi	-4036
uyorum	-4037
hi	-4038
▁sorumluluk	-4039
▁ara	-4040
▁Gazete	-4041
▁çalışmaları	-4042
int	-4043
▁Mac	-4044
embe	-4045
▁futbol	-4046
azığ	-4047
▁Cen	-4048
▁haft	-4049
▁başında	-4050
▁Fotoğraf	-4051
▁editör	-4052
▁af	-4053
▁Sab	-4054
üstü	-4055
mekte	-4056
▁Cin	-4057
▁stratej	-4058
EMEN	-4059
▁İd	-4060
mamaktadır	-4061
▁Ücretsiz	-4062
▁ürünü	-4063
▁Ex	-4064
TE	-4065
▁haberler	-4066
▁Hesap	-4067
eygam	-4068
iklet	-4069
▁modelleri	-4070
▁ekib	-4071
fo	-4072
ema	-4073
▁başlan	-4074
eyim	-4075
▁mücadele	-4076
▁mant	-4077
▁yaygın	-4078
▁düzenlem	-4079
▁paylaşım	-4080
▁olma	-4081
▁Ukrayna	-4082
▁teknoloji	-4083
▁Adresi	-4084
▁Mur	-4085
▁BE	-4086
▁alternatif	-4087
▁Fark	-4088
▁bekl	-4089
ây	-4090
▁Küçük	-4091
▁fatur	-4092
bak	-4093
▁oyunu	-4094
▁Müşteri	-4095
▁kazandır	-4096
brıs	-4097
▁eylem	-4098
▁Bek	-4099
▁davet	-4100
üğün	-4101
▁Co	-4102
larımızın	-4103
dol	-4104
▁demek	-4105
▁mücadel	-4106
▁Form	-4107
ane	-4108
rom	-4109
YE	-4110
▁Tok	-4111
▁fon	-4112
lığın	-4113
▁yapın	-4114
▁Sultan	-4115
▁Nur	-4116
▁ileri	-4117
ışın	-4118
▁inceley	-4119
▁almaktadır	-4120
manızı	-4121
lığa	-4122
▁girişim	-4123
şe	-4124
onya	-4125
▁kapalı	-4126
fır	-4127
▁Soy	-4128
work	-4129
ülebilir	-4130
▁özellikleri	-4131
▁ölçü	-4132
▁Çağ	-4133
▁harc	-4134
▁Çalışma	-4135
▁Mus	-4136
▁imkan	-4137
cisi	-4138
rum	-4139
▁düşür	-4140
▁Pat	-4141
▁Nakliyat	-4142
imar	-4143
sh	-4144
▁Elektrik	-4145
▁halı	-4146
▁aykırı	-4147
leyici	-4148
▁harika	-4149
▁kok	-4150
▁Yok	-4151
omeop	-4152
▁kup	-4153
örü	-4154
lendirme	-4155
illa	-4156
▁Boz	-4157
▁>	-4158
▁Gazetesi	-4159
▁Değer	-4160
▁silah	-4161
▁vazgeç	-4162
adi	-4163
liğinde	-4164
▁def	-4165
anlıurfa	-4166
▁hala	-4167
ediler	-4168
LU	-4169
▁kalk	-4170
▁sert	-4171
▁Hep	-4172
▁Şif	-4173
▁Comments	-4174
▁indirim	-4175
▁oluşturul	-4176
▁psik	-4177
▁rol	-4178
▁yorumlar	-4179
mit	-4180
▁sitesinin	-4181
DEN	-4182
ullah	-4183
▁Denizli	-4184
▁dakik	-4185
▁kuv	-4186
uklu	-4187
▁alanı	-4188
▁anlamına	-4189
▁bunların	-4190
▁cev	-4191
▁firması	-4192
▁sefer	-4193
lima	-4194
▁Sanayi	-4195
▁Benim	-4196
üştü	-4197
▁Beyaz	-4198
▁hazırlan	-4199
▁şeyler	-4200
▁Durumu	-4201
▁Sonraki	-4202
LIK	-4203
za	-4204
▁etkinlik	-4205
▁sanal	-4206
▁ÖZ	-4207
eyle	-4208
▁Kup	-4209
▁sezon	-4210
▁durumlarda	-4211
▁çap	-4212
▁taşıy	-4213
▁sh	-4214
▁akşam	-4215
▁ünlü	-4216
▁çab	-4217
▁yavaş	-4218
ılıç	-4219
ive	-4220
▁bat	-4221
▁İZLE	-4222
▁aile	-4223
!!	-4224
MM	-4225
ülü	-4226
uzur	-4227
liğe	-4228
▁}	-4229
▁buluş	-4230
lal	-4231
▁Sık	-4232
▁görsel	-4233
▁olumsuz	-4234
▁Arkadaş	-4235
▁araştırma	-4236
▁Bitcoin	-4237
▁bölümde	-4238
▁red	-4239
▁Yurt	-4240
ron	-4241
ahh	-4242
▁Sözleşmesi	-4243
▁seyahat	-4244
amış	-4245
işkin	-4246
▁birisi	-4247
▁HD	-4248
▁Çanakkale	-4249
zeme	-4250
emli	-4251
▁çat	-4252
daş	-4253
▁İŞ	-4254
dam	-4255
▁aylık	-4256
▁hap	-4257
▁öğ	-4258
▁çocuğ	-4259
▁Str	-4260
▁lezz	-4261
amet	-4262
ağan	-4263
▁benzeri	-4264
▁almış	-4265
▁Copyright	-4266
bası	-4267
▁deneme	-4268
▁istiyorsanız	-4269
▁asla	-4270
▁meş	-4271
▁dahi	-4272
▁otel	-4273
▁baskı	-4274
▁önünde	-4275
larımızı	-4276
iversite	-4277
▁edeceğ	-4278
ator	-4279
▁your	-4280
▁yapabilir	-4281
age	-4282
▁Ner	-4283
omet	-4284
▁Kural	-4285
▁doğrultusunda	-4286
▁Malatya	-4287
pp	-4288
▁yaşay	-4289
eygamber	-4290
▁ucuz	-4291
ladım	-4292
lığına	-4293
▁oğ	-4294
▁tehlik	-4295
▁Eski	-4296
▁hafif	-4297
ındır	-4298
▁okun	-4299
▁yıldır	-4300
▁vermektedir	-4301
▁kararı	-4302
ndan	-4303
liliğ	-4304
layınız	-4305
▁Sigort	-4306
mur	-4307
adığınız	-4308
unları	-4309
LA	-4310
▁neler	-4311
ileştir	-4312
başı	-4313
▁işi	-4314
tarı	-4315
▁Saç	-4316
ell	-4317
▁Ziyaret	-4318
oid	-4319
▁Çelik	-4320
▁amacı	-4321
▁Tay	-4322
ANK	-4323
imiçi	-4324
▁Derneği	-4325
▁olmaktadır	-4326
İYE	-4327
▁servisi	-4328
▁sona	-4329
▁güc	-4330
aka	-4331
▁Ağr	-4332
▁ef	-4333
▁Gar	-4334
▁kurtar	-4335
bil	-4336
▁takdirde	-4337
omp	-4338
▁karşılık	-4339
▁tatlı	-4340
▁Karab	-4341
lant	-4342
EH	-4343
igara	-4344
rop	-4345
▁doğum	-4346
maması	-4347
duğunu	-4348
▁sitede	-4349
YOR	-4350
▁ap	-4351
▁şef	-4352
▁ken	-4353
▁özelliği	-4354
dek	-4355
üyle	-4356
▁bl	-4357
▁Sonuç	-4358
Ar	-4359
▁Göster	-4360
▁Kit	-4361
ond	-4362
▁söyley	-4363
▁kartı	-4364
▁aktiv	-4365
▁Bayram	-4366
▁kişiye	-4367
LAM	-4368
▁Trabzon	-4369
▁Dak	-4370
indows	-4371
▁yerleştir	-4372
▁İngilizce	-4373
duğunuz	-4374
▁hayır	-4375
▁gr	-4376
▁Sistemi	-4377
MAN	-4378
▁onları	-4379
▁Şah	-4380
▁ettir	-4381
▁İlanları	-4382
ukat	-4383
▁dağ	-4384
▁Çank	-4385
ire	-4386
vin	-4387
▁Port	-4388
AF	-4389
▁Tal	-4390
edeni	-4391
▁yandan	-4392
ona	-4393
DİR	-4394
▁resim	-4395
▁Gümüş	-4396
▁danışman	-4397
▁ajans	-4398
▁mm	-4399
▁yaşında	-4400
liğine	-4401
▁bilinen	-4402
▁Bankası	-4403
İn	-4404
yse	-4405
ert	-4406
luluğ	-4407
DAN	-4408
otik	-4409
▁kans	-4410
▁Val	-4411
abilen	-4412
▁bağlant	-4413
▁Kıbrıs	-4414
▁öne	-4415
▁duvar	-4416
▁belki	-4417
▁Sil	-4418
▁zorunlu	-4419
▁gül	-4420
mut	-4421
▁aracı	-4422
▁Şeh	-4423
ÜZ	-4424
ayıf	-4425
▁götür	-4426
cilik	-4427
kiler	-4428
racat	-4429
sur	-4430
▁bec	-4431
ciler	-4432
▁Yeşil	-4433
▁KON	-4434
▁te	-4435
▁arz	-4436
▁UY	-4437
▁ışık	-4438
▁Hatay	-4439
▁kavram	-4440
▁kaldı	-4441
abilmesi	-4442
▁KV	-4443
▁büt	-4444
▁düzelt	-4445
▁Ödeme	-4446
▁mec	-4447
▁Hemen	-4448
▁cüm	-4449
bette	-4450
▁Orta	-4451
▁Danışman	-4452
meli	-4453
▁orta	-4454
▁Nev	-4455
▁akıllı	-4456
▁büny	-4457
▁Peki	-4458
▁yolc	-4459
tel	-4460
▁uygulaması	-4461
▁Paz	-4462
▁Diz	-4463
▁anında	-4464
▁önlem	-4465
alardan	-4466
▁kendine	-4467
ahmet	-4468
▁borç	-4469
▁sunan	-4470
▁Tip	-4471
▁eleştir	-4472
▁şüph	-4473
▁tatil	-4474
edek	-4475
▁yerinde	-4476
oca	-4477
▁kripto	-4478
ğla	-4479
best	-4480
ısız	-4481
akliye	-4482
▁Fik	-4483
▁nak	-4484
▁edilmiş	-4485
▁hayata	-4486
olog	-4487
▁Fakült	-4488
rika	-4489
▁Android	-4490
pat	-4491
▁terör	-4492
▁İkinci	-4493
ipt	-4494
▁Müslüm	-4495
▁yapacak	-4496
▁Kara	-4497
▁duygu	-4498
dikten	-4499
aylı	-4500
gıç	-4501
▁onların	-4502
▁İade	-4503
▁asker	-4504
▁maliyet	-4505
▁nakliyat	-4506
▁dünyada	-4507
▁Rec	-4508
▁Rehberi	-4509
outube	-4510
▁Ordu	-4511
▁yayınlanan	-4512
ATI	-4513
▁Sek	-4514
paşa	-4515
isinden	-4516
▁piş	-4517
▁Psik	-4518
▁tas	-4519
▁Faz	-4520
▁örgüt	-4521
▁yansı	-4522
▁anlamda	-4523
▁koruy	-4524
▁olanak	-4525
leşt	-4526
▁çerçevesinde	-4527
EZ	-4528
▁etik	-4529
lanma	-4530
▁Büy	-4531
amızı	-4532
lasik	-4533
▁İp	-4534
▁sap	-4535
ülmesi	-4536
▁Mem	-4537
▁olmuştur	-4538
rin	-4539
ith	-4540
yüz	-4541
dığımız	-4542
▁ir	-4543
ezerv	-4544
ext	-4545
▁çal	-4546
▁öden	-4547
▁Bizim	-4548
▁Yorumunuz	-4549
▁TR	-4550
else	-4551
▁seçenekleri	-4552
▁gide	-4553
▁Verilerin	-4554
dikleri	-4555
▁Yağ	-4556
ahya	-4557
▁Sonra	-4558
▁Başvuru	-4559
▁yaşanan	-4560
▁Iş	-4561
▁davranış	-4562
▁dönüştür	-4563
arlar	-4564
▁bol	-4565
▁Düzen	-4566
usun	-4567
niyet	-4568
▁Cez	-4569
▁Hangi	-4570
iydi	-4571
elerle	-4572
▁tanış	-4573
▁sever	-4574
▁Dir	-4575
▁Sivas	-4576
▁istediğ	-4577
▁çiçek	-4578
▁işlev	-4579
abrik	-4580
▁kişilik	-4581
▁Servis	-4582
▁aşağıda	-4583
▁gerektiğini	-4584
▁Günlük	-4585
▁dile	-4586
▁sabah	-4587
İTE	-4588
▁temin	-4589
çesi	-4590
▁Erzurum	-4591
ımın	-4592
bin	-4593
▁sorunu	-4594
aberi	-4595
▁Elazığ	-4596
▁Üç	-4597
▁Popüler	-4598
▁ceza	-4599
▁Odası	-4600
▁oranı	-4601
▁birinci	-4602
▁çoğ	-4603
▁Oyunları	-4604
ayıc	-4605
TA	-4606
▁Filmleri	-4607
liğin	-4608
▁itir	-4609
▁başlar	-4610
Bir	-4611
olar	-4612
▁önüne	-4613
▁beden	-4614
▁anne	-4615
▁operasyon	-4616
anlık	-4617
esindeki	-4618
▁güneş	-4619
▁proje	-4620
▁altı	-4621
▁Şu	-4622
▁Manisa	-4623
AKK	-4624
▁Hiç	-4625
▁Duy	-4626
▁şiş	-4627
▁imk	-4628
▁:)	-4629
▁sistemleri	-4630
▁alanları	-4631
?”	-4632
▁Çöz	-4633
arım	-4634
▁cok	-4635
▁hayatını	-4636
▁Grup	-4637
▁Organ	-4638
▁vermiş	-4639
ct	-4640
▁açıklama	-4641
▁ism	-4642
▁İki	-4643
işi	-4644
▁aşk	-4645
▁Köy	-4646
▁TEK	-4647
▁öğrenciler	-4648
anları	-4649
▁iP	-4650
diniz	-4651
▁azalt	-4652
iir	-4653
▁Şanlıurfa	-4654
itesi	-4655
▁uyarınca	-4656
▁ER	-4657
▁Doğu	-4658
LERİN	-4659
ash	-4660
▁İran	-4661
kon	-4662
ilip	-4663
▁yiy	-4664
▁tad	-4665
▁Cami	-4666
TI	-4667
▁koltuk	-4668
▁th	-4669
▁Güney	-4670
▁forum	-4671
uşak	-4672
aray	-4673
iter	-4674
▁Böylece	-4675
▁Muğla	-4676
▁olduğumuz	-4677
ori	-4678
▁İlçe	-4679
▁sunucu	-4680
liler	-4681
alam	-4682
En	-4683
▁sunulan	-4684
▁kimlik	-4685
liliği	-4686
dırma	-4687
▁bazen	-4688
ilmesini	-4689
düstr	-4690
▁sitemizde	-4691
dirne	-4692
EC	-4693
vekili	-4694
ache	-4695
▁saklıdır	-4696
▁makal	-4697
udi	-4698
▁Rüya	-4699
▁Gündem	-4700
eğini	-4701
▁bulunur	-4702
ace	-4703
işleri	-4704
▁geldiği	-4705
ınar	-4706
▁kus	-4707
▁kimse	-4708
▁Düzce	-4709
▁hüc	-4710
▁faiz	-4711
unması	-4712
öyl	-4713
▁Bakım	-4714
ebiliriz	-4715
▁Alış	-4716
yurt	-4717
▁verileri	-4718
▁sorumluluğu	-4719
▁Yat	-4720
liyet	-4721
▁Link	-4722
▁alak	-4723
▁nedeni	-4724
▁düzenli	-4725
▁ankara	-4726
▁ürünlerin	-4727
▁sunmak	-4728
▁evden	-4729
fı	-4730
▁Ses	-4731
▁Sınav	-4732
asın	-4733
deniz	-4734
va	-4735
düzü	-4736
▁con	-4737
▁siyasi	-4738
▁Cih	-4739
▁Süper	-4740
stanbul	-4741
▁mağaz	-4742
lediği	-4743
kenin	-4744
elerinden	-4745
eyecek	-4746
▁Word	-4747
▁gören	-4748
lastik	-4749
iktaş	-4750
ilmek	-4751
▁çalışması	-4752
▁gal	-4753
üyoruz	-4754
▁teşekkürler	-4755
▁evde	-4756
arik	-4757
manı	-4758
▁port	-4759
isiyle	-4760
fat	-4761
tığını	-4762
▁Fatih	-4763
▁Bilgisayar	-4764
leşme	-4765
▁etmeye	-4766
esuar	-4767
ırım	-4768
▁Güneş	-4769
▁beyan	-4770
▁Yunan	-4771
▁sizler	-4772
acaksınız	-4773
▁Aile	-4774
▁üzerindeki	-4775
▁sınırlı	-4776
▁Balıkesir	-4777
rag	-4778
▁Plan	-4779
land	-4780
▁Gür	-4781
▁aşırı	-4782
tak	-4783
▁programı	-4784
▁la	-4785
site	-4786
▁Kırmızı	-4787
▁toplantı	-4788
App	-4789
▁Tık	-4790
esun	-4791
▁Afyon	-4792
RO	-4793
▁Renk	-4794
▁döneminde	-4795
▁birden	-4796
▁bağımsız	-4797
▁Öl	-4798
▁desteği	-4799
▁çay	-4800
emizin	-4801
ıyorlar	-4802
▁etkisi	-4803
▁﻿	-4804
giler	-4805
▁yükümlül	-4806
alarından	-4807
▁Müdürü	-4808
yaz	-4809
▁kem	-4810
▁ameliyat	-4811
▁Mağ	-4812
▁yapım	-4813
▁taşıma	-4814
▁bundan	-4815
▁kopy	-4816
▁ton	-4817
▁Dur	-4818
▁amaçlı	-4819
diler	-4820
▁olmasına	-4821
▁çıkış	-4822
kale	-4823
▁özen	-4824
▁uyum	-4825
nden	-4826
ıyaman	-4827
süz	-4828
▁sıkıntı	-4829
▁uçak	-4830
▁biridir	-4831
▁bunlar	-4832
▁mail	-4833
İP	-4834
▁yönetimi	-4835
▁çerezleri	-4836
▁Mel	-4837
▁Murat	-4838
▁şikayet	-4839
▁Hz	-4840
lıklar	-4841
▁modern	-4842
errah	-4843
▁kolayca	-4844
▁De	-4845
▁Bilgiler	-4846
▁lazım	-4847
▁Evet	-4848
▁dizi	-4849
▁edici	-4850
▁Kes	-4851
▁kendisi	-4852
▁instagram	-4853
▁bitir	-4854
▁Ber	-4855
▁gelişim	-4856
▁üniversit	-4857
▁sonucunda	-4858
ull	-4859
▁ins	-4860
▁Buna	-4861
likdüzü	-4862
iya	-4863
TT	-4864
▁Cep	-4865
▁Dijital	-4866
▁eşit	-4867
▁promosyon	-4868
▁Ker	-4869
tifik	-4870
▁Bize	-4871
▁Sav	-4872
ice	-4873
▁sırada	-4874
▁yönlendir	-4875
dıkları	-4876
▁ren	-4877
▁silin	-4878
▁ilg	-4879
▁Tedav	-4880
▁ortadan	-4881
▁kurumsal	-4882
▁Yapılır	-4883
In	-4884
▁harek	-4885
▁banka	-4886
▁İST	-4887
▁enerj	-4888
▁ide	-4889
ARI	-4890
▁İÇİN	-4891
▁asıl	-4892
▁ib	-4893
▁Eve	-4894
ected	-4895
▁heyecan	-4896
▁yapmaya	-4897
▁yetkili	-4898
▁haz	-4899
▁balık	-4900
▁ez	-4901
atistik	-4902
▁slot	-4903
şak	-4904
▁”	-4905
▁tedbir	-4906
▁Dakika	-4907
▁tıp	-4908
ulması	-4909
▁süreci	-4910
▁Bilgileri	-4911
iew	-4912
▁yerleş	-4913
▁Öğretmen	-4914
▁Ürünler	-4915
▁Herk	-4916
▁vitam	-4917
▁parça	-4918
laj	-4919
und	-4920
▁Lisans	-4921
▁yaparken	-4922
▁kalp	-4923
▁des	-4924
ish	-4925
irken	-4926
▁onlar	-4927
ongul	-4928
▁vücut	-4929
▁Mi	-4930
▁sana	-4931
▁Kripto	-4932
▁hasar	-4933
▁sahib	-4934
onguldak	-4935
▁ortamda	-4936
▁Read	-4937
▁Yas	-4938
▁eğlenc	-4939
▁insanın	-4940
▁yapıldı	-4941
▁rek	-4942
red	-4943
▁İnş	-4944
▁edip	-4945
kol	-4946
▁edilmektedir	-4947
▁Ödül	-4948
iciler	-4949
sp	-4950
▁Koşul	-4951
imizden	-4952
▁kons	-4953
larımıza	-4954
▁senin	-4955
▁profil	-4956
▁polis	-4957
▁otomobil	-4958
▁yerel	-4959
▁tuz	-4960
▁alıp	-4961
Türkiye	-4962
iyorlar	-4963
▁Si	-4964
yer	-4965
oft	-4966
▁Ulaş	-4967
deb	-4968
▁kilo	-4969
▁Diş	-4970
lemesi	-4971
!”	-4972
▁Uygulam	-4973
maktan	-4974
▁etmesi	-4975
",	-4976
amik	-4977
▁mevcuttur	-4978
irdağ	-4979
▁Hurda	-4980
▁Partisi	-4981
▁yıllarda	-4982
▁kullanılabilir	-4983
▁cookies	-4984
▁fi	-4985
INDA	-4986
▁yapımı	-4987
▁Turk	-4988
mıştı	-4989
▁Edirne	-4990
▁Fakültesi	-4991
▁parçası	-4992
▁olduğundan	-4993
ayım	-4994
▁binlerce	-4995
▁bulabilirsiniz	-4996
▁ESC	-4997
▁gündem	-4998
▁US	-4999
iyiz	-5000
▁huzur	-5001
▁sonu	-5002
▁dövme	-5003
olama	-5004
▁kadınlar	-5005
irli	-5006
▁yetiştir	-5007
eşem	-5008
▁Min	-5009
HEMEN	-5010
▁imkanı	-5011
▁nüf	-5012
▁Programı	-5013
▁BİL	-5014
▁konut	-5015
▁beğ	-5016
lantı	-5017
▁açıkladı	-5018
▁reh	-5019
diğim	-5020
etiyle	-5021
düm	-5022
▁peş	-5023
TC	-5024
dığım	-5025
OC	-5026
▁elem	-5027
edikleri	-5028
▁gönül	-5029
▁bunları	-5030
OB	-5031
▁Nelerdir	-5032
siyet	-5033
▁Bütün	-5034
▁onlara	-5035
▁isterseniz	-5036
▁Seks	-5037
▁rahatsız	-5038
▁vurgul	-5039
TM	-5040
TR	-5041
odrum	-5042
▁post	-5043
▁Ağrı	-5044
▁olumlu	-5045
▁Lis	-5046
▁Sınıf	-5047
bey	-5048
▁dağıt	-5049
ebilmek	-5050
▁KUR	-5051
▁Bunlar	-5052
▁misafir	-5053
▁karış	-5054
ovid	-5055
▁ofis	-5056
▁Artık	-5057
ograf	-5058
▁dosya	-5059
▁gol	-5060
▁altyap	-5061
▁sebebiyle	-5062
masından	-5063
post	-5064
▁Muh	-5065
▁pil	-5066
▁yöntemi	-5067
artın	-5068
etli	-5069
usunu	-5070
▁kalın	-5071
▁Ara	-5072
▁Sun	-5073
sizlik	-5074
▁yaşamak	-5075
▁gelmiş	-5076
▁birik	-5077
▁kapas	-5078
▁pot	-5079
▁Mic	-5080
▁çekt	-5081
▁you	-5082
ektif	-5083
▁TÜRK	-5084
▁Yorumları	-5085
layıp	-5086
▁Sa	-5087
les	-5088
▁erken	-5089
ilmez	-5090
▁filmi	-5091
▁türü	-5092
▁kaynağı	-5093
▁Hoş	-5094
ingir	-5095
▁numarası	-5096
iki	-5097
▁Kılıç	-5098
▁Yardımcısı	-5099
▁sayede	-5100
unt	-5101
▁Du	-5102
▁olmaya	-5103
bon	-5104
▁çeken	-5105
ılmaktadır	-5106
andev	-5107
lasyon	-5108
▁mesaf	-5109
▁Modelleri	-5110
▁gizli	-5111
▁garant	-5112
▁hassas	-5113
▁çalıştır	-5114
▁Aşağı	-5115
▁bozuk	-5116
ansiyon	-5117
lerimizin	-5118
▁yoluyla	-5119
▁sağlıyor	-5120
▁ış	-5121
▁Dikkat	-5122
▁Şek	-5123
▁iyileştir	-5124
ışma	-5125
▁alg	-5126
sul	-5127
INI	-5128
oyu	-5129
balaj	-5130
malısınız	-5131
▁Sorum	-5132
▁seni	-5133
▁taksi	-5134
iews	-5135
▁ESCORT	-5136
▁Cem	-5137
▁iddia	-5138
▁Maç	-5139
ekorasyon	-5140
Ben	-5141
▁rom	-5142
▁Lim	-5143
obüs	-5144
▁Yine	-5145
▁yaşat	-5146
▁Sem	-5147
▁Adı	-5148
emize	-5149
▁imza	-5150
▁yatak	-5151
ase	-5152
▁BON	-5153
avuz	-5154
▁öncesi	-5155
madığı	-5156
ısır	-5157
▁olduğuna	-5158
meni	-5159
▁olmasını	-5160
▁öngör	-5161
▁sunuyor	-5162
▁bakış	-5163
▁kişilere	-5164
şembe	-5165
▁Numar	-5166
▁yatırma	-5167
▁Yıldız	-5168
▁Teslim	-5169
eferans	-5170
▁oluşturmak	-5171
▁kış	-5172
▁sim	-5173
▁siv	-5174
ıf	-5175
▁Korunması	-5176
ech	-5177
▁Op	-5178
▁ürünün	-5179
aşık	-5180
ERS	-5181
▁tanı	-5182
▁bilir	-5183
▁eğitimi	-5184
astam	-5185
oo	-5186
▁Gru	-5187
▁Ec	-5188
▁dokun	-5189
▁taahh	-5190
illi	-5191
▁Fer	-5192
ozgat	-5193
▁imal	-5194
otiv	-5195
raniye	-5196
▁ortalama	-5197
▁Kuralları	-5198
▁Birleş	-5199
onim	-5200
▁Yapılan	-5201
parta	-5202
ELİ	-5203
▁hac	-5204
▁olmalıdır	-5205
evler	-5206
akkabı	-5207
▁Red	-5208
duğumuz	-5209
▁Koç	-5210
▁çıkıyor	-5211
▁Sn	-5212
▁Kav	-5213
▁tehdit	-5214
▁haberi	-5215
bahçe	-5216
▁pazarlama	-5217
Ğİ	-5218
▁Tabi	-5219
▁Hastalık	-5220
estor	-5221
ild	-5222
ever	-5223
▁beklent	-5224
ündeki	-5225
İH	-5226
iyatro	-5227
▁bilgilerin	-5228
Yeni	-5229
▁günde	-5230
▁toplant	-5231
▁Benzer	-5232
ijinal	-5233
▁Arap	-5234
own	-5235
▁Bab	-5236
▁deneyimi	-5237
klar	-5238
▁incelem	-5239
▁bulundur	-5240
▁se	-5241
▁suyu	-5242
▁yeşil	-5243
▁hediye	-5244
▁Sok	-5245
▁birim	-5246
▁OK	-5247
▁Fener	-5248
▁kuvvet	-5249
▁belirten	-5250
▁buradan	-5251
▁Şartları	-5252
▁YORUM	-5253
fe	-5254
▁kodu	-5255
▁Çift	-5256
▁Apple	-5257
▁halısı	-5258
ica	-5259
sızın	-5260
▁pencer	-5261
▁Men	-5262
▁bekliyor	-5263
TL	-5264
▁mümkündür	-5265
▁Sayın	-5266
▁ilişki	-5267
▁arıza	-5268
▁sitenin	-5269
▁pozisyon	-5270
▁vücud	-5271
dat	-5272
▁dar	-5273
▁pay	-5274
şamba	-5275
▁Karaman	-5276
▁AD	-5277
▁cilt	-5278
▁kalite	-5279
sk	-5280
▁kanıt	-5281
▁Kahraman	-5282
▁yılda	-5283
▁Saklıdır	-5284
▁dis	-5285
▁verilir	-5286
▁öncelikle	-5287
▁dışarı	-5288
ilingir	-5289
asız	-5290
▁kitab	-5291
▁anlayış	-5292
▁Muham	-5293
▁Resmi	-5294
lob	-5295
▁gösterir	-5296
.,	-5297
▁Aydınlatma	-5298
▁BONUS	-5299
ÖN	-5300
lari	-5301
▁işte	-5302
▁Yukarı	-5303
▁Pazartesi	-5304
ümin	-5305
▁tit	-5306
▁Mez	-5307
iğde	-5308
▁koş	-5309
nam	-5310
▁Kontrol	-5311
leyerek	-5312
▁olabilirsiniz	-5313
▁KVKK	-5314
inter	-5315
▁Bolu	-5316
▁sözleşme	-5317
▁Üzer	-5318
▁önceden	-5319
▁kullanılması	-5320
ml	-5321
▁açı	-5322
astamonu	-5323
▁korsan	-5324
alandı	-5325
FA	-5326
şap	-5327
eliği	-5328
lamış	-5329
▁karşısında	-5330
var	-5331
▁Rize	-5332
▁yapılmaktadır	-5333
bank	-5334
▁Engel	-5335
amazan	-5336
▁Don	-5337
▁Tarım	-5338
▁hasta	-5339
▁Cumhuriyeti	-5340
▁Kumaş	-5341
▁transfer	-5342
eceğim	-5343
VA	-5344
▁Ağacı	-5345
▁ül	-5346
▁işç	-5347
▁Arama	-5348
▁Kendi	-5349
sem	-5350
ediğimiz	-5351
gre	-5352
▁organizasyon	-5353
azi	-5354
utan	-5355
▁Kons	-5356
▁sunmaktadır	-5357
YON	-5358
▁yor	-5359
▁Çorum	-5360
ENİ	-5361
▁ayı	-5362
ticaret	-5363
▁pak	-5364
SO	-5365
▁Malzem	-5366
RET	-5367
▁paylaşmak	-5368
iteli	-5369
▁Bahç	-5370
▁göç	-5371
▁sayfa	-5372
▁Amerik	-5373
▁Uygulama	-5374
▁mevzuat	-5375
▁ihtim	-5376
▁Karar	-5377
▁yeter	-5378
ıntılı	-5379
DU	-5380
▁Turizm	-5381
▁Toplam	-5382
▁Windows	-5383
lenecek	-5384
▁kuru	-5385
▁!	-5386
▁vası	-5387
▁ulaştır	-5388
▁husus	-5389
▁Deneme	-5390
▁Adıyaman	-5391
nu	-5392
DİN	-5393
▁Göl	-5394
▁yakal	-5395
ansör	-5396
▁dolaşımı	-5397
▁kısmı	-5398
▁bahset	-5399
▁öğrenci	-5400
▁kırmızı	-5401
▁mus	-5402
▁Foto	-5403
▁Sk	-5404
ayda	-5405
▁tedavisi	-5406
leğ	-5407
▁Sektör	-5408
▁zamanlarda	-5409
▁günlerde	-5410
sta	-5411
▁vs	-5412
ingöl	-5413
▁fer	-5414
▁Giresun	-5415
▁yenilik	-5416
Press	-5417
▁Yılmaz	-5418
▁harf	-5419
▁Araştırma	-5420
▁Suriye	-5421
irim	-5422
landa	-5423
▁gözden	-5424
ılmıştır	-5425
▁Otel	-5426
▁Amas	-5427
▁platformu	-5428
IMIZ	-5429
bel	-5430
▁ikti	-5431
▁demokr	-5432
lıkları	-5433
▁siteye	-5434
urken	-5435
▁sabit	-5436
▁alınması	-5437
▁Kısa	-5438
ksiyon	-5439
KAN	-5440
▁görm	-5441
▁kolaylaş	-5442
▁Alışveriş	-5443
▁gördüğ	-5444
▁Evden	-5445
▁Arab	-5446
▁anahtar	-5447
▁ücreti	-5448
▁Bes	-5449
▁denetim	-5450
FT	-5451
▁arab	-5452
▁çevrimiçi	-5453
▁Mardin	-5454
▁Güç	-5455
▁Yabancı	-5456
▁Fransa	-5457
▁Şef	-5458
▁kullanıcılar	-5459
tek	-5460
▁buy	-5461
▁KAY	-5462
▁işbir	-5463
▁Toplum	-5464
iyan	-5465
▁are	-5466
▁kaçır	-5467
▁oturum	-5468
Gİ	-5469
▁yıldız	-5470
▁sokak	-5471
▁lira	-5472
vik	-5473
▁oynay	-5474
▁metin	-5475
▁Ekonomi	-5476
▁olanlar	-5477
▁hizmetler	-5478
▁gıda	-5479
▁rakam	-5480
▁yapma	-5481
▁zih	-5482
anızı	-5483
▁geçiş	-5484
ال	-5485
ick	-5486
▁İliş	-5487
▁ederiz	-5488
▁Perşembe	-5489
▁Enerji	-5490
olitika	-5491
▁Network	-5492
▁bilgisi	-5493
ıbbi	-5494
▁Beşiktaş	-5495
▁teşkil	-5496
▁müdahal	-5497
▁inşa	-5498
▁ismi	-5499
lenmektedir	-5500
▁isimli	-5501
▁Zor	-5502
▁hur	-5503
▁yerli	-5504
▁bür	-5505
▁Evrim	-5506
▁bende	-5507
▁geçti	-5508
Cİ	-5509
lanmıştır	-5510
ype	-5511
los	-5512
▁eb	-5513
▁koruma	-5514
▁çalışıyor	-5515
▁Bölg	-5516
▁Platform	-5517
▁bizimle	-5518
memiş	-5519
▁ALI	-5520
▁Pet	-5521
allah	-5522
▁garanti	-5523
▁sergil	-5524
zan	-5525
▁savun	-5526
▁WhatsApp	-5527
▁BU	-5528
ikat	-5529
liğinin	-5530
▁yapılmış	-5531
▁ters	-5532
▁Festiv	-5533
▁çoğun	-5534
▁ağrı	-5535
▁konak	-5536
▁ekle	-5537
▁tanın	-5538
onav	-5539
haber	-5540
TV	-5541
▁kayıp	-5542
▁giden	-5543
▁ulusal	-5544
aktör	-5545
▁biliyor	-5546
anım	-5547
▁yürür	-5548
▁alınır	-5549
▁Hasan	-5550
ruf	-5551
utu	-5552
macı	-5553
▁sevin	-5554
▁Futbol	-5555
old	-5556
▁Kaz	-5557
▁Mey	-5558
brahim	-5559
▁Eğitimi	-5560
▁soğuk	-5561
▁tamir	-5562
şey	-5563
▁uyarı	-5564
itik	-5565
▁karıştır	-5566
▁kullanan	-5567
▁medyum	-5568
ARA	-5569
▁lir	-5570
larınıza	-5571
▁sunar	-5572
atasar	-5573
▁ten	-5574
▁sebebi	-5575
alarımız	-5576
▁şeker	-5577
▁teb	-5578
▁New	-5579
▁çekme	-5580
▁geçer	-5581
▁yüzyıl	-5582
▁yetkil	-5583
▁saf	-5584
▁sigara	-5585
▁grub	-5586
▁Şey	-5587
usuna	-5588
amanın	-5589
▁ince	-5590
▁değeri	-5591
uluğ	-5592
okul	-5593
▁çor	-5594
▁çevres	-5595
▁sektöründe	-5596
▁sikiş	-5597
MET	-5598
▁meslek	-5599
▁seçeneği	-5600
▁gur	-5601
▁bölgesinde	-5602
ığın	-5603
aklı	-5604
▁işleme	-5605
▁nesil	-5606
▁başlıyor	-5607
▁taahhüt	-5608
▁;	-5609
ebiliyor	-5610
▁Yür	-5611
▁Detaylı	-5612
▁inşaat	-5613
ava	-5614
▁sorgul	-5615
▁çocuklar	-5616
▁etraf	-5617
▁TAR	-5618
▁pet	-5619
▁İşlet	-5620
▁alabilir	-5621
ola	-5622
▁Zonguldak	-5623
▁WordPress	-5624
▁etki	-5625
▁daim	-5626
▁dikkate	-5627
aporu	-5628
▁mezun	-5629
▁Gez	-5630
▁Abd	-5631
▁Rab	-5632
▁Doğru	-5633
alle	-5634
▁Batman	-5635
▁tane	-5636
▁yola	-5637
▁bölümü	-5638
aşehir	-5639
▁darb	-5640
▁Ürünleri	-5641
yas	-5642
▁â	-5643
ıköy	-5644
lardaki	-5645
▁Batı	-5646
İST	-5647
▁SEO	-5648
uman	-5649
▁Çarşamba	-5650
▁II	-5651
ette	-5652
UŞ	-5653
▁istih	-5654
▁saygı	-5655
▁Kilis	-5656
sed	-5657
▁Tekirdağ	-5658
▁Tıp	-5659
▁yerini	-5660
▁Bildir	-5661
rail	-5662
SK	-5663
▁etmeniz	-5664
▁Fa	-5665
ematik	-5666
api	-5667
gari	-5668
öğr	-5669
▁kök	-5670
▁Sınır	-5671
▁park	-5672
▁memnuniyet	-5673
▁Car	-5674
▁durdur	-5675
▁Sistemleri	-5676
▁neredeyse	-5677
▁Gr	-5678
▁VER	-5679
lanıyor	-5680
▁üyesi	-5681
tanın	-5682
▁Pak	-5683
▁km	-5684
isiklet	-5685
▁getiren	-5686
▁uyan	-5687
▁iPhone	-5688
▁yapmanız	-5689
▁Kütahya	-5690
satı	-5691
cript	-5692
imden	-5693
ilme	-5694
▁yılından	-5695
oğaz	-5696
ID	-5697
▁yılın	-5698
▁şirketi	-5699
▁Elektronik	-5700
▁Kars	-5701
▁Yık	-5702
▁herkesin	-5703
▁Artvin	-5704
ýn	-5705
▁eşya	-5706
atasaray	-5707
▁uygulamaları	-5708
▁zayıf	-5709
▁rast	-5710
▁Arda	-5711
deri	-5712
ilecektir	-5713
▁Başkanlığı	-5714
▁demektir	-5715
ang	-5716
AYIN	-5717
▁Şiş	-5718
▁Jap	-5719
▁ihtiyacı	-5720
maraş	-5721
▁duyg	-5722
ğur	-5723
▁kadro	-5724
▁Tarifleri	-5725
▁endiş	-5726
▁giren	-5727
▁acı	-5728
▁Doğum	-5729
▁Zir	-5730
▁Sü	-5731
▁arız	-5732
▁ago	-5733
SA	-5734
▁Tük	-5735
▁yürüy	-5736
▁Kırık	-5737
▁Size	-5738
adet	-5739
▁esnasında	-5740
▁Doğal	-5741
▁öğret	-5742
▁bilimsel	-5743
lemeye	-5744
▁AKP	-5745
▁Hikayeleri	-5746
▁eh	-5747
▁Hüs	-5748
ebe	-5749
▁est	-5750
▁Play	-5751
leyebilirsiniz	-5752
ANB	-5753
▁kullanıcıların	-5754
burt	-5755
amıyor	-5756
▁yenil	-5757
▁sorunları	-5758
▁sıv	-5759
▁çıkart	-5760
▁ettiğiniz	-5761
omb	-5762
▁kriz	-5763
▁cen	-5764
▁Marka	-5765
▁kalıcı	-5766
▁Adsız	-5767
▁kendilerine	-5768
▁ex	-5769
▁kısıt	-5770
ülten	-5771
▁Uygun	-5772
▁Ann	-5773
▁ülkenin	-5774
▁açılır	-5775
▁sitesine	-5776
▁Kuzey	-5777
OŞ	-5778
ss	-5779
▁gözlem	-5780
▁Isparta	-5781
ender	-5782
isyen	-5783
▁TE	-5784
▁duyar	-5785
▁Sinop	-5786
▁gelin	-5787
▁Vat	-5788
▁genelinde	-5789
▁büyü	-5790
ug	-5791
▁Od	-5792
▁ÖN	-5793
yasal	-5794
▁insanları	-5795
▁uzat	-5796
▁dom	-5797
▁tanıtım	-5798
▁Mahkem	-5799
▁Mühendis	-5800
▁kusur	-5801
▁All	-5802
▁tarım	-5803
▁Aksaray	-5804
ginç	-5805
▁demir	-5806
▁this	-5807
▁Vi	-5808
ebi	-5809
▁toz	-5810
▁ihracat	-5811
ınday	-5812
▁kayded	-5813
▁Kolay	-5814
▁Yozgat	-5815
▁Hoc	-5816
▁edilebilir	-5817
▁TAK	-5818
ris	-5819
nan	-5820
▁bozul	-5821
▁küresel	-5822
▁Firma	-5823
▁Müslüman	-5824
türk	-5825
▁Takım	-5826
usal	-5827
▁KAT	-5828
▁Geri	-5829
▁firmaları	-5830
ider	-5831
▁sıfır	-5832
▁Yalova	-5833
▁homeop	-5834
▁log	-5835
demir	-5836
▁diler	-5837
▁Meclis	-5838
▁Siyas	-5839
▁Eşya	-5840
▁yangın	-5841
▁Listesi	-5842
▁bilgilendirme	-5843
con	-5844
alya	-5845
ıcının	-5846
▁Yayınları	-5847
stit	-5848
▁barındır	-5849
▁şartları	-5850
emektedir	-5851
abileceğini	-5852
▁şifr	-5853
LEN	-5854
):	-5855
▁Karak	-5856
▁ülkede	-5857
▁uğraş	-5858
▁lam	-5859
acağına	-5860
▁with	-5861
▁birbirinden	-5862
▁Aşk	-5863
▁Uşak	-5864
ağın	-5865
▁Te	-5866
▁müt	-5867
▁depr	-5868
''	-5869
▁Salı	-5870
lamaya	-5871
▁ediliyor	-5872
amayan	-5873
▁Yangın	-5874
▁Grubu	-5875
▁Çeşit	-5876
▁bedel	-5877
▁görünüm	-5878
▁Li	-5879
▁kumar	-5880
medi	-5881
ÜŞ	-5882
emen	-5883
▁kahv	-5884
▁bilgilerini	-5885
▁potans	-5886
▁Kitapları	-5887
▁doy	-5888
▁Finans	-5889
▁Metni	-5890
▁içindeki	-5891
▁süs	-5892
adis	-5893
▁Sik	-5894
▁Bununla	-5895
▁kendisini	-5896
▁Kürt	-5897
▁Tunc	-5898
▁hazırlanan	-5899
▁tutulamaz	-5900
▁adresine	-5901
▁Farklı	-5902
terek	-5903
▁Kamu	-5904
zersiz	-5905
acık	-5906
lenebilir	-5907
▁üstün	-5908
ğdır	-5909
klareli	-5910
▁kolaylaştır	-5911
dağı	-5912
ory	-5913
▁hata	-5914
▁kilit	-5915
▁Dis	-5916
▁Posted	-5917
▁Trans	-5918
▁çekici	-5919
ks	-5920
▁Yazılım	-5921
uğu	-5922
▁ilçesinde	-5923
amaya	-5924
▁sonuçları	-5925
▁saha	-5926
▁verecek	-5927
▁televizyon	-5928
▁Kapı	-5929
▁kurulan	-5930
linik	-5931
▁parti	-5932
▁Adet	-5933
▁Amasya	-5934
▁trafik	-5935
unuza	-5936
▁bünyesinde	-5937
▁güvenliği	-5938
PR	-5939
ALI	-5940
▁Nevşehir	-5941
▁Kastamonu	-5942
▁açıklamada	-5943
▁Ömer	-5944
cular	-5945
▁Fenerbahçe	-5946
▁salon	-5947
▁dolayısıyla	-5948
▁yarım	-5949
nik	-5950
▁temizlik	-5951
▁Gam	-5952
laç	-5953
debiyat	-5954
▁arkadaşlar	-5955
▁belirlenen	-5956
▁SAN	-5957
▁keyifli	-5958
▁verildi	-5959
▁Bartın	-5960
ence	-5961
▁serbest	-5962
▁çelik	-5963
▁Rüyada	-5964
▁noktada	-5965
ende	-5966
DER	-5967
▁maaş	-5968
ower	-5969
▁Tesis	-5970
lerimize	-5971
larındaki	-5972
ich	-5973
lobal	-5974
▁Piyas	-5975
▁tedarik	-5976
▁Harit	-5977
▁uyumlu	-5978
▁sırala	-5979
▁oldukları	-5980
▁Kiralama	-5981
atch	-5982
▁vergi	-5983
▁ep	-5984
▁vermeye	-5985
▁Çiçek	-5986
▁görülen	-5987
yaj	-5988
▁Özellikleri	-5989
▁unsur	-5990
lon	-5991
▁sam	-5992
▁Kupası	-5993
▁seksi	-5994
interest	-5995
lığının	-5996
▁Hattı	-5997
▁Bilecik	-5998
▁Yönetimi	-5999
▁şık	-6000
▁usul	-6001
▁🙂	-6002
▁Öğrenc	-6003
ach	-6004
▁düşünüyorum	-6005
▁montaj	-6006
▁çalışır	-6007
▁denet	-6008
usunun	-6009
kent	-6010
▁Kurumsal	-6011
İstanbul	-6012
▁Kuruluş	-6013
car	-6014
ester	-6015
▁Dünyanın	-6016
▁Erzincan	-6017
▁civ	-6018
▁Temel	-6019
utma	-6020
▁Korum	-6021
▁Peygamber	-6022
değ	-6023
▁Oğ	-6024
▁Muhammed	-6025
▁ulaşım	-6026
▁Tokat	-6027
▁kaçın	-6028
▁Teknoloj	-6029
▁Çevre	-6030
▁gereği	-6031
▁Bingöl	-6032
azer	-6033
lic	-6034
leştirme	-6035
▁Niğde	-6036
▁yalan	-6037
ure	-6038
▁itiraz	-6039
▁diren	-6040
▁sahn	-6041
▁→	-6042
vel	-6043
▁hastalığ	-6044
▁hissed	-6045
▁sürece	-6046
▁yaşındaki	-6047
▁bilgiye	-6048
▁Kombi	-6049
▁düşünüyor	-6050
▁ordu	-6051
▁birini	-6052
▁çam	-6053
manıza	-6054
▁müdür	-6055
andevu	-6056
İMİZ	-6057
▁arşiv	-6058
▁iddaa	-6059
▁siyah	-6060
▁Kızıl	-6061
▁fiziksel	-6062
▁ederken	-6063
laşma	-6064
▁He	-6065
▁read	-6066
▁pm	-6067
▁adını	-6068
irler	-6069
▁Değişik	-6070
▁Kent	-6071
▁Olu	-6072
ılmasına	-6073
▁Mag	-6074
▁Asya	-6075
▁akıl	-6076
▁besin	-6077
ebilirim	-6078
tent	-6079
oter	-6080
▁diyerek	-6081
▁Dolayısıyla	-6082
ılıp	-6083
▁Bodrum	-6084
veren	-6085
▁dünyaya	-6086
▁korumak	-6087
▁hakaret	-6088
eral	-6089
lor	-6090
▁Far	-6091
▁yükselt	-6092
▁Çankırı	-6093
▁Firmamız	-6094
▁IP	-6095
▁Motor	-6096
▁Komisyon	-6097
▁kuralları	-6098
▁almaya	-6099
▁Cumartesi	-6100
adir	-6101
▁açıklaması	-6102
▁Banka	-6103
▁kurulu	-6104
veç	-6105
▁Sorular	-6106
▁sizleri	-6107
▁katıldı	-6108
▁Hacklink	-6109
▁suy	-6110
▁kop	-6111
▁gücü	-6112
▁bakımından	-6113
▁Rep	-6114
idi	-6115
▁Bitlis	-6116
▁Şırnak	-6117
▁Next	-6118
ketbol	-6119
ikol	-6120
▁verimli	-6121
▁Tag	-6122
▁orada	-6123
▁makinesi	-6124
iyeler	-6125
▁verici	-6126
▁gelenek	-6127
▁tv	-6128
▁Fet	-6129
▁HAKK	-6130
larınızın	-6131
AA	-6132
▁tıklayınız	-6133
▁Galatasaray	-6134
abilirler	-6135
▁Tuz	-6136
▁Forex	-6137
▁Bizi	-6138
udum	-6139
▁tez	-6140
▁Koşulları	-6141
▁farklılık	-6142
▁DEV	-6143
lenmiştir	-6144
▁buz	-6145
▁seçin	-6146
▁çekim	-6147
DV	-6148
▁Eb	-6149
▁inanç	-6150
teroid	-6151
▁havuz	-6152
▁yenilen	-6153
▁giderek	-6154
▁Ofis	-6155
▁Akdeniz	-6156
▁ısı	-6157
mı	-6158
hab	-6159
▁ob	-6160
▁acil	-6161
▁pratik	-6162
ting	-6163
▁tarihli	-6164
▁Fayd	-6165
▁Geliş	-6166
teri	-6167
▁₺	-6168
▁İbrahim	-6169
▁hepsi	-6170
▁Göre	-6171
▁iad	-6172
▁Pap	-6173
▁Basın	-6174
▁tutuk	-6175
▁işler	-6176
▁Ege	-6177
lığında	-6178
afer	-6179
▁hızla	-6180
▁Kaf	-6181
endiğ	-6182
▁güçlendir	-6183
▁vasıt	-6184
▁yüzey	-6185
▁işlemler	-6186
asay	-6187
evious	-6188
ledik	-6189
▁takv	-6190
▁komp	-6191
▁sebeple	-6192
▁Selç	-6193
▁Sol	-6194
▁öy	-6195
dry	-6196
adyo	-6197
▁zamanı	-6198
Kar	-6199
▁Be	-6200
▁Anay	-6201
▁varlık	-6202
▁kupon	-6203
eceksiniz	-6204
▁hatırlat	-6205
▁Doktor	-6206
▁tablo	-6207
▁İmam	-6208
▁sorunsuz	-6209
▁kullanmaya	-6210
▁malzeme	-6211
▁Sitemizde	-6212
RE	-6213
▁ağr	-6214
▁Youtube	-6215
▁Seçenek	-6216
▁kullandı	-6217
İSİ	-6218
▁Hastanesi	-6219
▁şub	-6220
▁muhteşem	-6221
▁ağaç	-6222
▁sitesini	-6223
▁bildirim	-6224
▁ÜR	-6225
▁kum	-6226
▁tamiri	-6227
alarla	-6228
▁Hizmeti	-6229
sini	-6230
▁mahkem	-6231
▁Emek	-6232
▁ilişkiler	-6233
▁zek	-6234
kır	-6235
ree	-6236
ld	-6237
▁Fu	-6238
▁sorunlar	-6239
▁zinc	-6240
▁yerler	-6241
dışı	-6242
▁aralık	-6243
esti	-6244
▁gelişmeler	-6245
td	-6246
top	-6247
▁NE	-6248
▁nakliye	-6249
▁rezerv	-6250
▁faktör	-6251
Er	-6252
▁ettiğini	-6253
▁kısım	-6254
▁Koltuk	-6255
▁biy	-6256
▁Ulusal	-6257
▁mesel	-6258
****	-6259
ilmesine	-6260
▁hakkını	-6261
▁haberdar	-6262
▁yapısı	-6263
▁Kategori	-6264
▁Biy	-6265
▁Sup	-6266
▁kanser	-6267
▁Arşiv	-6268
▁ayrıl	-6269
▁Manş	-6270
▁Örnek	-6271
▁eskort	-6272
▁Çözüm	-6273
▁üretic	-6274
▁SP	-6275
ated	-6276
Tube	-6277
▁köpek	-6278
likte	-6279
▁Ma	-6280
▁ulaşmak	-6281
▁hayatı	-6282
▁Tamam	-6283
▁Person	-6284
▁Rob	-6285
▁Milletvekili	-6286
▁büyüm	-6287
lit	-6288
▁yıllar	-6289
▁toplumsal	-6290
▁şer	-6291
▁dolaylı	-6292
▁tamamlan	-6293
▁yukarıda	-6294
▁kurs	-6295
▁tazmin	-6296
▁ilgilen	-6297
abiliriz	-6298
▁oynan	-6299
▁okur	-6300
▁dönüşüm	-6301
elp	-6302
okol	-6303
▁düşman	-6304
▁Burdur	-6305
▁Siirt	-6306
eğine	-6307
▁Çay	-6308
portaj	-6309
▁yerden	-6310
▁website	-6311
esidir	-6312
▁Aslında	-6313
anet	-6314
▁Samsung	-6315
▁fayda	-6316
▁bulmak	-6317
İB	-6318
ANBUL	-6319
▁beb	-6320
▁ülkemizde	-6321
öportaj	-6322
iyede	-6323
▁dayalı	-6324
▁Seb	-6325
ğüs	-6326
▁Hatta	-6327
ife	-6328
▁Kral	-6329
▁tasarımı	-6330
▁günler	-6331
▁taşı	-6332
biy	-6333
▁gelmektedir	-6334
▁pi	-6335
▁Müzik	-6336
▁tok	-6337
▁eğlenceli	-6338
▁vide	-6339
▁idari	-6340
ux	-6341
▁nelerdir	-6342
▁taksit	-6343
ani	-6344
▁yedek	-6345
▁Ramazan	-6346
▁alıcı	-6347
▁renkli	-6348
▁kesim	-6349
▁Başbak	-6350
▁Hakkari	-6351
▁dedim	-6352
▁olmalı	-6353
▁Park	-6354
▁Bundan	-6355
tığımız	-6356
▁Çerezler	-6357
▁atan	-6358
▁artan	-6359
mada	-6360
ulet	-6361
▁ölçüde	-6362
Ay	-6363
▁telif	-6364
▁belgesi	-6365
İV	-6366
çin	-6367
▁sivil	-6368
▁ısıt	-6369
▁Önemli	-6370
▁Olan	-6371
unuzun	-6372
▁ban	-6373
▁yazarak	-6374
▁Beni	-6375
addesi	-6376
OG	-6377
▁doğan	-6378
ümr	-6379
▁hastalığı	-6380
▁yakından	-6381
Posta	-6382
▁kulak	-6383
▁aldım	-6384
ebilmesi	-6385
▁Fant	-6386
▁kullanır	-6387
hale	-6388
onavirüs	-6389
▁cüml	-6390
EG	-6391
▁oyunlar	-6392
ılacaktır	-6393
DIR	-6394
▁Kurumu	-6395
▁oynamak	-6396
▁gem	-6397
▁çevre	-6398
▁Çam	-6399
▁herkese	-6400
ker	-6401
▁enflasyon	-6402
▁Iğdır	-6403
▁kitabı	-6404
lish	-6405
ulur	-6406
enize	-6407
▁hakim	-6408
▁mutfak	-6409
▁sağlamaktadır	-6410
▁gösteriyor	-6411
ademik	-6412
▁adlandır	-6413
▁kayıtlı	-6414
▁Hük	-6415
▁Anne	-6416
MS	-6417
▁mahk	-6418
▁yansıt	-6419
▁Öner	-6420
ole	-6421
▁Mek	-6422
▁İdar	-6423
▁Havalim	-6424
▁Kırıkkale	-6425
esef	-6426
▁may	-6427
amadı	-6428
▁yorumları	-6429
edisi	-6430
▁işbu	-6431
▁Kartal	-6432
▁günümüz	-6433
mraniye	-6434
uldu	-6435
▁MAD	-6436
ıyordu	-6437
ebilmektedir	-6438
ediğim	-6439
▁ayn	-6440
▁düğ	-6441
mad	-6442
▁küt	-6443
▁alımı	-6444
oot	-6445
ebet	-6446
▁kadınların	-6447
▁bö	-6448
▁milli	-6449
kim	-6450
▁Soğ	-6451
meyin	-6452
▁ces	-6453
▁sorunun	-6454
▁Model	-6455
▁Fran	-6456
ena	-6457
▁modeli	-6458
malarını	-6459
email	-6460
▁oyunc	-6461
üminyum	-6462
▁Ateş	-6463
▁Previous	-6464
▁Edebiyat	-6465
▁tarayıc	-6466
ağını	-6467
▁Giyim	-6468
azz	-6469
▁istey	-6470
▁Tanıt	-6471
ansız	-6472
▁Yapı	-6473
unction	-6474
enkul	-6475
ordin	-6476
▁vad	-6477
▁deng	-6478
▁AÇ	-6479
▁Formu	-6480
▁öt	-6481
▁alakalı	-6482
▁Dig	-6483
ıyım	-6484
▁Öncelikle	-6485
amuk	-6486
▁Yay	-6487
▁ref	-6488
▁Recep	-6489
▁Muş	-6490
lâm	-6491
uşu	-6492
▁kelime	-6493
▁yetenek	-6494
AMAN	-6495
▁ekibi	-6496
▁sonuna	-6497
▁Karabük	-6498
▁tepki	-6499
▁İsp	-6500
▁Birçok	-6501
▁etkileş	-6502
▁sağlığı	-6503
▁Kaliteli	-6504
▁Sıcak	-6505
▁dek	-6506
▁belge	-6507
▁soruştur	-6508
▁Topluluk	-6509
elerimiz	-6510
▁maddi	-6511
▁Cinsel	-6512
imd	-6513
▁tarifi	-6514
▁kamer	-6515
▁panel	-6516
ibe	-6517
▁sarı	-6518
leyman	-6519
▁Şampiyon	-6520
▁İzle	-6521
tiler	-6522
▁haberlerin	-6523
▁Slot	-6524
▁Hafta	-6525
▁Kahramanmaraş	-6526
▁hır	-6527
▁Fazla	-6528
ÜY	-6529
▁ihlal	-6530
oper	-6531
▁bilinç	-6532
▁teslimat	-6533
▁Özgür	-6534
▁verme	-6535
▁virüs	-6536
▁yöntemleri	-6537
▁dava	-6538
▁tasarruf	-6539
▁askeri	-6540
odu	-6541
▁faydalı	-6542
▁YIL	-6543
▁Ya	-6544
▁Bayburt	-6545
▁çalışmak	-6546
hp	-6547
daroğlu	-6548
▁arka	-6549
▁Azer	-6550
▁Gıda	-6551
otos	-6552
lerinize	-6553
▁namaz	-6554
▁okuma	-6555
INA	-6556
mesinin	-6557
▁Ant	-6558
▁etkilen	-6559
▁eksiksiz	-6560
▁bölümünde	-6561
▁Def	-6562
▁kaps	-6563
▁kapsamlı	-6564
▁HABERLER	-6565
▁bitk	-6566
▁sürüm	-6567
▁suretiyle	-6568
▁Görüş	-6569
ikây	-6570
▁edilmiştir	-6571
▁ves	-6572
▁metal	-6573
uda	-6574
ilde	-6575
▁fant	-6576
▁Yıldır	-6577
ât	-6578
▁Kırşehir	-6579
▁misiniz	-6580
yeni	-6581
▁Mik	-6582
▁Siyah	-6583
▁gecik	-6584
▁muhat	-6585
mis	-6586
ileş	-6587
yalı	-6588
cess	-6589
▁oda	-6590
melik	-6591
press	-6592
▁Yasal	-6593
ong	-6594
isindeki	-6595
▁kapan	-6596
Yİ	-6597
bek	-6598
▁Kadınlar	-6599
rat	-6600
tıcı	-6601
▁devre	-6602
▁tören	-6603
lanabilir	-6604
İNE	-6605
▁Vol	-6606
▁Veren	-6607
İTRA	-6608
▁Ayr	-6609
▁orijinal	-6610
IP	-6611
ığında	-6612
▁Osmaniye	-6613
baycan	-6614
▁Tor	-6615
▁değerlendirme	-6616
enn	-6617
▁harit	-6618
▁Sizin	-6619
▁protected	-6620
ANLI	-6621
▁tutk	-6622
▁fık	-6623
▁AV	-6624
▁Kırklareli	-6625
dukları	-6626
yip	-6627
ünye	-6628
▁Gelen	-6629
▁teşvik	-6630
▁belirtti	-6631
▁itibariyle	-6632
▁Teşekkür	-6633
▁edebil	-6634
▁Edin	-6635
▁Etk	-6636
mr	-6637
▁siyaset	-6638
▁uygulamalar	-6639
▁günümüzde	-6640
▁olacağını	-6641
üfür	-6642
▁yetiş	-6643
??	-6644
▁Şifr	-6645
pro	-6646
▁açıdan	-6647
▁bedava	-6648
▁üretimi	-6649
▁Sarı	-6650
▁yönerg	-6651
▁Fransız	-6652
▁—	-6653
ized	-6654
▁ideal	-6655
▁Ceza	-6656
▁maddesi	-6657
▁insanlara	-6658
▁içerir	-6659
▁diyet	-6660
undaki	-6661
İKA	-6662
▁Profesyonel	-6663
isiz	-6664
▁İnşaat	-6665
":	-6666
▁işlenm	-6667
▁göstermektedir	-6668
je	-6669
▁Ortak	-6670
▁açmak	-6671
▁iken	-6672
▁icin	-6673
▁bahsed	-6674
liye	-6675
▁Unut	-6676
▁Önce	-6677
▁Karşıl	-6678
▁inc	-6679
▁masa	-6680
▁rahatlıkla	-6681
▁işin	-6682
amızda	-6683
kur	-6684
▁ır	-6685
▁Hot	-6686
▁mağdur	-6687
▁TB	-6688
▁ambalaj	-6689
▁Paşa	-6690
▁öğrenmek	-6691
▁limit	-6692
▁nefes	-6693
ipl	-6694
EST	-6695
▁Yarış	-6696
▁Tavs	-6697
▁elbette	-6698
▁info	-6699
adeniz	-6700
leki	-6701
▁Sanal	-6702
▁şaşır	-6703
▁şiir	-6704
▁mün	-6705
▁doğrul	-6706
itif	-6707
▁olduğum	-6708
▁lis	-6709
▁incelen	-6710
▁gereklidir	-6711
▁niyet	-6712
▁Ur	-6713
▁AT	-6714
▁yarg	-6715
▁AS	-6716
stra	-6717
amanız	-6718
▁hazırlık	-6719
▁karşılan	-6720
lüğe	-6721
▁beklem	-6722
▁DEĞ	-6723
übü	-6724
▁olmam	-6725
▁Başar	-6726
▁olduğunda	-6727
lardı	-6728
▁set	-6729
▁alındı	-6730
▁Ardahan	-6731
▁Geliştir	-6732
▁edilecek	-6733
▁yaklaşım	-6734
▁taşıyan	-6735
▁KAD	-6736
▁belirterek	-6737
▁olmadığ	-6738
▁zeytin	-6739
▁Taksit	-6740
▁araştırmalar	-6741
▁Panel	-6742
ÖZ	-6743
▁sermay	-6744
▁Görev	-6745
able	-6746
mes	-6747
▁keyf	-6748
▁Muht	-6749
▁sağlayıcı	-6750
kel	-6751
▁sunuyoruz	-6752
▁edec	-6753
▁izmir	-6754
▁Çor	-6755
.’	-6756
▁geçici	-6757
ood	-6758
▁aşı	-6759
▁Networkdry	-6760
ino	-6761
âhil	-6762
▁muhaf	-6763
anak	-6764
simum	-6765
▁OR	-6766
▁süredir	-6767
arch	-6768
▁köş	-6769
▁araba	-6770
EHİR	-6771
▁Gümüşhane	-6772
▁Gençlik	-6773
ÖR	-6774
▁Dam	-6775
▁beslenme	-6776
▁Euro	-6777
▁kıya	-6778
imum	-6779
▁ağz	-6780
▁Kampany	-6781
▁tarihinden	-6782
ibr	-6783
▁zir	-6784
▁birleştir	-6785
▁sağlayacak	-6786
▁şahıs	-6787
▁kayd	-6788
▁yasa	-6789
▁kampanya	-6790
▁maruz	-6791
▁Projesi	-6792
ürü	-6793
▁Dağ	-6794
lukla	-6795
▁Yöntem	-6796
َا	-6797
▁Namaz	-6798
abor	-6799
▁gök	-6800
▁Künye	-6801
▁Kuş	-6802
▁Madde	-6803
▁kapsamda	-6804
▁üm	-6805
▁finansal	-6806
▁Tamiri	-6807
▁tıklayarak	-6808
▁Feder	-6809
▁Mutfak	-6810
adıkları	-6811
lusu	-6812
DEM	-6813
▁Trend	-6814
val	-6815
▁mac	-6816
▁dilek	-6817
▁fak	-6818
▁Ayar	-6819
▁Kadar	-6820
OY	-6821
madığını	-6822
▁telefonu	-6823
▁Anahtar	-6824
▁çocukların	-6825
▁Yüksel	-6826
▁Kış	-6827
ıd	-6828
usuf	-6829
▁Kişi	-6830
▁Ucuz	-6831
▁Hareket	-6832
▁öğretim	-6833
▁verilmesi	-6834
ılmasını	-6835
▁TEKN	-6836
▁makam	-6837
tığınız	-6838
▁İt	-6839
▁gerektiği	-6840
▁iktidar	-6841
▁kara	-6842
▁Tunceli	-6843
:)	-6844
▁açma	-6845
▁cezası	-6846
▁Bedava	-6847
▁PAR	-6848
▁şarkı	-6849
▁ال	-6850
▁uyku	-6851
▁grubu	-6852
set	-6853
utlu	-6854
▁toplu	-6855
▁bizlere	-6856
▁Paket	-6857
OV	-6858
▁kıymet	-6859
▁düzeyde	-6860
ko	-6861
▁Naz	-6862
▁len	-6863
▁günün	-6864
HAN	-6865
ıyız	-6866
▁Görüntül	-6867
▁fonksiyon	-6868
yiz	-6869
▁işleri	-6870
▁ziyaretç	-6871
▁karşılaştır	-6872
▁Kodu	-6873
UP	-6874
arında	-6875
ebelik	-6876
▁Ekran	-6877
üzdan	-6878
▁Süleyman	-6879
▁Del	-6880
▁avukat	-6881
▁Teklif	-6882
AÇ	-6883
emizi	-6884
▁YouTube	-6885
▁bölge	-6886
▁endüstr	-6887
▁diyen	-6888
▁böylece	-6889
▁ekipman	-6890
İş	-6891
▁tarihleri	-6892
▁üniversite	-6893
mini	-6894
weet	-6895
▁klasik	-6896
▁Belediy	-6897
▁Alın	-6898
▁sanayi	-6899
▁terk	-6900
▁bask	-6901
urk	-6902
▁bölgede	-6903
▁aram	-6904
▁Amerikan	-6905
yazılı	-6906
▁birinin	-6907
▁BUR	-6908
▁Gec	-6909
TÜ	-6910
▁Qu	-6911
▁istediği	-6912
▁getirmek	-6913
▁bahç	-6914
▁İtalya	-6915
▁yapıyoruz	-6916
▁açılış	-6917
ÖL	-6918
▁üyeleri	-6919
ükle	-6920
▁koc	-6921
▁istik	-6922
▁aran	-6923
fik	-6924
▁Bi	-6925
▁Linked	-6926
utin	-6927
▁düzgün	-6928
▁Ph	-6929
▁Dok	-6930
▁Pek	-6931
▁betsat	-6932
▁kahve	-6933
üks	-6934
SAN	-6935
▁Yum	-6936
imle	-6937
▁öncelik	-6938
ular	-6939
▁İht	-6940
▁otobüs	-6941
▁deprem	-6942
▁porn	-6943
öş	-6944
▁kere	-6945
▁aldığınız	-6946
endirme	-6947
▁etkiley	-6948
▁fırsatı	-6949
aport	-6950
anık	-6951
▁Koruma	-6952
▁günden	-6953
BB	-6954
demi	-6955
umhur	-6956
▁bileş	-6957
▁açılan	-6958
▁temas	-6959
▁bence	-6960
▁söylüyor	-6961
▁sonuçlar	-6962
▁}}	-6963
urta	-6964
öğretim	-6965
ors	-6966
▁ada	-6967
▁girdi	-6968
▁Ken	-6969
▁evet	-6970
cık	-6971
htt	-6972
▁Kanal	-6973
▁verileriniz	-6974
ştur	-6975
▁olmayı	-6976
▁Hakkı	-6977
tinue	-6978
▁By	-6979
▁sanatçı	-6980
▁Vüc	-6981
▁kendilerini	-6982
▁mutluluk	-6983
▁hattı	-6984
▁keşf	-6985
▁Proje	-6986
▁Kılıçdaroğlu	-6987
▁hatt	-6988
▁Hüseyin	-6989
df	-6990
▁comment	-6991
El	-6992
▁İsrail	-6993
▁maçı	-6994
▁kullanılarak	-6995
▁Halı	-6996
aşı	-6997
▁istiyoruz	-6998
▁Haft	-6999
masıyla	-7000
▁yükümlülük	-7001
▁güne	-7002
▁Tatlı	-7003
▁odaklı	-7004
▁geleceğ	-7005
UB	-7006
▁referans	-7007
▁çağr	-7008
▁Herhangi	-7009
▁alanlarda	-7010
led	-7011
umb	-7012
amam	-7013
▁seven	-7014
▁gelişmiş	-7015
▁hesabı	-7016
erin	-7017
▁kaşığı	-7018
▁Yıldırım	-7019
▁olası	-7020
▁Günümüzde	-7021
▁Sim	-7022
▁Klima	-7023
indistan	-7024
▁kazanmak	-7025
▁Col	-7026
▁ilginç	-7027
▁bilgilere	-7028
▁anket	-7029
▁kaçak	-7030
▁modül	-7031
▁buton	-7032
▁sertifik	-7033
▁görür	-7034
▁bakımı	-7035
▁mühendis	-7036
▁dâhil	-7037
▁kiralama	-7038
▁kurulum	-7039
GE	-7040
▁TC	-7041
unuzla	-7042
▁izleme	-7043
act	-7044
▁Afrika	-7045
▁miktarda	-7046
▁başlamış	-7047
▁listesi	-7048
ILI	-7049
öly	-7050
▁Lens	-7051
▁ayrıntı	-7052
▁korunması	-7053
▁Evde	-7054
▁Tayyip	-7055
ebileceğiniz	-7056
so	-7057
leşti	-7058
▁Beylikdüzü	-7059
▁fabrik	-7060
▁önde	-7061
▁bağlam	-7062
▁getirdi	-7063
▁Bölge	-7064
▁Kanunun	-7065
▁bulunmak	-7066
▁Seri	-7067
▁hekim	-7068
▁May	-7069
▁projesi	-7070
▁dikkatli	-7071
▁Yerel	-7072
▁iklim	-7073
▁Alanya	-7074
dış	-7075
▁İşleri	-7076
muyor	-7077
▁Yunanistan	-7078
▁Onun	-7079
▁kağıt	-7080
▁görünüyor	-7081
mişti	-7082
................	-7083
ula	-7084
orld	-7085
▁sunduğu	-7086
▁Öğrenci	-7087
▁kalır	-7088
▁sakin	-7089
ımlı	-7090
▁birliği	-7091
▁kadının	-7092
▁ec	-7093
▁Duvar	-7094
▁rekabet	-7095
iyorsanız	-7096
▁Burcu	-7097
âm	-7098
▁boyu	-7099
▁GİR	-7100
▁Mis	-7101
ümüzdeki	-7102
▁Mor	-7103
▁yur	-7104
▁masraf	-7105
▁Suç	-7106
▁Gazi	-7107
▁şehr	-7108
▁muhtem	-7109
▁verim	-7110
rice	-7111
elal	-7112
ookie	-7113
▁GÖR	-7114
▁derecede	-7115
▁Şen	-7116
▁insanı	-7117
▁aley	-7118
▁çeş	-7119
errahi	-7120
▁Medyum	-7121
▁restor	-7122
▁şehit	-7123
html	-7124
▁Puan	-7125
▁Kadıköy	-7126
▁Boş	-7127
▁masaj	-7128
has	-7129
="	-7130
▁GEN	-7131
▁Pendik	-7132
▁akış	-7133
inizden	-7134
▁Temizlik	-7135
▁Vakfı	-7136
ULLAN	-7137
▁Masa	-7138
▁demiş	-7139
▁nas	-7140
▁Ünlü	-7141
▁Est	-7142
▁katılan	-7143
▁bireysel	-7144
▁edildiği	-7145
diven	-7146
▁Cilt	-7147
▁Test	-7148
DF	-7149
elle	-7150
▁muay	-7151
▁formu	-7152
▁PRO	-7153
▁muhal	-7154
▁Makinesi	-7155
▁AP	-7156
▁MADDE	-7157
▁numaralı	-7158
▁Sağlığı	-7159
▁vize	-7160
▁sürecinde	-7161
iyeli	-7162
▁Ligi	-7163
inç	-7164
onsor	-7165
▁başlangıç	-7166
▁Pay	-7167
▁etmez	-7168
▁bro	-7169
▁yıllardır	-7170
▁ALICI	-7171
▁bayram	-7172
avor	-7173
▁yal	-7174
▁İLE	-7175
▁bütç	-7176
▁ettim	-7177
▁ilçe	-7178
▁dolandır	-7179
▁yaşlı	-7180
▁Şahin	-7181
▁ağırlık	-7182
▁süren	-7183
▁temsilc	-7184
▁tablet	-7185
▁Ölç	-7186
▁Olarak	-7187
▁düştü	-7188
▁içerikleri	-7189
▁Tercih	-7190
▁mali	-7191
▁yazılımı	-7192
▁dönemi	-7193
mat	-7194
▁taban	-7195
▁veril	-7196
lav	-7197
▁Birleşik	-7198
▁''	-7199
▁üretilen	-7200
▁Emre	-7201
eck	-7202
▁ED	-7203
▁göndermek	-7204
▁Üyesi	-7205
▁Kuv	-7206
▁izlem	-7207
▁metre	-7208
▁hali	-7209
▁evlilik	-7210
▁öncesinde	-7211
▁Hedef	-7212
nün	-7213
▁Trav	-7214
▁eklem	-7215
▁Tarifi	-7216
ACAK	-7217
▁işçi	-7218
lass	-7219
▁lok	-7220
GS	-7221
▁tamamı	-7222
▁Metal	-7223
▁Tüket	-7224
itle	-7225
▁Caddesi	-7226
ilmelidir	-7227
▁hücr	-7228
▁Okum	-7229
▁hanım	-7230
▁Oto	-7231
▁bugüne	-7232
İNİZ	-7233
▁yarı	-7234
▁konfor	-7235
▁Ban	-7236
▁konularda	-7237
▁Bölümü	-7238
▁Süt	-7239
▁MÜ	-7240
▁Makal	-7241
▁müdahale	-7242
▁Düşün	-7243
▁filmleri	-7244
▁SS	-7245
▁Festivali	-7246
alesef	-7247
▁Sunu	-7248
iyordu	-7249
larımı	-7250
▁Uç	-7251
▁Zeytin	-7252
cin	-7253
▁çatı	-7254
▁değişken	-7255
▁dağı	-7256
▁İddaa	-7257
▁yaşadığı	-7258
▁donanım	-7259
▁YENİ	-7260
▁sizinle	-7261
▁yorumlardan	-7262
ılma	-7263
ostan	-7264
▁anlamak	-7265
AST	-7266
▁içerikler	-7267
▁idi	-7268
yo	-7269
▁olursunuz	-7270
uyum	-7271
▁Havalimanı	-7272
________	-7273
lıca	-7274
do	-7275
▁Nit	-7276
▁olmaması	-7277
▁sembol	-7278
tiğini	-7279
▁şunları	-7280
▁tl	-7281
▁GE	-7282
▁arayan	-7283
▁oranında	-7284
▁Com	-7285
▁Akıllı	-7286
▁ithal	-7287
ohn	-7288
▁süreçte	-7289
mekten	-7290
▁tır	-7291
ategorized	-7292
▁İptal	-7293
▁olmanız	-7294
▁Git	-7295
usuz	-7296
eciler	-7297
▁kalitesi	-7298
bahar	-7299
▁mülk	-7300
▁Pazarlama	-7301
▁Teb	-7302
▁Hey	-7303
ferans	-7304
▁Tv	-7305
▁KAP	-7306
▁Azerbaycan	-7307
ıyorsanız	-7308
▁öğrenme	-7309
uanı	-7310
▁Sch	-7311
▁Lev	-7312
▁depo	-7313
mu	-7314
alog	-7315
▁op	-7316
▁biçim	-7317
layabilirsiniz	-7318
▁hükümet	-7319
▁EV	-7320
▁satışı	-7321
▁nam	-7322
▁oranları	-7323
▁isteyenler	-7324
▁çağır	-7325
▁Kem	-7326
▁vek	-7327
▁Lond	-7328
▁kendinizi	-7329
GEL	-7330
tre	-7331
▁etmeyi	-7332
▁Mimar	-7333
▁potansiyel	-7334
GB	-7335
▁kimyasal	-7336
----------------	-7337
▁İlaç	-7338
▁Kartı	-7339
▁La	-7340
▁mekt	-7341
▁olgun	-7342
▁Log	-7343
▁mel	-7344
▁şarj	-7345
▁Bakır	-7346
▁Gay	-7347
▁sevk	-7348
▁More	-7349
▁Hayvan	-7350
öbet	-7351
▁prens	-7352
ance	-7353
▁Shop	-7354
▁Ağır	-7355
▁becer	-7356
▁Çevrim	-7357
rep	-7358
▁Oper	-7359
▁Konuş	-7360
▁ku	-7361
▁orman	-7362
▁sizlerle	-7363
uth	-7364
onun	-7365
▁Teslimat	-7366
lanmaz	-7367
▁gitti	-7368
▁posta	-7369
▁dayanıklı	-7370
▁Metin	-7371
▁sorular	-7372
▁Baz	-7373
▁koşulları	-7374
Or	-7375
▁şampiyon	-7376
▁alana	-7377
lendiği	-7378
▁Henüz	-7379
▁Adam	-7380
▁Başka	-7381
IY	-7382
üldü	-7383
İĞ	-7384
▁vererek	-7385
▁Pen	-7386
▁karşıya	-7387
▁Mısır	-7388
İLİR	-7389
▁ANK	-7390
çılık	-7391
üye	-7392
▁rız	-7393
▁hikaye	-7394
▁doz	-7395
▁eşyalar	-7396
▁umut	-7397
▁İslâm	-7398
▁yiyecek	-7399
ıyorsunuz	-7400
▁uygulanan	-7401
▁Cumhurbaşkan	-7402
oll	-7403
eryal	-7404
▁kamera	-7405
▁elb	-7406
▁BAY	-7407
▁ente	-7408
▁Karadeniz	-7409
üğü	-7410
tesi	-7411
▁mimar	-7412
madığ	-7413
▁düşüş	-7414
▁zorluk	-7415
lerken	-7416
▁şeyin	-7417
▁Apache	-7418
▁EL	-7419
▁Hüküm	-7420
▁ilanları	-7421
OD	-7422
▁bilen	-7423
▁yaptıkları	-7424
▁no	-7425
çın	-7426
▁İşbu	-7427
izesi	-7428
aborat	-7429
ym	-7430
▁üstü	-7431
▁Sorun	-7432
▁hapis	-7433
▁abon	-7434
▁üzeri	-7435
▁yapmaktadır	-7436
ÜLT	-7437
▁His	-7438
nuv	-7439
▁pah	-7440
habalar	-7441
▁geliştirmek	-7442
▁Kesin	-7443
▁grafik	-7444
▁yans	-7445
uncu	-7446
▁abone	-7447
▁bez	-7448
▁yaptığımız	-7449
atçı	-7450
▁fiyatlar	-7451
▁EĞ	-7452
ebilen	-7453
▁Dub	-7454
▁Yakın	-7455
▁Ekip	-7456
▁hocam	-7457
▁enfeksiyon	-7458
stil	-7459
▁başınıza	-7460
▁belediye	-7461
▁buluştur	-7462
▁Sorulan	-7463
obi	-7464
▁sevgil	-7465
zat	-7466
▁Tamir	-7467
▁Güncelleme	-7468
İLE	-7469
iğin	-7470
▁Demokr	-7471
▁Dönüş	-7472
▁hatalı	-7473
EP	-7474
İD	-7475
anyo	-7476
▁stok	-7477
▁turizm	-7478
▁ÜYE	-7479
layacak	-7480
▁Işık	-7481
üman	-7482
desi	-7483
▁Sitemize	-7484
iplom	-7485
▁mir	-7486
▁söyleyen	-7487
▁Lik	-7488
▁erkekler	-7489
▁değin	-7490
▁Orman	-7491
▁istatistik	-7492
azin	-7493
umuzu	-7494
▁Market	-7495
▁Mücad	-7496
▁Oyuncak	-7497
ayarak	-7498
ANS	-7499
▁İr	-7500
▁Air	-7501
omo	-7502
eğiyle	-7503
▁Doğan	-7504
▁Uzmanı	-7505
▁genişlet	-7506
▁yüzlerce	-7507
▁Alanlar	-7508
▁tor	-7509
▁klima	-7510
gn	-7511
▁rehber	-7512
▁hâl	-7513
▁coğraf	-7514
ımızdan	-7515
tisiz	-7516
▁edebiyat	-7517
▁amaçlarla	-7518
▁kaybı	-7519
işan	-7520
▁Mir	-7521
▁Ruh	-7522
▁kurallarına	-7523
larımızla	-7524
▁dalg	-7525
▁düşünce	-7526
▁Yazılan	-7527
tiğiniz	-7528
▁onaylan	-7529
▁acaba	-7530
▁Sayısı	-7531
▁yapmayı	-7532
▁seçimi	-7533
osk	-7534
gah	-7535
▁kültürel	-7536
▁sıvı	-7537
ışlı	-7538
imat	-7539
▁kavuş	-7540
İZMET	-7541
▁isterim	-7542
▁tabii	-7543
LAŞ	-7544
▁satışa	-7545
▁alınarak	-7546
enyurt	-7547
▁bulunması	-7548
Bur	-7549
▁ömür	-7550
ınızdan	-7551
▁miktarı	-7552
▁kullanın	-7553
▁ÖZEL	-7554
▁Enstit	-7555
abilirsin	-7556
▁Düğün	-7557
ann	-7558
▁Öğren	-7559
▁Modern	-7560
▁ayrıntılı	-7561
▁atık	-7562
▁dey	-7563
▁unutmayın	-7564
▁istis	-7565
▁This	-7566
endim	-7567
▁Rapor	-7568
▁AM	-7569
udak	-7570
▁ye	-7571
ems	-7572
▁çağrı	-7573
olik	-7574
▁karbon	-7575
emey	-7576
▁İYİ	-7577
ĞI	-7578
ji	-7579
▁kâ	-7580
▁özgü	-7581
gazi	-7582
ben	-7583
▁istif	-7584
▁Seyahat	-7585
▁değişimi	-7586
peri	-7587
▁ufak	-7588
▁Koz	-7589
▁Bür	-7590
▁Saf	-7591
ıldığında	-7592
illeri	-7593
▁gerektiğ	-7594
gül	-7595
▁Savaşı	-7596
amayacak	-7597
▁geleneksel	-7598
▁Yalnız	-7599
▁kutu	-7600
▁Prot	-7601
▁ÇOK	-7602
▁medy	-7603
▁barış	-7604
▁Uçak	-7605
▁anlamı	-7606
duğum	-7607
▁Eg	-7608
▁Buz	-7609
itir	-7610
irtib	-7611
▁araçları	-7612
artman	-7613
▁Kelim	-7614
▁ihtiyacınız	-7615
▁Hayır	-7616
▁zamanlar	-7617
▁okudum	-7618
lerindeki	-7619
Biz	-7620
▁çök	-7621
▁Dergisi	-7622
▁TÜ	-7623
▁tipi	-7624
▁Barış	-7625
▁Black	-7626
legal	-7627
▁Trafik	-7628
▁kolaylıkla	-7629
▁sayılır	-7630
▁bursa	-7631
▁market	-7632
▁İsim	-7633
dün	-7634
▁inceleme	-7635
▁sınırsız	-7636
▁uçuş	-7637
▁Geçmiş	-7638
isin	-7639
▁boya	-7640
▁duruma	-7641
▁Belg	-7642
▁Diyet	-7643
▁güzellik	-7644
▁Kod	-7645
▁bayanlar	-7646
unlu	-7647
▁müs	-7648
▁num	-7649
jen	-7650
ahil	-7651
▁görevi	-7652
.[	-7653
geldin	-7654
kap	-7655
▁ayrıc	-7656
▁irtib	-7657
ağına	-7658
Gün	-7659
İŞİM	-7660
okulu	-7661
şi	-7662
asıdır	-7663
▁Sokak	-7664
▁zamanında	-7665
▁Hac	-7666
▁yapılabilir	-7667
▁Cihaz	-7668
▁yüzünden	-7669
▁genelde	-7670
▁Continue	-7671
▁İSTANBUL	-7672
▁benimle	-7673
▁veriyoruz	-7674
▁yazık	-7675
▁kilomet	-7676
▁trend	-7677
▁yıkama	-7678
▁göl	-7679
▁gelip	-7680
▁alışkan	-7681
▁traf	-7682
▁Geçen	-7683
▁Günün	-7684
▁Yaklaş	-7685
▁Zaten	-7686
MAK	-7687
▁katılımcı	-7688
unç	-7689
İLER	-7690
▁Hakan	-7691
▁süper	-7692
edia	-7693
▁Pinterest	-7694
▁bazıları	-7695
box	-7696
▁aktarılan	-7697
▁yaptım	-7698
▁SAY	-7699
▁Üretim	-7700
▁görüşmeler	-7701
▁işt	-7702
▁pen	-7703
▁Yatırma	-7704
▁şekli	-7705
▁işbirliği	-7706
alanan	-7707
▁hayran	-7708
load	-7709
▁nem	-7710
▁poker	-7711
▁yazılar	-7712
▁sız	-7713
tüsü	-7714
ümrük	-7715
▁Irak	-7716
▁birer	-7717
OJ	-7718
▁etkiler	-7719
▁sizlerin	-7720
▁icra	-7721
çu	-7722
abilmeniz	-7723
▁istihdam	-7724
▁gür	-7725
▁Devamı	-7726
▁Bakımı	-7727
▁güncellem	-7728
▁İb	-7729
▁bağır	-7730
▁buyur	-7731
▁Uğur	-7732
▁PC	-7733
▁adresinizi	-7734
▁eşsiz	-7735
▁üyeler	-7736
▁bulunmamaktadır	-7737
ülür	-7738
▁Kaymak	-7739
▁Hır	-7740
ayacak	-7741
▁Max	-7742
▁Covid	-7743
elisiniz	-7744
▁fazlasını	-7745
▁Tags	-7746
▁Â	-7747
▁farkı	-7748
▁HİZMET	-7749
▁gereksin	-7750
▁saatleri	-7751
▁pencerede	-7752
▁yapıldığı	-7753
▁Başak	-7754
▁komisyon	-7755
▁süreli	-7756
lex	-7757
imizle	-7758
▁sağlanması	-7759
irleri	-7760
▁Arıza	-7761
atlı	-7762
▁Sitede	-7763
▁duyurdu	-7764
kal	-7765
▁Dal	-7766
▁düşündüğ	-7767
▁konular	-7768
▁zemin	-7769
▁birbirine	-7770
▁İlg	-7771
▁Ero	-7772
▁Yusuf	-7773
▁kullanıyoruz	-7774
egram	-7775
▁Kore	-7776
ember	-7777
▁Etkinlik	-7778
ART	-7779
▁ila	-7780
▁Di	-7781
▁KAL	-7782
▁Seçenekleri	-7783
▁Ge	-7784
▁fet	-7785
faf	-7786
▁Java	-7787
üphan	-7788
▁yayınlanacaktır	-7789
▁Fen	-7790
menizi	-7791
▁rakip	-7792
▁görüyor	-7793
▁imkân	-7794
▁başladığ	-7795
▁kurmak	-7796
▁hayırlı	-7797
▁Malt	-7798
▁ker	-7799
▁gerekse	-7800
▁şekliyle	-7801
ulmuş	-7802
▁eğit	-7803
▁adalet	-7804
leyebilir	-7805
▁ÇAL	-7806
▁bırakın	-7807
▁yatırımcı	-7808
▁İzin	-7809
▁çeşitleri	-7810
▁Yıkama	-7811
▁Sağlıklı	-7812
▁niteliğ	-7813
İHA	-7814
▁yör	-7815
▁mikro	-7816
▁denem	-7817
▁Bölgesi	-7818
▁Nil	-7819
▁ilave	-7820
lamalar	-7821
▁yah	-7822
categorized	-7823
▁uydu	-7824
▁Gol	-7825
pas	-7826
▁okumak	-7827
▁KİŞ	-7828
İYOR	-7829
▁vizyon	-7830
MEK	-7831
LÜ	-7832
▁Pil	-7833
gur	-7834
▁BİZ	-7835
▁DA	-7836
▁açıkça	-7837
stır	-7838
▁kişiyi	-7839
▁İsmail	-7840
▁MU	-7841
▁netic	-7842
▁talebi	-7843
▁Adım	-7844
▁gurur	-7845
▁Hollanda	-7846
▁şirketleri	-7847
▁Temsil	-7848
▁seviş	-7849
▁ömr	-7850
▁Bilişim	-7851
▁olabilecek	-7852
▁üstünde	-7853
▁yerlerde	-7854
▁Şikayet	-7855
arlı	-7856
▁felse	-7857
▁oyunun	-7858
▁Güvenli	-7859
OZ	-7860
▁Gerç	-7861
▁testi	-7862
▁estetik	-7863
▁yolcu	-7864
oks	-7865
▁korku	-7866
▁keşfet	-7867
▁kullanılamaz	-7868
unus	-7869
▁Ust	-7870
▁ant	-7871
tein	-7872
▁Etiket	-7873
melerin	-7874
giz	-7875
▁deneyimli	-7876
▁lig	-7877
▁Üz	-7878
cüme	-7879
▁Otelleri	-7880
▁üstleniyor	-7881
▁dan	-7882
▁tescil	-7883
▁izlemek	-7884
▁Alev	-7885
▁Düşük	-7886
▁Ataşehir	-7887
elli	-7888
▁Moda	-7889
▁kariyer	-7890
rimenkul	-7891
▁merhaba	-7892
▁Havale	-7893
▁Değiştir	-7894
▁Nak	-7895
itleri	-7896
▁bakır	-7897
▁iyice	-7898
▁kombi	-7899
▁GÜ	-7900
▁selam	-7901
▁başkanı	-7902
▁arasından	-7903
▁Acil	-7904
▁Bunların	-7905
▁işgal	-7906
▁durumlar	-7907
▁Amaç	-7908
AMA	-7909
▁Whatsapp	-7910
▁MHP	-7911
bas	-7912
iski	-7913
▁gönderilen	-7914
▁kanallarından	-7915
▁kitl	-7916
inizle	-7917
▁aracılığı	-7918
cma	-7919
▁kızı	-7920
duktan	-7921
▁devrim	-7922
▁John	-7923
▁sizden	-7924
▁bedeli	-7925
▁ziyaretçiler	-7926
▁Ail	-7927
tifak	-7928
▁kaybetti	-7929
NA	-7930
UY	-7931
irk	-7932
liy	-7933
▁Parça	-7934
▁olasıl	-7935
▁üstüne	-7936
▁Emniyet	-7937
çisi	-7938
▁bakın	-7939
▁ajan	-7940
▁ağız	-7941
II	-7942
▁that	-7943
tuğ	-7944
▁NAS	-7945
▁lik	-7946
ery	-7947
rand	-7948
▁Hip	-7949
▁Takımı	-7950
asayfa	-7951
▁çey	-7952
▁TOP	-7953
ışıklık	-7954
▁SAĞ	-7955
▁aktivit	-7956
▁hariç	-7957
▁pişir	-7958
ilendir	-7959
rist	-7960
▁malzemeleri	-7961
▁beyin	-7962
şu	-7963
▁müdahalesi	-7964
▁Oldu	-7965
▁seyir	-7966
▁aksesuar	-7967
▁yumuşak	-7968
esiniz	-7969
▁parmak	-7970
▁Star	-7971
bo	-7972
▁bı	-7973
▁Dönem	-7974
▁döviz	-7975
▁Alı	-7976
▁yolda	-7977
▁yakası	-7978
sey	-7979
▁Üniversite	-7980
▁İhlas	-7981
▁oluşturan	-7982
▁yüks	-7983
▁mekaniz	-7984
▁memur	-7985
▁KDV	-7986
▁İhbar	-7987
▁politikası	-7988
▁Sayılı	-7989
emeyen	-7990
▁OS	-7991
▁fazlası	-7992
▁yolunda	-7993
▁düğün	-7994
▁gündeme	-7995
lenerek	-7996
▁Tep	-7997
ETİ	-7998
ars	-7999
▁ayda	-8000
ojistik	-8001
▁plastik	-8002
▁Ardından	-8003
▁Nes	-8004
▁dür	-8005
mesiyle	-8006
amaktadır	-8007
İTİM	-8008
▁DEN	-8009
lamaları	-8010
▁sunuc	-8011
isim	-8012
▁Başkanımız	-8013
▁kullanımına	-8014
andar	-8015
▁İçeriğ	-8016
▁haklarına	-8017
oin	-8018
▁yürüyüş	-8019
▁muk	-8020
▁varsay	-8021
▁fel	-8022
▁Hil	-8023
▁kov	-8024
▁verilmektedir	-8025
▁Fiyatı	-8026
▁kaynaklı	-8027
yeri	-8028
▁sisteminin	-8029
▁Boğaz	-8030
▁oldum	-8031
ınd	-8032
Ad	-8033
▁Oturum	-8034
▁pozitif	-8035
tılar	-8036
▁Kurt	-8037
NE	-8038
ünnet	-8039
▁Kork	-8040
▁cons	-8041
▁Yakası	-8042
çısı	-8043
▁çözümler	-8044
▁Anka	-8045
▁format	-8046
▁Hastalıkları	-8047
▁Cad	-8048
ılmak	-8049
ıydı	-8050
▁saati	-8051
▁sorumluluğ	-8052
▁görebilirsiniz	-8053
▁Me	-8054
ALIK	-8055
▁adeta	-8056
▁geçtiğimiz	-8057
▁mür	-8058
▁öğrencilerin	-8059
▁Hediye	-8060
▁etmiştir	-8061
▁Ul	-8062
▁piece	-8063
▁Maltepe	-8064
▁dahilinde	-8065
▁--	-8066
▁krem	-8067
▁Dolar	-8068
▁Belgesi	-8069
ian	-8070
▁Bağlantı	-8071
▁sektörde	-8072
▁geçerlidir	-8073
ump	-8074
▁Analiz	-8075
ANKA	-8076
▁temizliği	-8077
▁oluşur	-8078
▁versiyon	-8079
SE	-8080
▁tüketic	-8081
▁tıbbi	-8082
▁Bahçeli	-8083
rosoft	-8084
▁ST	-8085
dayız	-8086
▁prosed	-8087
▁Dayan	-8088
fli	-8089
▁Köpek	-8090
▁email	-8091
▁Hindistan	-8092
▁GAL	-8093
▁vir	-8094
▁düzenleme	-8095
▁ifadelerini	-8096
▁Nec	-8097
ırlar	-8098
üzgar	-8099
▁başlıklı	-8100
▁Set	-8101
▁deri	-8102
▁hayatta	-8103
yol	-8104
▁Garanti	-8105
ced	-8106
ights	-8107
▁Ada	-8108
▁Eng	-8109
ohum	-8110
ilmeden	-8111
▁Key	-8112
▁çalışmalarını	-8113
▁meyve	-8114
▁taşımacılık	-8115
OĞLU	-8116
▁Aksi	-8117
▁tüketim	-8118
prü	-8119
▁kalem	-8120
uşturucu	-8121
▁egzersiz	-8122
▁BAK	-8123
masın	-8124
▁daima	-8125
▁esnaf	-8126
▁BM	-8127
▁dili	-8128
▁siteyi	-8129
▁Geniş	-8130
▁Kimdir	-8131
▁Sigorta	-8132
▁Ka	-8133
▁gelmesi	-8134
▁etiket	-8135
dere	-8136
▁köp	-8137
▁Oyuncu	-8138
▁manz	-8139
▁anti	-8140
▁kuzey	-8141
▁Üstelik	-8142
▁görüşme	-8143
▁cem	-8144
▁Keş	-8145
itler	-8146
▁görüntülen	-8147
▁bakan	-8148
▁yorumu	-8149
▁boyutu	-8150
tör	-8151
▁Sayı	-8152
diy	-8153
▁ÇALIŞ	-8154
ımdan	-8155
▁üyeliğ	-8156
▁yolculuk	-8157
Tüm	-8158
▁Gece	-8159
mos	-8160
vense	-8161
▁düşen	-8162
landığı	-8163
▁İLG	-8164
▁Kaya	-8165
duct	-8166
ulmaz	-8167
▁TBMM	-8168
▁vade	-8169
▁Kapısı	-8170
müştür	-8171
▁Zar	-8172
▁Poker	-8173
aze	-8174
lıyorum	-8175
▁harekete	-8176
▁sitemizi	-8177
imet	-8178
▁makale	-8179
▁kimdir	-8180
casino	-8181
▁ülkeler	-8182
▁kullandığı	-8183
▁Ümraniye	-8184
▁girin	-8185
▁Koc	-8186
▁tey	-8187
araj	-8188
▁Tanıtım	-8189
▁gaziantep	-8190
▁göstermek	-8191
giliz	-8192
▁eşi	-8193
istin	-8194
▁nakit	-8195
leyecek	-8196
▁Karşı	-8197
▁mesajı	-8198
▁petrol	-8199
▁hikayeleri	-8200
parator	-8201
▁Villa	-8202
IC	-8203
▁Yah	-8204
▁Çiz	-8205
lanmaktadır	-8206
tra	-8207
▁Ulu	-8208
ijyen	-8209
▁Beslenme	-8210
▁Bayramı	-8211
▁bardağı	-8212
▁şark	-8213
adığımız	-8214
▁hitap	-8215
▁hil	-8216
▁kimi	-8217
▁saklı	-8218
▁hayatına	-8219
▁MER	-8220
ıtma	-8221
▁YÖN	-8222
▁değişikliği	-8223
▁ch	-8224
▁türleri	-8225
mus	-8226
▁büyüme	-8227
▁Detaylar	-8228
▁Kalite	-8229
▁randevu	-8230
▁Anayasa	-8231
atın	-8232
▁Hanım	-8233
▁özellikler	-8234
akende	-8235
▁birleş	-8236
▁kullanıcının	-8237
▁denk	-8238
▁gayet	-8239
▁panosu	-8240
▁parlak	-8241
▁nitelikli	-8242
▁konuk	-8243
▁far	-8244
▁anlar	-8245
ademi	-8246
▁PKK	-8247
▁çim	-8248
▁olmuyor	-8249
▁maksimum	-8250
▁Doç	-8251
▁Bana	-8252
▁engelli	-8253
▁Reply	-8254
▁sevgi	-8255
▁katı	-8256
▁CN	-8257
▁br	-8258
Dev	-8259
▁koca	-8260
▁istedi	-8261
iplin	-8262
▁göğüs	-8263
▁plana	-8264
▁Kulübü	-8265
▁hurdası	-8266
▁Rabb	-8267
▁Share	-8268
LEŞ	-8269
ebileceği	-8270
AYA	-8271
▁vermekteyiz	-8272
otoru	-8273
▁kalmış	-8274
zle	-8275
leyip	-8276
▁materyal	-8277
▁anı	-8278
▁yapılandır	-8279
▁GD	-8280
▁Neler	-8281
▁Personel	-8282
▁Fi	-8283
alısınız	-8284
get	-8285
▁dini	-8286
altına	-8287
Script	-8288
▁Oluştur	-8289
▁Tim	-8290
▁aşama	-8291
▁mavi	-8292
▁bitki	-8293
▁kendimi	-8294
atlar	-8295
mesinde	-8296
▁Editör	-8297
▁kullanma	-8298
▁vasıtasıyla	-8299
ALE	-8300
▁sinir	-8301
▁Konut	-8302
axy	-8303
▁Hukuku	-8304
▁Karşılaştır	-8305
ial	-8306
ektörü	-8307
▁Aksesuar	-8308
▁mag	-8309
▁BEDA	-8310
▁Bos	-8311
▁kalb	-8312
ilerde	-8313
▁kıv	-8314
oşk	-8315
▁gidip	-8316
▁mevsim	-8317
▁karşımıza	-8318
▁ırk	-8319
▁EĞİTİM	-8320
üce	-8321
▁Galaxy	-8322
inda	-8323
▁Kuran	-8324
▁açıldı	-8325
▁blok	-8326
▁tavsiy	-8327
▁üstleniyorsunuz	-8328
Pro	-8329
▁göm	-8330
ısıyla	-8331
▁Kurban	-8332
▁elektrikli	-8333
abilme	-8334
▁yazma	-8335
▁Nerede	-8336
▁kullanıcılara	-8337
▁BEDAVA	-8338
▁sektörü	-8339
▁edilerek	-8340
▁İnan	-8341
▁katkıda	-8342
▁protokol	-8343
▁Parç	-8344
▁Nef	-8345
▁tanesi	-8346
YT	-8347
▁SATI	-8348
▁işlemlerini	-8349
cük	-8350
▁Baskı	-8351
yel	-8352
▁verebilir	-8353
▁sigorta	-8354
▁öneriler	-8355
▁sahipleri	-8356
▁kaydı	-8357
itasyon	-8358
▁almayı	-8359
▁muhatabı	-8360
anta	-8361
▁Dar	-8362
▁Savunma	-8363
▁danış	-8364
▁işletme	-8365
afe	-8366
ope	-8367
▁Digit	-8368
▁Anasayfa	-8369
▁etkileri	-8370
▁taşımak	-8371
▁Seçim	-8372
▁Erişim	-8373
▁com	-8374
▁kısmında	-8375
KİN	-8376
▁depolama	-8377
tren	-8378
ığını	-8379
▁teknolojik	-8380
▁Server	-8381
▁gayret	-8382
▁sub	-8383
TTP	-8384
▁makine	-8385
▁sıklıkla	-8386
omi	-8387
AG	-8388
abilirim	-8389
▁çekin	-8390
▁sonsuz	-8391
enizin	-8392
San	-8393
▁YAR	-8394
▁Erotik	-8395
▁ölü	-8396
▁alırken	-8397
▁çıkacak	-8398
▁ekonomi	-8399
▁gidiyor	-8400
▁hakkındaki	-8401
▁Elb	-8402
▁dizin	-8403
▁Olay	-8404
PSS	-8405
▁Uncategorized	-8406
epenk	-8407
▁ayakkabı	-8408
▁geliştirme	-8409
▁geçebilirsiniz	-8410
▁alması	-8411
▁özet	-8412
▁sanki	-8413
acılığı	-8414
iğe	-8415
▁Bo	-8416
▁Ep	-8417
orit	-8418
anların	-8419
▁UYARI	-8420
▁KULLAN	-8421
▁gitmek	-8422
▁vitamini	-8423
▁Mı	-8424
▁kg	-8425
ÜT	-8426
ding	-8427
soy	-8428
ağının	-8429
tıktan	-8430
▁hayv	-8431
▁Yargı	-8432
tum	-8433
RAM	-8434
▁Bulun	-8435
landırma	-8436
▁Şirketi	-8437
▁Sport	-8438
▁Meslek	-8439
▁ekipleri	-8440
▁rob	-8441
▁ekmek	-8442
Kİ	-8443
maların	-8444
▁beğeni	-8445
lini	-8446
İNDE	-8447
▁PO	-8448
ýr	-8449
ezen	-8450
▁ka	-8451
tıkları	-8452
mayacaktır	-8453
▁özgürlük	-8454
▁mevzuata	-8455
▁Uzak	-8456
▁çekir	-8457
▁olacağı	-8458
DHA	-8459
▁BAŞKAN	-8460
▁kabil	-8461
▁yapıp	-8462
Allah	-8463
▁kıyas	-8464
landırmak	-8465
tih	-8466
▁geçin	-8467
▁kablo	-8468
▁alb	-8469
pa	-8470
veni	-8471
banlı	-8472
sizin	-8473
▁izni	-8474
▁çalışmaya	-8475
▁severler	-8476
▁kişiselleştir	-8477
▁bağış	-8478
▁mini	-8479
▁lek	-8480
▁Dünyası	-8481
▁hip	-8482
▁Yönetmel	-8483
▁raporu	-8484
hy	-8485
▁Yatak	-8486
tuğu	-8487
▁başladım	-8488
GUL	-8489
lılığ	-8490
▁kargoya	-8491
▁kaynaklanan	-8492
▁bacak	-8493
▁Mant	-8494
▁Sabah	-8495
▁Dom	-8496
▁Kabul	-8497
’’	-8498
▁mens	-8499
akal	-8500
▁savunma	-8501
▁Polis	-8502
acağımız	-8503
▁Görüntü	-8504
elendir	-8505
▁Demirören	-8506
▁Yazıları	-8507
don	-8508
turk	-8509
▁yağı	-8510
▁oranda	-8511
ağında	-8512
iste	-8513
▁duruş	-8514
▁kullanıcıları	-8515
mon	-8516
mece	-8517
▁BONUSU	-8518
dımı	-8519
▁Kardeş	-8520
▁hediy	-8521
▁TES	-8522
▁gördük	-8523
▁Komisyonu	-8524
St	-8525
▁CE	-8526
anma	-8527
▁UR	-8528
▁başvurusu	-8529
▁Yükleniyor	-8530
▁Adalet	-8531
▁noktası	-8532
▁Kağıt	-8533
▁Aşağıdaki	-8534
▁Döv	-8535
▁yarın	-8536
▁SER	-8537
▁Mavi	-8538
▁Abdullah	-8539
▁Des	-8540
▁Yapan	-8541
▁çekti	-8542
▁Anonim	-8543
▁fırın	-8544
▁Yorumu	-8545
erse	-8546
▁evrak	-8547
▁sitelerinde	-8548
danı	-8549
▁kaybol	-8550
mara	-8551
▁adresini	-8552
▁ajanslar	-8553
css	-8554
▁istenen	-8555
ografi	-8556
▁İlç	-8557
▁başı	-8558
▁rahmet	-8559
ibet	-8560
ational	-8561
kas	-8562
▁delil	-8563
▁Tarafından	-8564
SİZ	-8565
▁Rum	-8566
▁gizlilik	-8567
▁dua	-8568
▁sırt	-8569
▁kazanma	-8570
▁ondan	-8571
▁altyapı	-8572
▁yorumunuzla	-8573
▁hizmetlerini	-8574
▁lezzet	-8575
▁trav	-8576
öylelikle	-8577
▁sunum	-8578
▁BEN	-8579
▁SU	-8580
▁iman	-8581
▁Öte	-8582
▁Dost	-8583
▁Anlat	-8584
▁kazandı	-8585
Son	-8586
▁Onay	-8587
OLOJ	-8588
▁kayde	-8589
▁TEM	-8590
▁Zek	-8591
küdar	-8592
▁salg	-8593
Bil	-8594
▁yapması	-8595
durma	-8596
▁eseri	-8597
▁gelmiştir	-8598
örek	-8599
▁olağan	-8600
▁kahraman	-8601
▁tutan	-8602
▁yönde	-8603
▁Sezon	-8604
eceğimiz	-8605
▁sk	-8606
▁data	-8607
▁İf	-8608
▁HTTP	-8609
▁BUL	-8610
▁GER	-8611
▁yönel	-8612
▁York	-8613
▁Kitabı	-8614
Her	-8615
▁Müşteriler	-8616
▁HOŞ	-8617
▁aşkın	-8618
▁haric	-8619
▁İhtiy	-8620
▁bilgilerinizi	-8621
ode	-8622
ilerden	-8623
İNİ	-8624
şı	-8625
▁komut	-8626
▁açıklandı	-8627
▁Londra	-8628
▁oynat	-8629
mediği	-8630
▁..	-8631
▁kaplama	-8632
▁Selam	-8633
▁Anlaş	-8634
▁yapılıyor	-8635
▁Köyü	-8636
▁hayatın	-8637
▁gram	-8638
▁Öğretim	-8639
▁karm	-8640
▁Views	-8641
▁ALT	-8642
▁Super	-8643
▁fuar	-8644
▁YAZI	-8645
▁İlkeleri	-8646
▁Müzesi	-8647
▁Anket	-8648
Baş	-8649
▁sıkı	-8650
ostancı	-8651
▁kızlar	-8652
▁Çilingir	-8653
▁Haritası	-8654
▁asgari	-8655
âl	-8656
▁gerçekleşen	-8657
▁rej	-8658
▁Zira	-8659
▁oğlu	-8660
▁bilet	-8661
▁Lin	-8662
▁kopyalan	-8663
▁Kum	-8664
▁ÜRÜN	-8665
patika	-8666
▁Güvenliği	-8667
▁geril	-8668
▁sürdürülebilir	-8669
▁çö	-8670
ADI	-8671
ısal	-8672
DIN	-8673
slan	-8674
yat	-8675
▁olmaları	-8676
▁psikolojik	-8677
▁müşterilerimize	-8678
▁yoğ	-8679
▁denir	-8680
▁kek	-8681
▁açın	-8682
▁belediy	-8683
▁elinde	-8684
▁nüfus	-8685
ULAR	-8686
cılığ	-8687
▁Değerlendir	-8688
melidir	-8689
▁yanına	-8690
▁ikram	-8691
▁arzu	-8692
▁güz	-8693
▁kesintisiz	-8694
▁meyv	-8695
▁Dekorasyon	-8696
▁Dağı	-8697
▁sürücü	-8698
▁Reading	-8699
▁aydınlatma	-8700
iyorsunuz	-8701
dun	-8702
▁BİLGİ	-8703
▁boşal	-8704
▁yasaktır	-8705
▁Yılı	-8706
▁alanına	-8707
çelik	-8708
▁Stratej	-8709
▁durumun	-8710
▁aşamasında	-8711
▁My	-8712
▁Seo	-8713
▁Vergi	-8714
▁Nor	-8715
▁ÜN	-8716
▁Lat	-8717
ılış	-8718
▁ahşap	-8719
▁olmanın	-8720
▁gösterdi	-8721
▁Telif	-8722
▁çocuğun	-8723
Tek	-8724
▁bulam	-8725
▁kontrolü	-8726
▁hesabınıza	-8727
erif	-8728
▁JavaScript	-8729
▁Gelin	-8730
▁Ulaşın	-8731
eld	-8732
▁yağmur	-8733
▁tespiti	-8734
▁söylemek	-8735
meyecek	-8736
▁bors	-8737
▁konuşan	-8738
▁aldık	-8739
▁Fin	-8740
▁Malzemeleri	-8741
▁We	-8742
▁kullanıma	-8743
▁Gelir	-8744
▁onarım	-8745
▁DÜN	-8746
lediğiniz	-8747
ste	-8748
▁Ülke	-8749
▁verilerinizin	-8750
TİR	-8751
▁YAŞ	-8752
▁devreye	-8753
enpatika	-8754
GO	-8755
▁Yeri	-8756
▁alkol	-8757
liyoruz	-8758
".	-8759
▁Üzerine	-8760
▁tazminat	-8761
▁editörlerinin	-8762
adışı	-8763
▁Emir	-8764
▁Filmler	-8765
▁partner	-8766
▁Telegram	-8767
▁ziy	-8768
▁Yerli	-8769
▁Kel	-8770
▁Normal	-8771
▁Pi	-8772
elerek	-8773
igo	-8774
▁beklenen	-8775
▁sitelerinin	-8776
▁tuş	-8777
▁önemi	-8778
Bet	-8779
MASI	-8780
▁kaydetti	-8781
▁Kahv	-8782
▁teor	-8783
▁yitir	-8784
▁İnstagram	-8785
▁Vivense	-8786
▁yürürlüğe	-8787
▁olduklarını	-8788
ığa	-8789
▁iyileş	-8790
BA	-8791
▁Sıkça	-8792
▁kalıp	-8793
liğiyle	-8794
▁vermeden	-8795
ılama	-8796
▁kazanan	-8797
▁yapabilmek	-8798
▁mahall	-8799
▁belirtmek	-8800
sion	-8801
▁konuşma	-8802
▁hakkına	-8803
▁takımı	-8804
TAL	-8805
▁makyaj	-8806
▁zincir	-8807
▁yaptığınız	-8808
▁Çocuklar	-8809
ota	-8810
▁Bayrak	-8811
▁Tik	-8812
ilelik	-8813
▁medyada	-8814
▁Fuarı	-8815
▁Otomatik	-8816
▁şirketin	-8817
▁işyer	-8818
▁rezervasyon	-8819
▁falan	-8820
▁geçerek	-8821
İF	-8822
abrika	-8823
ical	-8824
▁Sözleşme	-8825
▁vel	-8826
uel	-8827
▁olmadı	-8828
▁sa	-8829
gele	-8830
▁Yolu	-8831
▁Yavuz	-8832
İC	-8833
▁vadeli	-8834
▁şimd	-8835
▁mol	-8836
▁fıkr	-8837
ms	-8838
▁SATICI	-8839
▁Meclisi	-8840
▁muhafaza	-8841
▁çevrim	-8842
▁beton	-8843
▁muhab	-8844
▁Çekme	-8845
priz	-8846
▁şikay	-8847
▁Bonuslar	-8848
▁nih	-8849
▁Paris	-8850
▁Özlem	-8851
▁periy	-8852
▁Tiyatro	-8853
▁sürüyor	-8854
▁çapında	-8855
▁asansör	-8856
▁yetişkin	-8857
ruk	-8858
▁yetersiz	-8859
▁Rel	-8860
▁Bets	-8861
ilemez	-8862
▁koruyucu	-8863
▁etken	-8864
eysel	-8865
▁bisiklet	-8866
lamaktadır	-8867
▁sabır	-8868
▁final	-8869
▁ısıtma	-8870
▁altındaki	-8871
▁dekorasyon	-8872
▁zahmet	-8873
▁faaliyetleri	-8874
▁ekstra	-8875
▁Televizyon	-8876
▁det	-8877
▁stat	-8878
▁Tanrı	-8879
▁doğur	-8880
▁dinamik	-8881
▁Söy	-8882
hine	-8883
▁Avukat	-8884
▁dilediğiniz	-8885
TIR	-8886
ebze	-8887
▁Tez	-8888
▁Danışmanlık	-8889
▁sep	-8890
▁Uyarı	-8891
king	-8892
unlar	-8893
▁sinema	-8894
▁Faydaları	-8895
▁Girişim	-8896
▁istedim	-8897
▁işlen	-8898
▁kullanımını	-8899
▁büyüy	-8900
CRET	-8901
culuk	-8902
ADE	-8903
▁‘’	-8904
azarı	-8905
▁tutmak	-8906
lılığı	-8907
eğinin	-8908
▁Katılım	-8909
▁Belki	-8910
▁Kerim	-8911
Hay	-8912
▁TÜM	-8913
▁maalesef	-8914
▁Şar	-8915
▁seviyede	-8916
▁kalmak	-8917
▁değiştirme	-8918
zi	-8919
▁gözük	-8920
alandır	-8921
cal	-8922
▁Kutu	-8923
lıyoruz	-8924
▁azından	-8925
▁Yetk	-8926
ecilik	-8927
ılamaz	-8928
▁giyim	-8929
losu	-8930
ANLAR	-8931
▁mor	-8932
rah	-8933
çileri	-8934
melerini	-8935
▁Özet	-8936
...”	-8937
metik	-8938
▁birine	-8939
▁geçirilip	-8940
▁Öyle	-8941
larken	-8942
▁Üs	-8943
▁zararlı	-8944
otosiklet	-8945
▁Otomobil	-8946
ebir	-8947
▁ödey	-8948
ited	-8949
menize	-8950
▁Takv	-8951
▁direkt	-8952
▁Onlar	-8953
▁döndür	-8954
flix	-8955
▁olmaktan	-8956
▁sayfasında	-8957
▁yazan	-8958
▁arttı	-8959
▁şeyleri	-8960
▁seviyorum	-8961
jinal	-8962
ılgın	-8963
▁bahisleri	-8964
ARK	-8965
▁piyasa	-8966
▁Hoşgeldin	-8967
▁Ameliyat	-8968
yet	-8969
▁markası	-8970
gini	-8971
ürken	-8972
eğinde	-8973
▁sevgili	-8974
VİTRA	-8975
▁moda	-8976
▁ajanstır	-8977
▁prim	-8978
▁yoktu	-8979
▁Alınır	-8980
▁Sevgili	-8981
▁tap	-8982
imini	-8983
▁danışmanlık	-8984
▁Genellikle	-8985
▁]	-8986
matik	-8987
▁inanılmaz	-8988
▁Fuar	-8989
▁gelec	-8990
koz	-8991
▁Için	-8992
ükleer	-8993
▁Bro	-8994
▁musunuz	-8995
ALARI	-8996
▁Konular	-8997
▁Merhabalar	-8998
▁kurban	-8999
ındalık	-9000
▁lambası	-9001
▁yıla	-9002
▁Açma	-9003
▁özgün	-9004
▁Şişli	-9005
▁yapay	-9006
▁Mahkemesi	-9007
▁VAR	-9008
▁Tabii	-9009
▁rengi	-9010
▁Değişim	-9011
yu	-9012
▁arasına	-9013
▁tarihine	-9014
▁sec	-9015
malarına	-9016
▁Kıl	-9017
▁Full	-9018
▁olamaz	-9019
ürr	-9020
▁Yur	-9021
tikten	-9022
AYI	-9023
▁anlatan	-9024
▁noktasında	-9025
▁boğ	-9026
▁editöryel	-9027
▁Taşıma	-9028
▁evr	-9029
▁hid	-9030
▁işletim	-9031
▁BÜY	-9032
▁vol	-9033
lanta	-9034
▁Sert	-9035
▁sön	-9036
web	-9037
oogle	-9038
▁som	-9039
▁Mini	-9040
▁olanı	-9041
▁Ltd	-9042
▁opt	-9043
▁Alımı	-9044
▁alınacak	-9045
▁kullanabilir	-9046
uluğu	-9047
DS	-9048
fil	-9049
abak	-9050
▁tatmin	-9051
ement	-9052
ua	-9053
▁bekleniyor	-9054
▁sayfası	-9055
▁damar	-9056
▁yaralı	-9057
▁cinsiyet	-9058
▁Kalp	-9059
▁Şehit	-9060
nav	-9061
tığım	-9062
▁seri	-9063
▁cezai	-9064
▁gerekç	-9065
▁olabil	-9066
AKİ	-9067
ezil	-9068
▁ÜCRET	-9069
▁Mail	-9070
▁kaza	-9071
▁İşlemleri	-9072
▁val	-9073
▁teklifi	-9074
▁İspanya	-9075
▁stres	-9076
▁Mobilya	-9077
cy	-9078
▁our	-9079
▁sanırım	-9080
▁Maltbahis	-9081
▁detayları	-9082
▁adıyla	-9083
▁Konak	-9084
▁göt	-9085
▁tec	-9086
▁inç	-9087
ektaş	-9088
▁Microsoft	-9089
SİTE	-9090
▁aksine	-9091
Gen	-9092
lanacak	-9093
▁yumurta	-9094
▁Çevr	-9095
▁Eser	-9096
▁baba	-9097
▁performan	-9098
▁yolları	-9099
PG	-9100
▁wh	-9101
▁GAZ	-9102
abalık	-9103
▁prosedür	-9104
▁horm	-9105
▁yedi	-9106
tral	-9107
eveyn	-9108
▁sağlanan	-9109
abi	-9110
que	-9111
▁Bilin	-9112
▁Mağaz	-9113
▁girişi	-9114
▁Ast	-9115
▁kapasit	-9116
▁Beğ	-9117
▁sözleri	-9118
▁Ras	-9119
yaspor	-9120
▁yaprak	-9121
ung	-9122
▁sens	-9123
▁odası	-9124
▁Siyaset	-9125
▁IS	-9126
▁açtı	-9127
poz	-9128
▁İnsanlar	-9129
▁sessiz	-9130
▁soruları	-9131
▁kriter	-9132
▁verdiğiniz	-9133
Çİ	-9134
▁TUR	-9135
psiyon	-9136
ımlar	-9137
▁şeye	-9138
▁Mücadele	-9139
▁zirv	-9140
▁Bazen	-9141
▁Selçuk	-9142
▁çamaşır	-9143
onspor	-9144
▁rahatsızlık	-9145
▁Borsa	-9146
▁değişiklikler	-9147
▁Alıntı	-9148
lerimi	-9149
count	-9150
▁konuyu	-9151
reat	-9152
▁Daire	-9153
ARET	-9154
▁Oran	-9155
▁başladık	-9156
▁aralarında	-9157
▁Çat	-9158
▁müh	-9159
▁büyüt	-9160
ergesi	-9161
▁Rehber	-9162
▁paketi	-9163
▁yav	-9164
iriz	-9165
▁Kimlik	-9166
CA	-9167
▁yargı	-9168
gmail	-9169
▁Eh	-9170
raft	-9171
ilerle	-9172
▁galib	-9173
▁dışına	-9174
▁Emin	-9175
▁Emlak	-9176
▁çıkmış	-9177
lý	-9178
▁Politika	-9179
▁keyfini	-9180
▁edeceğiz	-9181
▁yolculuğ	-9182
amıza	-9183
eceğine	-9184
eten	-9185
▁sitemizden	-9186
▁yazıları	-9187
ünüzü	-9188
▁aylarında	-9189
EŞ	-9190
▁delik	-9191
▁Yıllık	-9192
▁talimat	-9193
▁programları	-9194
raz	-9195
sever	-9196
antası	-9197
▁Elbette	-9198
▁sahipliği	-9199
▁hizmete	-9200
▁kullanıcılarına	-9201
▁Dışişleri	-9202
irinç	-9203
▁kimsenin	-9204
▁olmakla	-9205
▁gözaltına	-9206
sav	-9207
▁Kans	-9208
▁Bulgar	-9209
▁çekmek	-9210
▁civarında	-9211
▁Ekonomik	-9212
Av	-9213
▁yeten	-9214
melisiniz	-9215
▁çıkarmak	-9216
otal	-9217
▁ret	-9218
▁geçirmek	-9219
▁meydan	-9220
▁Birinci	-9221
ft	-9222
ATO	-9223
ukur	-9224
▁Bilgil	-9225
▁buldu	-9226
▁Plastik	-9227
▁hd	-9228
,...	-9229
▁İlginizi	-9230
▁esnek	-9231
▁HOŞGEL	-9232
▁Şefimiz	-9233
▁YAZAR	-9234
▁Yazarlar	-9235
yolu	-9236
▁Cor	-9237
kınma	-9238
▁tiyatro	-9239
▁Tedavisi	-9240
umuzun	-9241
▁düşünül	-9242
ouse	-9243
▁dostu	-9244
▁belgeler	-9245
▁olmasa	-9246
ucusu	-9247
▁eşliğinde	-9248
▁(“	-9249
▁HOŞGELDİN	-9250
▁Show	-9251
▁kısaca	-9252
lerdeki	-9253
▁sevg	-9254
▁Onur	-9255
▁tanıy	-9256
▁ihtimal	-9257
▁yılının	-9258
▁Bilimleri	-9259
▁desen	-9260
KS	-9261
▁Dekor	-9262
▁altını	-9263
▁Bol	-9264
▁Doğr	-9265
▁send	-9266
onomi	-9267
▁kenar	-9268
▁Fizik	-9269
▁sitesidir	-9270
▁Doğa	-9271
mazlık	-9272
▁tarzı	-9273
▁Sınırsız	-9274
lenmek	-9275
▁Lez	-9276
▁MP	-9277
brek	-9278
▁tesisat	-9279
SUN	-9280
▁Kullanıcılar	-9281
▁HDP	-9282
▁protest	-9283
ıtır	-9284
▁insana	-9285
▁kısmını	-9286
▁Mo	-9287
▁vah	-9288
çilik	-9289
▁Orhan	-9290
▁istedik	-9291
▁dışındaki	-9292
▁tac	-9293
viç	-9294
▁MS	-9295
tikleri	-9296
▁Fon	-9297
MEN	-9298
▁Nik	-9299
▁Lam	-9300
madık	-9301
▁bina	-9302
▁halka	-9303
▁festiv	-9304
▁Enstitüsü	-9305
▁DEVAM	-9306
espor	-9307
▁GDPR	-9308
▁Ayakkabı	-9309
▁News	-9310
▁hükümleri	-9311
▁anay	-9312
▁Sinema	-9313
▁alüminyum	-9314
Sİ	-9315
lası	-9316
▁UN	-9317
▁Çatı	-9318
türü	-9319
▁Girişi	-9320
▁raf	-9321
▁mesleğ	-9322
ındık	-9323
lub	-9324
▁Kurs	-9325
▁anlık	-9326
▁değişen	-9327
▁Başbakan	-9328
▁geldiğinde	-9329
sus	-9330
▁ÇEK	-9331
▁sayısını	-9332
▁müşterilerine	-9333
('	-9334
▁görüyoruz	-9335
▁eşlik	-9336
mil	-9337
▁vefat	-9338
▁Bayanlar	-9339
▁ALAN	-9340
adığım	-9341
itr	-9342
▁Bilgisi	-9343
▁DAK	-9344
▁Şube	-9345
▁hizmetlerin	-9346
▁Asansör	-9347
▁Alternatif	-9348
▁yapacağınız	-9349
cının	-9350
▁gıd	-9351
▁önlemek	-9352
▁sitelerine	-9353
▁satır	-9354
sis	-9355
▁şartlar	-9356
▁Hesab	-9357
▁sunulmaktadır	-9358
wser	-9359
ikmet	-9360
▁yukarıdaki	-9361
memesi	-9362
GK	-9363
▁sez	-9364
▁Gezi	-9365
▁Hizmetler	-9366
▁pop	-9367
▁kapısı	-9368
ign	-9369
tions	-9370
imasyon	-9371
▁cumhur	-9372
makla	-9373
▁görülür	-9374
▁Zeyn	-9375
▁ederler	-9376
jack	-9377
gut	-9378
ısın	-9379
oday	-9380
mektir	-9381
▁Sekret	-9382
eyse	-9383
▁açan	-9384
▁yapılmamış	-9385
▁İstik	-9386
▁yerleri	-9387
ocuğu	-9388
düğünü	-9389
▁sağladığı	-9390
▁uygulanır	-9391
▁HAY	-9392
▁Başlan	-9393
laştırma	-9394
ool	-9395
▁lideri	-9396
▁geçiyor	-9397
▁ettikleri	-9398
▁Mutlu	-9399
▁anonim	-9400
uzzle	-9401
▁VERİ	-9402
▁Coin	-9403
▁içinden	-9404
▁aydınlat	-9405
▁avantajlı	-9406
▁DOĞ	-9407
▁Elem	-9408
▁Araba	-9409
▁kırık	-9410
▁vitamin	-9411
▁yalı	-9412
ıldığını	-9413
▁sözleşmesi	-9414
▁peyn	-9415
▁İstatistik	-9416
▁Leave	-9417
▁yapmadan	-9418
▁bilgiyi	-9419
▁tavuk	-9420
▁gelince	-9421
▁örneği	-9422
▁çoğunlukla	-9423
▁Milyon	-9424
▁zamanlı	-9425
▁alanlarında	-9426
▁edilmesini	-9427
icisi	-9428
▁sayg	-9429
▁sisteme	-9430
▁cüzdan	-9431
▁etkinleştir	-9432
▁di	-9433
elin	-9434
▁çıkma	-9435
▁ortamında	-9436
▁adresinden	-9437
▁Dizi	-9438
▁mide	-9439
▁yakalan	-9440
▁Okun	-9441
▁cins	-9442
▁haklı	-9443
way	-9444
▁verdim	-9445
lî	-9446
▁Bül	-9447
▁basıl	-9448
▁oyuncak	-9449
▁Mevcut	-9450
▁Numarası	-9451
mamalıdır	-9452
▁maddeler	-9453
stri	-9454
▁fen	-9455
▁Ayak	-9456
▁Hoca	-9457
▁Anlam	-9458
▁günah	-9459
içi	-9460
▁projeler	-9461
▁Şer	-9462
▁biliyoruz	-9463
rağı	-9464
▁konser	-9465
▁izinsiz	-9466
yn	-9467
▁yazılmış	-9468
LED	-9469
lüğüne	-9470
eğince	-9471
▁titiz	-9472
ept	-9473
▁Yukarıda	-9474
▁kurulumu	-9475
ose	-9476
▁Yapımı	-9477
▁kullanıcıya	-9478
▁ısın	-9479
▁Sigortası	-9480
▁memnuniyeti	-9481
▁MED	-9482
▁sahte	-9483
▁Dairesi	-9484
▁işlemini	-9485
▁Power	-9486
ikolata	-9487
Ek	-9488
▁yaşama	-9489
▁lan	-9490
▁taraftar	-9491
cılığı	-9492
▁Da	-9493
▁SOR	-9494
▁araçlar	-9495
ayma	-9496
▁olunca	-9497
▁piyasaya	-9498
▁kemik	-9499
▁arayüz	-9500
▁Endüstr	-9501
▁uzaktan	-9502
▁Belirt	-9503
▁isteme	-9504
bilirsiniz	-9505
▁müst	-9506
▁benzersiz	-9507
▁dedik	-9508
▁girerek	-9509
▁gelişen	-9510
▁çizgi	-9511
▁cihazı	-9512
▁sıcaklık	-9513
▁Evlilik	-9514
▁ayet	-9515
▁gerektiren	-9516
ırt	-9517
▁KPSS	-9518
▁stan	-9519
▁sistemini	-9520
▁nez	-9521
▁Hiçbir	-9522
üpür	-9523
talama	-9524
▁lastik	-9525
▁imzal	-9526
▁topluluk	-9527
▁malzemeler	-9528
▁Lisesi	-9529
▁odaklan	-9530
▁Ahşap	-9531
▁Aylık	-9532
▁ANKARA	-9533
▁yazısı	-9534
Fil	-9535
▁Veg	-9536
ics	-9537
▁belirtt	-9538
uvarlak	-9539
▁emekli	-9540
dolabı	-9541
▁küç	-9542
▁kendinize	-9543
▁Performans	-9544
dıran	-9545
▁kişileri	-9546
▁bahar	-9547
▁Klasik	-9548
▁devletin	-9549
ustur	-9550
▁Sikiş	-9551
▁güney	-9552
▁dans	-9553
▁Casin	-9554
bit	-9555
▁dük	-9556
eleme	-9557
encere	-9558
▁Sahip	-9559
▁videoları	-9560
▁Talep	-9561
ZER	-9562
oley	-9563
▁ÖĞ	-9564
▁Master	-9565
▁Üsküdar	-9566
▁obj	-9567
▁mutf	-9568
▁oyuncular	-9569
▁attı	-9570
▁planı	-9571
▁’	-9572
mik	-9573
▁evren	-9574
▁boru	-9575
▁ON	-9576
▁AÇIK	-9577
▁yükseliş	-9578
endiği	-9579
▁fatura	-9580
▁yapılmıştır	-9581
▁bunlara	-9582
▁Hikaye	-9583
▁hukuka	-9584
ladığımız	-9585
▁sayfada	-9586
▁önümüzdeki	-9587
▁Akademi	-9588
larımızda	-9589
▁edilemez	-9590
▁SAT	-9591
▁darbe	-9592
▁halkın	-9593
▁YER	-9594
▁çaba	-9595
▁erotik	-9596
▁oluşum	-9597
▁eğlence	-9598
▁zamanla	-9599
▁tüy	-9600
▁ölçüm	-9601
▁yönünde	-9602
cm	-9603
▁plak	-9604
▁sektörünün	-9605
ekom	-9606
▁Felse	-9607
▁Ob	-9608
▁SÜR	-9609
▁riski	-9610
▁olacaksınız	-9611
▁DAH	-9612
▁Yeniden	-9613
▁doğa	-9614
ırlanta	-9615
▁metrek	-9616
▁karşılığında	-9617
ound	-9618
▁tadını	-9619
Ne	-9620
URUM	-9621
▁Eskort	-9622
▁Vatandaş	-9623
▁PDF	-9624
▁Sez	-9625
▁çocukları	-9626
▁çalışıyoruz	-9627
ayn	-9628
denin	-9629
▁İncele	-9630
▁Kong	-9631
ETÖ	-9632
▁LED	-9633
▁büyüsü	-9634
▁Kör	-9635
▁iadesi	-9636
▁başlayacak	-9637
▁OY	-9638
▁Kapat	-9639
▁oto	-9640
tikçe	-9641
▁İklim	-9642
▁gereğince	-9643
resyon	-9644
LİĞİ	-9645
▁anlamlı	-9646
▁sinem	-9647
ıcısı	-9648
▁Hasta	-9649
▁World	-9650
enizde	-9651
▁diplom	-9652
vi	-9653
▁Kurtul	-9654
▁taze	-9655
▁ahlak	-9656
▁ekledi	-9657
▁ateşli	-9658
▁gücünü	-9659
▁bakalım	-9660
olan	-9661
▁kör	-9662
▁Pa	-9663
▁kapak	-9664
avig	-9665
▁sözü	-9666
PA	-9667
ÜLTÜR	-9668
▁Oyunu	-9669
▁haftalık	-9670
eydi	-9671
▁Kaş	-9672
▁Gid	-9673
▁manevi	-9674
▁Kalem	-9675
▁geldiğini	-9676
▁Küresel	-9677
▁gibidir	-9678
▁Taşım	-9679
els	-9680
ağından	-9681
▁gerekirse	-9682
▁verilecek	-9683
▁halen	-9684
▁Trabzonspor	-9685
▁güncelleme	-9686
▁zihin	-9687
▁steroid	-9688
▁İlanlar	-9689
▁Eur	-9690
TİK	-9691
ule	-9692
▁Oda	-9693
▁kritik	-9694
ekti	-9695
▁Hocam	-9696
akip	-9697
▁Japonya	-9698
izli	-9699
unum	-9700
▁gerçekleşti	-9701
ition	-9702
▁Olur	-9703
▁Resim	-9704
▁dizisi	-9705
▁rekor	-9706
▁Turları	-9707
▁teknolojisi	-9708
▁و	-9709
isti	-9710
steri	-9711
▁oldug	-9712
▁Büyüsü	-9713
▁şifre	-9714
üel	-9715
▁Tavsiye	-9716
▁sistemine	-9717
istler	-9718
▁içeri	-9719
eyt	-9720
▁Abon	-9721
▁arayın	-9722
▁ettiler	-9723
▁lens	-9724
iliş	-9725
ras	-9726
une	-9727
▁Roma	-9728
▁gazete	-9729
tın	-9730
▁Pamuk	-9731
▁planda	-9732
▁dönemlerde	-9733
▁Makaleler	-9734
▁Alp	-9735
▁Fiyata	-9736
▁cennet	-9737
▁baştan	-9738
▁lüks	-9739
▁Çankaya	-9740
sw	-9741
Kur	-9742
▁geçmek	-9743
▁Federasyonu	-9744
▁Ven	-9745
lüğünü	-9746
▁Açıklaması	-9747
▁Olgun	-9748
▁konuları	-9749
▁olurken	-9750
ünür	-9751
▁URL	-9752
▁Mari	-9753
▁Sürekli	-9754
malara	-9755
▁Deney	-9756
▁GİRİŞ	-9757
▁Takipçi	-9758
▁TÜRKİYE	-9759
▁edilmelidir	-9760
▁imalat	-9761
uyucu	-9762
▁eleman	-9763
▁gelerek	-9764
tas	-9765
▁Öy	-9766
▁duyuru	-9767
▁türkçe	-9768
▁onwin	-9769
▁arayış	-9770
▁Faaliyet	-9771
▁firmaların	-9772
▁dekor	-9773
▁emniyet	-9774
▁amaçla	-9775
▁Oysa	-9776
▁şehrin	-9777
roup	-9778
▁Poli	-9779
▁yorgun	-9780
▁kendileri	-9781
▁ilişkileri	-9782
▁Tatil	-9783
ülasyon	-9784
▁evinde	-9785
▁Çeşitleri	-9786
▁kaynakları	-9787
▁amaçlar	-9788
▁hadis	-9789
▁krizi	-9790
AJ	-9791
▁almıştır	-9792
lerinizin	-9793
▁çilingir	-9794
▁DAKİKA	-9795
▁babası	-9796
▁Değerli	-9797
▁Toplant	-9798
▁twitter	-9799
Ak	-9800
——	-9801
YAL	-9802
▁Aday	-9803
▁çekiyor	-9804
▁Global	-9805
adın	-9806
▁İçi	-9807
çası	-9808
ildiğini	-9809
▁bizzat	-9810
▁günleri	-9811
▁AF	-9812
LERİMİZ	-9813
▁Sonuçları	-9814
▁Örgüt	-9815
▁dernek	-9816
▁HER	-9817
▁beyler	-9818
▁up	-9819
LARIN	-9820
▁KÜLTÜR	-9821
▁ikamet	-9822
▁karmaşık	-9823
▁istenilen	-9824
▁şehri	-9825
▁seçerek	-9826
▁pasaport	-9827
ustr	-9828
▁Ten	-9829
diklerini	-9830
▁BB	-9831
▁BÖL	-9832
▁getirir	-9833
▁degil	-9834
ndeki	-9835
talyan	-9836
▁evvel	-9837
RI	-9838
▁hükm	-9839
▁ihal	-9840
▁puro	-9841
▁döş	-9842
▁Getir	-9843
▁Tedavi	-9844
▁gördüm	-9845
▁işlenmesi	-9846
▁me	-9847
▁olmasıdır	-9848
dunuz	-9849
▁senary	-9850
▁akla	-9851
▁Netflix	-9852
▁Köşe	-9853
▁Posts	-9854
▁Tuzla	-9855
Com	-9856
yim	-9857
▁Nakliye	-9858
lip	-9859
▁Toy	-9860
▁Ticari	-9861
aköy	-9862
▁Çoğu	-9863
▁zamandır	-9864
lr	-9865
xbet	-9866
▁anlattı	-9867
▁Papara	-9868
▁Sub	-9869
▁birşey	-9870
ecekler	-9871
TS	-9872
▁Saray	-9873
lâh	-9874
▁uc	-9875
muştu	-9876
▁İc	-9877
▁görmüş	-9878
ual	-9879
▁KAN	-9880
▁tarafında	-9881
▁bilmiyorum	-9882
▁matematik	-9883
Kon	-9884
▁httpd	-9885
▁Marmara	-9886
▁sınırları	-9887
▁KOR	-9888
▁gor	-9889
▁kulüp	-9890
ıysanız	-9891
▁verdiğimiz	-9892
▁Bö	-9893
amıyorum	-9894
▁Fantezi	-9895
▁haklarını	-9896
eçi	-9897
▁uzmanı	-9898
▁Cey	-9899
▁yardımıyla	-9900
ahisar	-9901
▁Yüzük	-9902
▁Sitemizdeki	-9903
olon	-9904
▁yakıt	-9905
▁yöneticisi	-9906
▁hastalıkları	-9907
▁İster	-9908
▁USD	-9909
▁çatış	-9910
▁Standart	-9911
▁koleksiyon	-9912
xt	-9913
▁rüy	-9914
▁menf	-9915
▁tepk	-9916
uvalet	-9917
▁Yazdır	-9918
▁peygamber	-9919
▁GB	-9920
▁have	-9921
▁ulaştı	-9922
larımızdan	-9923
▁uzay	-9924
▁Burak	-9925
▁Sahibi	-9926
tiçi	-9927
▁şük	-9928
▁Kalı	-9929
▁kurumlar	-9930
İDE	-9931
izasyonu	-9932
fir	-9933
▁kamyon	-9934
ildiğinde	-9935
▁yapıştır	-9936
▁sök	-9937
▁Yönetmelik	-9938
oul	-9939
şek	-9940
▁KK	-9941
▁DER	-9942
▁yelp	-9943
ÇE	-9944
NET	-9945
▁tehlikeli	-9946
arn	-9947
lukları	-9948
Eğ	-9949
▁Favor	-9950
▁Kursu	-9951
▁Kaynakları	-9952
▁milyonlarca	-9953
mart	-9954
▁Açıklama	-9955
TML	-9956
▁karanlık	-9957
▁getiriyor	-9958
gov	-9959
▁rica	-9960
▁Yarat	-9961
▁fikri	-9962
▁tüzel	-9963
▁Puro	-9964
▁cevab	-9965
▁meşru	-9966
▁politika	-9967
▁katk	-9968
▁Kanada	-9969
umuzda	-9970
▁Gibi	-9971
▁İlişk	-9972
▁değilim	-9973
▁nesn	-9974
▁Firmaları	-9975
▁hazırlanmış	-9976
▁Musa	-9977
olojisi	-9978
▁değildi	-9979
▁bulaş	-9980
lec	-9981
Fi	-9982
▁üs	-9983
▁akademik	-9984
▁filtr	-9985
▁Kısaca	-9986
▁ediniz	-9987
▁Beton	-9988
mark	-9989
▁uyuşturucu	-9990
▁rüya	-9991
▁Tas	-9992
▁turnuv	-9993
▁Vad	-9994
▁toplumun	-9995
CEL	-9996
▁Herkes	-9997
▁gelişmeleri	-9998
yazı	-9999
▁Sinan	-10000
andarma	-10001
▁kaydıyla	-10002
▁Özdemir	-10003
▁tecrübeli	-10004
afak	-10005
▁Blu	-10006
▁şefimiz	-10007
tics	-10008
▁Dan	-10009
▁sözler	-10010
mesinden	-10011
▁Sertifik	-10012
▁birlikt	-10013
dön	-10014
▁kusursuz	-10015
▁Yaklaşık	-10016
▁Gerçekten	-10017
LEM	-10018
antik	-10019
▁GALERİ	-10020
▁neticesinde	-10021
▁hijyen	-10022
▁ülkeye	-10023
asebe	-10024
▁Bunları	-10025
IYOR	-10026
▁Basketbol	-10027
”)	-10028
▁sandal	-10029
▁edecektir	-10030
▁çıkması	-10031
lerimizden	-10032
▁SİTE	-10033
▁kedi	-10034
▁Ülkemizde	-10035
▁Lid	-10036
diğine	-10037
oss	-10038
▁ÇIK	-10039
▁sıral	-10040
▁tecrübe	-10041
▁function	-10042
▁İnceleme	-10043
▁heps	-10044
▁satılan	-10045
▁Radyo	-10046
▁merkezli	-10047
▁İH	-10048
ove	-10049
▁koz	-10050
SY	-10051
▁Bus	-10052
▁çalışmalarına	-10053
otu	-10054
▁gününde	-10055
uff	-10056
▁Buluş	-10057
▁Hurdacı	-10058
ÜS	-10059
▁Tümü	-10060
▁AŞ	-10061
lemiş	-10062
▁İLET	-10063
arlık	-10064
▁iştir	-10065
▁yaşıyor	-10066
ura	-10067
▁kel	-10068
▁Baba	-10069
▁Yardımcı	-10070
▁Nov	-10071
▁birimi	-10072
LET	-10073
▁Jet	-10074
▁caz	-10075
▁oluşturulan	-10076
▁cümleler	-10077
▁kalitesini	-10078
▁NATO	-10079
esince	-10080
Sen	-10081
leket	-10082
▁Fatur	-10083
▁Kapalı	-10084
▁çözümü	-10085
ader	-10086
▁Enf	-10087
gilizce	-10088
▁EM	-10089
▁özelliklerini	-10090
mun	-10091
ılımı	-10092
▁slog	-10093
▁mağaza	-10094
aboratuvar	-10095
▁IN	-10096
▁lezzetli	-10097
▁Mük	-10098
▁Sevgil	-10099
▁Fit	-10100
▁satıcı	-10101
▁filmler	-10102
osting	-10103
▁Sizlere	-10104
At	-10105
▁tef	-10106
▁getirdiği	-10107
▁maddeleri	-10108
its	-10109
PS	-10110
▁suni	-10111
▁kurulmuş	-10112
▁views	-10113
▁işletmeler	-10114
▁Tipi	-10115
▁sahibinin	-10116
Tok	-10117
avüz	-10118
aspor	-10119
Ankara	-10120
▁yılına	-10121
▁//	-10122
here	-10123
▁ağrısı	-10124
▁Havuz	-10125
▁başlığı	-10126
▁Resimleri	-10127
Mar	-10128
▁gümüş	-10129
▁Kırım	-10130
▁adamı	-10131
ayıcısı	-10132
▁sevdiğiniz	-10133
lace	-10134
▁dudak	-10135
İz	-10136
▁seyr	-10137
▁Esas	-10138
▁minimum	-10139
▁beylikdüzü	-10140
lease	-10141
▁Aslan	-10142
▁verin	-10143
▁yazılan	-10144
▁SMS	-10145
▁ima	-10146
▁biliyorum	-10147
▁Nih	-10148
▁reklamlar	-10149
edat	-10150
▁severlerin	-10151
ÖY	-10152
▁tahr	-10153
▁Kulak	-10154
▁sevilen	-10155
▁Yem	-10156
İs	-10157
mac	-10158
diğince	-10159
ASYON	-10160
çilerin	-10161
▁Soylu	-10162
ebilirsin	-10163
lerimizde	-10164
▁Vali	-10165
uçları	-10166
▁yapılacaktır	-10167
▁mıdır	-10168
egatif	-10169
▁yardımı	-10170
▁sürpriz	-10171
▁halkı	-10172
▁sağlanır	-10173
pınar	-10174
▁gösterdiği	-10175
▁Deri	-10176
▁Sınavı	-10177
▁NED	-10178
▁Ref	-10179
▁onur	-10180
usundaki	-10181
▁LinkedIn	-10182
cast	-10183
▁eks	-10184
▁kül	-10185
▁bileti	-10186
▁sayısının	-10187
▁EKLE	-10188
▁Oğuz	-10189
▁İsveç	-10190
▁olmamak	-10191
▁harcam	-10192
▁Veriler	-10193
▁balkon	-10194
▁olmaksızın	-10195
▁işini	-10196
▁borc	-10197
▁Cevapla	-10198
dirim	-10199
▁İzmit	-10200
▁TRT	-10201
▁ötürü	-10202
▁yazarı	-10203
▁alınmış	-10204
▁gelişme	-10205
▁Putin	-10206
ebilirler	-10207
▁yayımlanan	-10208
ium	-10209
▁taraftan	-10210
▁listesine	-10211
▁olduğunun	-10212
▁Zam	-10213
âb	-10214
tığında	-10215
▁Konseyi	-10216
▁yayınlandı	-10217
▁Burç	-10218
▁sistemler	-10219
VEN	-10220
▁Bakanlık	-10221
▁Değil	-10222
stat	-10223
▁doku	-10224
▁Çağrı	-10225
▁duygusal	-10226
ness	-10227
▁Eğlen	-10228
▁zorundadır	-10229
ategory	-10230
des	-10231
▁Masaj	-10232
edeniyet	-10233
ISI	-10234
MAZ	-10235
▁Sincan	-10236
▁İsk	-10237
▁Klinik	-10238
▁Bon	-10239
▁Cas	-10240
▁Montaj	-10241
▁yükümlü	-10242
GI	-10243
▁benden	-10244
menistan	-10245
▁yaşınday	-10246
▁girmek	-10247
▁örneğin	-10248
▁dosyaları	-10249
▁Nokt	-10250
liliğini	-10251
mod	-10252
avuş	-10253
ADA	-10254
▁evi	-10255
▁onunla	-10256
▁oluşturur	-10257
akin	-10258
▁geride	-10259
▁ürünlerini	-10260
▁biber	-10261
oleybol	-10262
▁Ziraat	-10263
▁Kapsam	-10264
▁onlarca	-10265
▁tamamını	-10266
dığına	-10267
▁sinyal	-10268
▁girer	-10269
▁verilmiş	-10270
ürriyet	-10271
▁Ha	-10272
))	-10273
dılar	-10274
otok	-10275
▁Toplantı	-10276
▁şirketler	-10277
iyek	-10278
▁yelpaz	-10279
▁haricinde	-10280
▁Kayn	-10281
▁Analizi	-10282
▁başarısız	-10283
büs	-10284
▁kadını	-10285
▁Likes	-10286
▁Yoksa	-10287
▁pomp	-10288
▁saatte	-10289
▁tahsil	-10290
▁dakikada	-10291
▁sesi	-10292
▁dolarlık	-10293
▁karşılıklı	-10294
udu	-10295
▁ihmal	-10296
▁vermesi	-10297
▁İLETİŞİM	-10298
▁tev	-10299
▁çabuk	-10300
▁aracın	-10301
▁sanay	-10302
▁yahut	-10303
▁Uygulaması	-10304
▁araz	-10305
▁roman	-10306
▁koordin	-10307
▁zehir	-10308
▁Sc	-10309
İZLİ	-10310
▁ekibimiz	-10311
▁pahalı	-10312
▁Pal	-10313
▁karg	-10314
▁İS	-10315
maktır	-10316
▁yılları	-10317
luğa	-10318
oları	-10319
navut	-10320
▁Gönül	-10321
▁ayrım	-10322
▁ilham	-10323
▁Matematik	-10324
over	-10325
▁adresinize	-10326
▁merkezinde	-10327
▁Efend	-10328
amın	-10329
▁nereden	-10330
ses	-10331
▁Belir	-10332
▁BEY	-10333
▁ayrıcalık	-10334
▁sof	-10335
▁bizden	-10336
Dir	-10337
çekmece	-10338
▁gördüğü	-10339
antin	-10340
▁üyelerine	-10341
İSEL	-10342
▁ücretleri	-10343
▁haftada	-10344
▁Dosy	-10345
▁GENEL	-10346
▁İçişleri	-10347
▁Japon	-10348
▁antalya	-10349
▁Başakşehir	-10350
▁dürüst	-10351
▁itibarıyla	-10352
ıst	-10353
▁Şeker	-10354
mıyorum	-10355
▁Platformu	-10356
itor	-10357
▁Tespit	-10358
▁Bakırköy	-10359
▁ülkelerin	-10360
yaman	-10361
▁bulan	-10362
▁Fırsat	-10363
CU	-10364
sohbet	-10365
▁akr	-10366
▁eklent	-10367
▁HAL	-10368
alarıyla	-10369
▁tüketici	-10370
▁oluşmaktadır	-10371
▁isimleri	-10372
▁değiştirmek	-10373
Tr	-10374
▁my	-10375
▁Evren	-10376
▁sıkınt	-10377
▁anlayışı	-10378
omen	-10379
▁Kıy	-10380
▁Yerler	-10381
atörü	-10382
▁Feth	-10383
▁Avantaj	-10384
▁Sonrası	-10385
▁efsan	-10386
föy	-10387
atları	-10388
▁farkında	-10389
ICI	-10390
▁Biraz	-10391
▁döndü	-10392
odik	-10393
▁olmayacak	-10394
▁yakalandı	-10395
▁tartışma	-10396
çık	-10397
▁müj	-10398
▁tutarı	-10399
arda	-10400
Kullan	-10401
▁görülmektedir	-10402
▁İy	-10403
TER	-10404
▁Afgan	-10405
▁miyim	-10406
▁GEL	-10407
İYAT	-10408
▁görme	-10409
▁lin	-10410
OLOJİ	-10411
▁hızı	-10412
TAN	-10413
▁bekleyen	-10414
▁yazımızda	-10415
▁Tekrar	-10416
▁Kullanımı	-10417
▁Manşetleri	-10418
▁yeterlidir	-10419
▁sö	-10420
anıza	-10421
▁devir	-10422
▁tarihte	-10423
▁Bunlardan	-10424
ution	-10425
▁bağlıdır	-10426
▁Tic	-10427
▁Ustası	-10428
▁tarihten	-10429
▁içerisine	-10430
▁örn	-10431
▁gördü	-10432
▁bölgesi	-10433
▁arkadaşı	-10434
▁görüle	-10435
▁kısmen	-10436
▁ortamı	-10437
▁buluştu	-10438
▁Promosyon	-10439
URT	-10440
▁isteriz	-10441
▁CEO	-10442
▁sitelerin	-10443
icil	-10444
madım	-10445
▁Vize	-10446
▁eticaret	-10447
▁muc	-10448
▁Kahve	-10449
▁bulut	-10450
▁ailesi	-10451
cesi	-10452
▁sayılan	-10453
▁küfür	-10454
suzluk	-10455
▁Mekan	-10456
duğunda	-10457
▁Usul	-10458
tib	-10459
▁shop	-10460
▁Ölüm	-10461
▁hizmetini	-10462
▁tasarlanmış	-10463
▁Bilgilendirme	-10464
▁mo	-10465
▁Halil	-10466
larınızda	-10467
ledim	-10468
ff	-10469
mec	-10470
▁Bırak	-10471
▁bunlardan	-10472
▁haksız	-10473
▁facebook	-10474
▁firmanın	-10475
kâr	-10476
▁tay	-10477
▁Bileti	-10478
▁Değerlendirme	-10479
▁ailen	-10480
▁asit	-10481
▁organik	-10482
▁olmasının	-10483
ning	-10484
▁hayatında	-10485
▁PS	-10486
▁Alanı	-10487
oterapi	-10488
▁görüntüleme	-10489
cuk	-10490
▁Sizi	-10491
ŞEHİR	-10492
▁devamı	-10493
▁Röportaj	-10494
▁sitesinden	-10495
feri	-10496
▁bıçak	-10497
ney	-10498
ason	-10499
▁hisse	-10500
▁konuya	-10501
▁başlamıştır	-10502
cüm	-10503
▁Seksi	-10504
forje	-10505
▁Antik	-10506
▁lev	-10507
▁Türkç	-10508
▁beklet	-10509
▁olayı	-10510
lidir	-10511
▁misin	-10512
▁durumuna	-10513
▁bulunduğunuz	-10514
zir	-10515
▁almanız	-10516
▁bölgeye	-10517
adınız	-10518
▁sitelerinden	-10519
▁Premi	-10520
▁nazar	-10521
▁salgın	-10522
▁Mesela	-10523
aiz	-10524
yeler	-10525
imal	-10526
zaman	-10527
▁isteği	-10528
▁bom	-10529
iller	-10530
mayınız	-10531
▁Teşekkürler	-10532
üfer	-10533
▁MES	-10534
▁Kariyer	-10535
▁İndirim	-10536
▁çocuğu	-10537
▁bilinmektedir	-10538
tifika	-10539
▁Çalışan	-10540
ilerinden	-10541
atay	-10542
▁anlaşıl	-10543
OLU	-10544
ano	-10545
ugu	-10546
▁Raporu	-10547
▁Mr	-10548
▁ispat	-10549
▁Digiturk	-10550
losuz	-10551
▁keşfed	-10552
▁soruşturma	-10553
vetleri	-10554
lup	-10555
▁belgeleri	-10556
▁Kazak	-10557
▁motiv	-10558
▁öğrencileri	-10559
▁Bakış	-10560
lerdi	-10561
▁Mahmut	-10562
▁yeterince	-10563
▁verilmiştir	-10564
▁müsa	-10565
▁dk	-10566
▁yönetici	-10567
ıyer	-10568
▁Ki	-10569
▁kombin	-10570
▁erkeklerin	-10571
▁Mühendisliği	-10572
▁gerçekleştirmek	-10573
▁Acar	-10574
▁menfaat	-10575
▁uygundur	-10576
▁alerj	-10577
▁Acı	-10578
▁maddesinde	-10579
ıplak	-10580
▁ziyaretçi	-10581
▁sürüc	-10582
▁Bisiklet	-10583
▁Plus	-10584
▁dağıtım	-10585
▁sermaye	-10586
olos	-10587
▁today	-10588
burg	-10589
ling	-10590
▁kafa	-10591
▁English	-10592
MESİ	-10593
▁TIK	-10594
▁pendik	-10595
▁İlişkiler	-10596
▁şansı	-10597
▁Tıklayınız	-10598
CEK	-10599
▁saniye	-10600
▁Şiddet	-10601
ETE	-10602
▁derken	-10603
▁yönetmen	-10604
▁kağı	-10605
▁yazmak	-10606
▁başlayın	-10607
▁Hy	-10608
ımları	-10609
abahis	-10610
ebileceğini	-10611
▁koronavirüs	-10612
sü	-10613
▁FETÖ	-10614
amadım	-10615
▁bölümünden	-10616
▁Organizasyon	-10617
▁Bağım	-10618
▁hemş	-10619
icileri	-10620
▁Çevrimsiz	-10621
▁Rulet	-10622
▁Gelişim	-10623
▁elit	-10624
hisar	-10625
mamızı	-10626
PN	-10627
üsünü	-10628
▁gib	-10629
şet	-10630
▁ur	-10631
berg	-10632
▁tabanlı	-10633
imari	-10634
▁fiz	-10635
isp	-10636
ware	-10637
▁from	-10638
vat	-10639
▁ikin	-10640
▁Çocuğ	-10641
▁RSS	-10642
▁görevl	-10643
elerinizi	-10644
FF	-10645
▁göçmen	-10646
müyor	-10647
çılar	-10648
▁Je	-10649
▁ikisi	-10650
▁Toprak	-10651
▁sahne	-10652
▁mesleki	-10653
▁muhalef	-10654
▁yapılarak	-10655
luyor	-10656
▁İçer	-10657
▁İstek	-10658
ayol	-10659
▁Ayşe	-10660
▁Okumaya	-10661
ora	-10662
▁MİL	-10663
▁sad	-10664
▁Umut	-10665
▁Pe	-10666
▁yolunu	-10667
▁Çekmek	-10668
▁bölgedeki	-10669
▁seçenekler	-10670
▁TH	-10671
▁mensup	-10672
▁müc	-10673
▁duruyor	-10674
▁Duyuru	-10675
▁iOS	-10676
▁zul	-10677
▁tohum	-10678
emiyorum	-10679
▁edenler	-10680
▁bekliyoruz	-10681
eğiniz	-10682
▁çeşidi	-10683
operatif	-10684
▁yararlı	-10685
▁şartı	-10686
▁karşın	-10687
▁şeyden	-10688
▁görünür	-10689
▁AC	-10690
▁EUR	-10691
▁bulur	-10692
▁reg	-10693
ilikon	-10694
▁kurallar	-10695
amızın	-10696
▁PR	-10697
▁COV	-10698
▁Stok	-10699
▁Ez	-10700
▁işley	-10701
cim	-10702
luğunu	-10703
▁Tıbbi	-10704
▁Birbir	-10705
▁fiyata	-10706
▁kalma	-10707
▁dünyasında	-10708
▁TAKİP	-10709
▁Boya	-10710
ETLER	-10711
▁yazdı	-10712
▁sporcu	-10713
▁konaklama	-10714
sage	-10715
esign	-10716
▁etkinliği	-10717
▁edinmek	-10718
On	-10719
▁nefret	-10720
▁temizleme	-10721
▁Alıcı	-10722
▁Related	-10723
▁inf	-10724
▁mahkeme	-10725
▁maden	-10726
▁Profil	-10727
▁karın	-10728
liğinden	-10729
▁zeytiny	-10730
▁Hizmetlerimiz	-10731
▁KIR	-10732
pot	-10733
ânı	-10734
üyü	-10735
▁ülkelerde	-10736
örd	-10737
▁oynanan	-10738
!..	-10739
▁cesaret	-10740
ee	-10741
▁alet	-10742
▁Cur	-10743
▁teker	-10744
EGOR	-10745
▁Geçtiğimiz	-10746
anıp	-10747
▁baktığ	-10748
▁ülkemiz	-10749
▁çub	-10750
▁Salonu	-10751
▁değerleri	-10752
▁SA	-10753
▁bağlantısı	-10754
▁saatlerinde	-10755
▁maliyeti	-10756
▁sos	-10757
▁satan	-10758
▁ulaşın	-10759
▁Üçüncü	-10760
▁garantili	-10761
▁Görsel	-10762
▁çıkmaktadır	-10763
▁Başk	-10764
▁burun	-10765
▁Çetin	-10766
▁iğ	-10767
▁şok	-10768
▁dosyası	-10769
ûl	-10770
▁röportaj	-10771
▁getirilmesi	-10772
CO	-10773
lığından	-10774
back	-10775
▁poli	-10776
egen	-10777
Çocuk	-10778
▁yurtdış	-10779
▁etmem	-10780
▁Bülent	-10781
▁ustası	-10782
▁arkadaşım	-10783
▁bizler	-10784
▁Vücut	-10785
▁organize	-10786
▁Milliyet	-10787
▁Sorumluluk	-10788
ets	-10789
acın	-10790
▁Ödülü	-10791
▁Satılık	-10792
▁Ste	-10793
▁Homeop	-10794
▁protein	-10795
▁Ted	-10796
▁Çap	-10797
▁bonusları	-10798
▁Sec	-10799
umuza	-10800
izin	-10801
▁ast	-10802
▁sığ	-10803
▁hoca	-10804
aly	-10805
▁Bahar	-10806
▁kartal	-10807
▁yerleşim	-10808
▁teşhis	-10809
▁muhtemelen	-10810
▁yararlanmak	-10811
▁sitemize	-10812
▁Dahil	-10813
▁Elektrikli	-10814
▁Amaz	-10815
▁Trump	-10816
▁Başlangıç	-10817
▁But	-10818
ÖK	-10819
▁gelmez	-10820
▁Çıkış	-10821
▁kısmına	-10822
layabilir	-10823
lıkta	-10824
▁aşağ	-10825
▁Merak	-10826
▁yükseldi	-10827
▁OD	-10828
alel	-10829
▁garantisi	-10830
iğit	-10831
▁Fre	-10832
▁artırmak	-10833
▁öp	-10834
▁yöntemler	-10835
▁uygulamaya	-10836
▁dr	-10837
ettür	-10838
▁ISO	-10839
▁varlığı	-10840
ekler	-10841
َّ	-10842
▁hepsini	-10843
▁Jo	-10844
▁omuz	-10845
▁sizde	-10846
▁çevresinde	-10847
▁cil	-10848
hiş	-10849
▁göv	-10850
▁mobilya	-10851
▁kaldığı	-10852
▁İtalyan	-10853
▁Os	-10854
adas	-10855
▁kaba	-10856
▁Salon	-10857
memiz	-10858
IMI	-10859
▁işlenmiş	-10860
▁yenilikçi	-10861
▁Elif	-10862
▁ortasında	-10863
▁kilometre	-10864
▁hikayesi	-10865
▁maddesinin	-10866
▁Ask	-10867
▁reç	-10868
dil	-10869
▁Siteler	-10870
▁öncü	-10871
▁kullanıyor	-10872
İĞER	-10873
▁tarafı	-10874
▁Ahmed	-10875
▁tarihe	-10876
▁kalacak	-10877
▁Yemekleri	-10878
▁Gem	-10879
în	-10880
mekteyiz	-10881
▁şunu	-10882
▁hızlıca	-10883
▁kıyafet	-10884
erkes	-10885
▁dog	-10886
▁Yanlış	-10887
▁doktora	-10888
fk	-10889
▁Hazret	-10890
▁Öztürk	-10891
▁gelebilir	-10892
▁bilinir	-10893
▁kaybeden	-10894
▁SÖZ	-10895
▁Okulu	-10896
▁ilişkili	-10897
▁Teh	-10898
TK	-10899
▁Usta	-10900
▁Zafer	-10901
▁anlaşma	-10902
▁tebrik	-10903
▁Yedek	-10904
▁Tipobet	-10905
▁derg	-10906
▁olmasından	-10907
iver	-10908
▁İşe	-10909
▁Başarı	-10910
▁okuyucu	-10911
type	-10912
▁cihazlar	-10913
▁vatan	-10914
▁bilmek	-10915
▁BÜYÜK	-10916
▁olmazsa	-10917
▁ihtiyaçlarını	-10918
▁Dec	-10919
antolon	-10920
▁Seti	-10921
▁özenle	-10922
acy	-10923
▁AĞ	-10924
eminer	-10925
▁Teşkil	-10926
LAMA	-10927
▁Katar	-10928
▁Dünyada	-10929
▁dolara	-10930
aa	-10931
▁şeffaf	-10932
▁sistemin	-10933
▁Bors	-10934
▁Oyunlar	-10935
▁KAM	-10936
▁Makale	-10937
▁giriniz	-10938
▁sözleşmenin	-10939
▁Hotel	-10940
▁Akadem	-10941
▁vatandaşlar	-10942
ölüm	-10943
▁İmal	-10944
ikal	-10945
io	-10946
▁İM	-10947
▁ettiğimiz	-10948
▁Danış	-10949
▁kalabalık	-10950
▁midir	-10951
▁Most	-10952
▁hormon	-10953
dınız	-10954
▁dünyayı	-10955
▁etkileşim	-10956
▁toplantısı	-10957
nü	-10958
▁zorlu	-10959
▁konulu	-10960
▁opsiyon	-10961
eratör	-10962
▁Sy	-10963
lanarak	-10964
▁yoksul	-10965
lasman	-10966
▁Balkan	-10967
eleriyle	-10968
▁uyuş	-10969
lığıyla	-10970
▁çel	-10971
▁reddet	-10972
umblr	-10973
▁Makine	-10974
▁hesabına	-10975
https	-10976
lenmesine	-10977
amızdan	-10978
Sınıf	-10979
▁köken	-10980
▁üreten	-10981
▁Kiralık	-10982
rada	-10983
ndaki	-10984
▁Kuru	-10985
▁Avcılar	-10986
▁content	-10987
▁Çekmeköy	-10988
xx	-10989
price	-10990
▁zeka	-10991
adar	-10992
▁Soğuk	-10993
▁Sıfır	-10994
▁Holding	-10995
▁Öğ	-10996
▁Kaymakam	-10997
▁işit	-10998
▁alıntı	-10999
▁KİŞİSEL	-11000
▁okundu	-11001
▁yıldan	-11002
ilan	-11003
▁direnç	-11004
▁Steroid	-11005
▁basketbol	-11006
▁işareti	-11007
▁Şiir	-11008
▁tutun	-11009
▁Memur	-11010
▁anlaşılır	-11011
▁hek	-11012
▁zamana	-11013
▁canım	-11014
▁izlen	-11015
▁komb	-11016
▁dediler	-11017
▁edilecektir	-11018
▁Çıkar	-11019
▁anlama	-11020
▁Geliştirme	-11021
▁Etkinlikler	-11022
▁semt	-11023
▁KATEGOR	-11024
▁düşünür	-11025
▁fit	-11026
kenti	-11027
row	-11028
▁Gu	-11029
▁Real	-11030
▁rady	-11031
▁bulunduğunu	-11032
▁DİĞER	-11033
▁içerisindeki	-11034
▁karşılığı	-11035
fte	-11036
▁Dernek	-11037
cell	-11038
▁City	-11039
▁başladığı	-11040
].	-11041
▁Sayfalar	-11042
▁etrafında	-11043
▁düzenlediği	-11044
▁uygulanması	-11045
▁Serisi	-11046
▁hassasiyet	-11047
DK	-11048
▁cevabı	-11049
▁konferans	-11050
ii	-11051
▁GEÇ	-11052
▁sesli	-11053
▁beraberinde	-11054
Özel	-11055
▁Göç	-11056
dukça	-11057
oga	-11058
▁sıfat	-11059
▁üyelerinin	-11060
▁payı	-11061
ıcılık	-11062
▁Devleti	-11063
▁adresinde	-11064
esk	-11065
▁gözet	-11066
dy	-11067
cüsü	-11068
▁terap	-11069
▁Oyn	-11070
▁sakın	-11071
▁Avustr	-11072
▁almadan	-11073
▁HAT	-11074
▁güvenle	-11075
▁ülkemizin	-11076
İTESİ	-11077
▁merkezine	-11078
▁Sait	-11079
shop	-11080
▁dert	-11081
▁Yazarı	-11082
lamanız	-11083
▁anlamında	-11084
▁analizi	-11085
▁içeriğin	-11086
▁cik	-11087
▁neş	-11088
▁OT	-11089
▁çalıştığı	-11090
mamıza	-11091
▁aldat	-11092
▁Böylelikle	-11093
LAH	-11094
▁ây	-11095
▁şehirler	-11096
▁edebileceğiniz	-11097
LAT	-11098
▁antren	-11099
▁öldü	-11100
▁sürük	-11101
CH	-11102
▁istemez	-11103
▁İLK	-11104
▁Alb	-11105
▁Adak	-11106
▁evin	-11107
▁direk	-11108
▁detaylar	-11109
▁new	-11110
▁aşamada	-11111
Kır	-11112
içeği	-11113
▁Silah	-11114
▁yürütülmesi	-11115
▁sup	-11116
▁hissede	-11117
▁Malzeme	-11118
▁yürütülen	-11119
▁Öğretmenler	-11120
▁Hatır	-11121
▁Tercüme	-11122
▁muayene	-11123
▁ocak	-11124
ectory	-11125
▁TİC	-11126
▁yürürlük	-11127
▁tabak	-11128
▁Dilek	-11129
▁user	-11130
▁başlamak	-11131
▁motoru	-11132
▁onar	-11133
mama	-11134
▁ded	-11135
▁Öne	-11136
▁denilen	-11137
▁hizmetin	-11138
▁App	-11139
▁İlişkin	-11140
GA	-11141
▁Olmak	-11142
▁ölçek	-11143
hay	-11144
lüğünde	-11145
▁olaylar	-11146
▁Fah	-11147
▁gun	-11148
▁naz	-11149
yak	-11150
▁gev	-11151
essary	-11152
▁problemi	-11153
▁TOK	-11154
öreni	-11155
▁nik	-11156
▁sul	-11157
▁sağlayacaktır	-11158
▁Teknolojileri	-11159
gim	-11160
▁faydaları	-11161
▁izlenme	-11162
▁kamuoy	-11163
EME	-11164
ğday	-11165
▁Home	-11166
▁kurulmuştur	-11167
CAN	-11168
▁pap	-11169
▁Kapak	-11170
▁yapıyorum	-11171
Dr	-11172
▁ücretli	-11173
▁politikamızı	-11174
▁rev	-11175
▁robot	-11176
karahisar	-11177
▁Filistin	-11178
erved	-11179
öbetçi	-11180
▁düşünen	-11181
▁verebilirsiniz	-11182
▁all	-11183
▁Uzay	-11184
▁hayli	-11185
▁istedikleri	-11186
▁YAL	-11187
▁akım	-11188
▁ekimi	-11189
▁yönlü	-11190
▁Ortalama	-11191
▁Başvurusu	-11192
▁yetki	-11193
▁nin	-11194
▁Amazon	-11195
▁defter	-11196
▁Ren	-11197
▁artıyor	-11198
▁cerrahi	-11199
▁paylaştı	-11200
dom	-11201
birliği	-11202
▁gebelik	-11203
▁kendiniz	-11204
▁Poz	-11205
▁meclis	-11206
▁HABERLERİ	-11207
üleri	-11208
▁annesi	-11209
▁ayarları	-11210
▁öv	-11211
▁Akşam	-11212
▁serisi	-11213
▁çoğalt	-11214
▁öğrencilere	-11215
aci	-11216
hak	-11217
▁fe	-11218
UNU	-11219
ski	-11220
▁verip	-11221
▁okuyun	-11222
▁çıktığı	-11223
▁azgın	-11224
▁Sizler	-11225
lerimizle	-11226
amin	-11227
▁View	-11228
▁ilaçlar	-11229
ördüncü	-11230
▁mülkiyet	-11231
▁üyelerin	-11232
idiyek	-11233
▁hurdacı	-11234
▁kaybed	-11235
▁yaratıcı	-11236
▁hissettir	-11237
▁bekliyorum	-11238
▁SEÇ	-11239
▁oynam	-11240
medim	-11241
▁sevdik	-11242
▁Astr	-11243
▁Olun	-11244
▁evine	-11245
mamıştır	-11246
▁siparişi	-11247
▁tetik	-11248
▁butonuna	-11249
▁HAK	-11250
ülmüş	-11251
imer	-11252
▁salat	-11253
▁Salih	-11254
▁Türkler	-11255
▁ag	-11256
▁İNDİR	-11257
▁Free	-11258
▁İmparator	-11259
ubu	-11260
▁yıkan	-11261
▁tansiyon	-11262
▁Tuğ	-11263
▁turk	-11264
▁rulet	-11265
▁ortada	-11266
düstri	-11267
▁etkisini	-11268
▁egemen	-11269
▁toplamda	-11270
oğa	-11271
▁Sw	-11272
istr	-11273
▁Yazıcı	-11274
▁inşallah	-11275
▁sayfasına	-11276
▁bulunmayan	-11277
ahi	-11278
▁şair	-11279
▁geriye	-11280
▁kalitede	-11281
▁etkileyen	-11282
▁mesajları	-11283
▁durumunu	-11284
▁suyun	-11285
▁numara	-11286
▁sorumludur	-11287
işe	-11288
▁adli	-11289
▁nadir	-11290
▁isimler	-11291
eşme	-11292
▁birinc	-11293
▁arayınız	-11294
▁hareketli	-11295
▁fiyatlarla	-11296
▁gündüz	-11297
▁ehliyet	-11298
▁kahvaltı	-11299
pon	-11300
▁{{#	-11301
▁festival	-11302
▁Temizliği	-11303
emiştir	-11304
pan	-11305
▁will	-11306
rit	-11307
▁entegre	-11308
▁müsabak	-11309
efk	-11310
ings	-11311
▁Güzellik	-11312
▁Mağaza	-11313
▁Yunus	-11314
▁onayı	-11315
▁ihtiyaçları	-11316
ENT	-11317
▁bölün	-11318
ayolu	-11319
▁Dönüşüm	-11320
fice	-11321
▁sitemizin	-11322
Top	-11323
▁Hayal	-11324
leşen	-11325
▁topr	-11326
▁resimleri	-11327
İNİN	-11328
▁bununla	-11329
▁şun	-11330
▁gösterilmeden	-11331
amazsınız	-11332
▁teknolojileri	-11333
kay	-11334
▁Transfer	-11335
▁Gizli	-11336
▁bağlantılar	-11337
▁Giy	-11338
isteme	-11339
▁geleceği	-11340
▁başarıyla	-11341
erkan	-11342
▁End	-11343
▁consent	-11344
▁tarifleri	-11345
ladığını	-11346
ılmalıdır	-11347
▁homeopat	-11348
▁parçaları	-11349
▁Tablo	-11350
aktif	-11351
▁getirilen	-11352
memek	-11353
▁İpek	-11354
▁bardak	-11355
▁Sarıyer	-11356
▁POLİ	-11357
▁çıkmak	-11358
!!!	-11359
▁disiplin	-11360
▁şiddetli	-11361
▁numaraları	-11362
yapı	-11363
▁MAN	-11364
▁Kedi	-11365
▁süz	-11366
▁hâlinde	-11367
▁düzenlendi	-11368
oma	-11369
▁olmuştu	-11370
▁add	-11371
▁bakar	-11372
▁Bizimle	-11373
▁taraflı	-11374
▁KR	-11375
ılıf	-11376
▁tutum	-11377
▁Zeynep	-11378
▁MAL	-11379
▁mektup	-11380
▁karşılamak	-11381
▁izn	-11382
▁Sunucu	-11383
▁Altyazılı	-11384
▁kategorisinde	-11385
▁sıkça	-11386
▁YAS	-11387
▁İşletme	-11388
▁sürecini	-11389
İLEN	-11390
▁seviyesi	-11391
▁Belç	-11392
aptop	-11393
▁bizleri	-11394
▁Tasarımı	-11395
▁Aktif	-11396
▁fes	-11397
ged	-11398
▁şirketlerin	-11399
▁tanık	-11400
▁işlevsel	-11401
ERİK	-11402
▁sığın	-11403
▁belirgin	-11404
▁KOL	-11405
▁yuv	-11406
▁Arası	-11407
▁Vakti	-11408
▁Rev	-11409
▁belirtileri	-11410
▁göreceksiniz	-11411
▁Evi	-11412
▁yoluna	-11413
▁müd	-11414
▁sağlayarak	-11415
diğinden	-11416
▁browser	-11417
▁Risk	-11418
▁yakış	-11419
▁google	-11420
▁Borç	-11421
▁AYDIN	-11422
▁turist	-11423
▁Herkese	-11424
▁Hazırlık	-11425
▁hesabınızı	-11426
alp	-11427
▁disk	-11428
▁Harek	-11429
▁DAHA	-11430
▁çak	-11431
▁Selim	-11432
▁TARİH	-11433
BİT	-11434
▁Yarar	-11435
▁sektörün	-11436
osunu	-11437
▁kendisinin	-11438
▁TAN	-11439
▁lise	-11440
▁davası	-11441
▁Rahat	-11442
▁uzaklaş	-11443
▁görevlendir	-11444
▁kesint	-11445
ediyesi	-11446
▁Ödem	-11447
▁memnuniyetini	-11448
hid	-11449
ikler	-11450
▁belirtildi	-11451
▁oluşturduğu	-11452
▁SANAT	-11453
▁Arnavut	-11454
duy	-11455
emiyor	-11456
▁yemeği	-11457
▁saatlik	-11458
▁arkasında	-11459
▁Şirketimiz	-11460
▁çocuklara	-11461
▁Comment	-11462
▁alınmıştır	-11463
▁Görmek	-11464
▁Kitab	-11465
▁bilinc	-11466
▁önemlisi	-11467
▁olduğunuzu	-11468
▁kesi	-11469
ilirken	-11470
âz	-11471
▁HTML	-11472
▁Yargıtay	-11473
▁Saygı	-11474
▁meşhur	-11475
▁şimdiden	-11476
▁usta	-11477
▁Cengiz	-11478
▁konularında	-11479
▁olabiliyor	-11480
▁sınıflandır	-11481
Ür	-11482
▁Vakıf	-11483
▁beceriler	-11484
▁denen	-11485
Ey	-11486
▁MAH	-11487
▁KKTC	-11488
▁koku	-11489
▁ayakta	-11490
▁gönüllü	-11491
promo	-11492
▁Beyin	-11493
aça	-11494
▁kuy	-11495
▁hastanın	-11496
▁talebinde	-11497
İMİ	-11498
▁bütçe	-11499
▁girip	-11500
ansa	-11501
cedes	-11502
▁atöly	-11503
▁düzel	-11504
▁etmeden	-11505
▁mesajlar	-11506
del	-11507
▁gönderen	-11508
▁Lok	-11509
▁samimi	-11510
dızı	-11511
▁takibi	-11512
▁dünyasının	-11513
▁adresleri	-11514
▁lit	-11515
▁konul	-11516
▁kalıyor	-11517
▁demokratik	-11518
▁Beden	-11519
▁Yaşlı	-11520
▁kıyaf	-11521
▁Taşın	-11522
▁tüp	-11523
▁Yapım	-11524
▁inter	-11525
mekle	-11526
▁ismini	-11527
▁alıyoruz	-11528
ınızla	-11529
▁yaralan	-11530
▁Raf	-11531
▁nereye	-11532
atür	-11533
▁emir	-11534
▁Kesme	-11535
▁Sponsor	-11536
▁bakınız	-11537
amil	-11538
ranı	-11539
▁Yazın	-11540
▁hızlandır	-11541
▁maks	-11542
▁olsay	-11543
▁futbolcu	-11544
▁bilgileriniz	-11545
İYET	-11546
▁Email	-11547
▁istikrar	-11548
abilecektir	-11549
irinevler	-11550
▁Sens	-11551
▁Sinem	-11552
önü	-11553
maris	-11554
▁kutusu	-11555
ations	-11556
▁Dosya	-11557
▁kullanıldığı	-11558
▁göze	-11559
▁yanıl	-11560
▁Süresi	-11561
▁negatif	-11562
▁makineleri	-11563
▁arasındadır	-11564
▁antik	-11565
▁ibadet	-11566
ptom	-11567
▁miras	-11568
▁van	-11569
lanmak	-11570
▁kullanılmış	-11571
▁dönemin	-11572
theme	-11573
▁oluşturma	-11574
▁öngörülen	-11575
▁Edilen	-11576
▁adamın	-11577
▁çalışmaların	-11578
▁Senin	-11579
ikip	-11580
Ticaret	-11581
▁başa	-11582
isit	-11583
▁out	-11584
▁vazgeçilmez	-11585
sev	-11586
▁FI	-11587
▁Beykoz	-11588
▁Tümünü	-11589
▁yaşından	-11590
urma	-11591
▁şüpheli	-11592
göz	-11593
▁lay	-11594
ezenf	-11595
lenti	-11596
▁budur	-11597
▁sorunların	-11598
▁bag	-11599
▁gezin	-11600
▁güvenliğini	-11601
▁م	-11602
▁kurt	-11603
▁GÜVEN	-11604
▁diliyorum	-11605
che	-11606
amda	-11607
▁Char	-11608
▁ekleyin	-11609
▁personeli	-11610
LİM	-11611
âlâ	-11612
ument	-11613
▁etmekte	-11614
▁düzenlenecek	-11615
▁deneyiminizi	-11616
liniğ	-11617
▁geliştirilen	-11618
kul	-11619
▁silmek	-11620
▁görünen	-11621
▁çalışanları	-11622
▁istasyon	-11623
▁açar	-11624
▁Brezil	-11625
▁kullanılacak	-11626
▁Tad	-11627
lamanın	-11628
▁örgü	-11629
▁çıkarak	-11630
▁SOS	-11631
▁olabilmektedir	-11632
▁​	-11633
▁Out	-11634
ografik	-11635
ladığınız	-11636
▁utan	-11637
odcast	-11638
▁tıpkı	-11639
▁yerinden	-11640
▁gösterilen	-11641
▁şişli	-11642
▁Kek	-11643
▁çözümleri	-11644
ternational	-11645
▁Sonrasında	-11646
▁NASIL	-11647
▁Parkı	-11648
▁Terör	-11649
▁Koordin	-11650
▁irtibata	-11651
▁Endüstriyel	-11652
EYE	-11653
▁Krem	-11654
▁görevini	-11655
">	-11656
▁idrar	-11657
▁fazlasıyla	-11658
▁fırsatları	-11659
ýþ	-11660
▁BI	-11661
PE	-11662
▁he	-11663
▁fikr	-11664
▁taşıyor	-11665
▁Jul	-11666
etiği	-11667
▁Almak	-11668
▁Kayıp	-11669
▁ilçesi	-11670
sohbetci	-11671
DÜR	-11672
▁Gelecek	-11673
▁bağlantılı	-11674
takım	-11675
▁limon	-11676
▁radyo	-11677
▁içeriğini	-11678
diz	-11679
▁Pop	-11680
▁edersiniz	-11681
▁performansı	-11682
▁DEM	-11683
▁Magazin	-11684
▁yerlere	-11685
▁sürü	-11686
▁yaptıktan	-11687
ral	-11688
ıysa	-11689
▁uzan	-11690
po	-11691
▁Lider	-11692
▁Avustralya	-11693
fon	-11694
▁girmiş	-11695
lenmesini	-11696
▁olduğumu	-11697
şa	-11698
▁pandemi	-11699
▁yazdığı	-11700
sy	-11701
▁ilerlem	-11702
▁kred	-11703
ike	-11704
▁kolaydır	-11705
▁koşullar	-11706
▁açıklanan	-11707
▁Yukarıdaki	-11708
iti	-11709
▁Nilüfer	-11710
▁COVID	-11711
▁Rah	-11712
▁adrese	-11713
▁karışık	-11714
▁ÜCRETSİZ	-11715
ELİK	-11716
▁redded	-11717
ُو	-11718
▁bozukluğu	-11719
▁Dört	-11720
▁örgütü	-11721
▁yapılandırma	-11722
▁Priv	-11723
▁Satışı	-11724
üğe	-11725
▁IM	-11726
ININ	-11727
▁işten	-11728
▁fotoğraflar	-11729
▁çalışmaktadır	-11730
emeyecek	-11731
acağınızı	-11732
anyol	-11733
▁Mikro	-11734
▁kılın	-11735
▁toplanan	-11736
▁albüm	-11737
▁boyun	-11738
▁yılların	-11739
şun	-11740
▁Efendi	-11741
▁Şifremi	-11742
▁işlemlerin	-11743
.(	-11744
tiy	-11745
▁enter	-11746
uzun	-11747
ilmeye	-11748
▁Please	-11749
▁sunmaya	-11750
lerinizde	-11751
zet	-11752
oför	-11753
▁sag	-11754
▁gösteri	-11755
▁Ekrem	-11756
▁sıradan	-11757
▁kuruluşu	-11758
▁kral	-11759
▁tadı	-11760
▁villa	-11761
ehr	-11762
graf	-11763
▁hastalar	-11764
▁İşçi	-11765
▁kendime	-11766
Sh	-11767
luğun	-11768
▁Küfür	-11769
▁takib	-11770
▁Manşet	-11771
füm	-11772
▁cümle	-11773
RAF	-11774
▁Alım	-11775
xy	-11776
▁hareketi	-11777
▁Bitk	-11778
▁Abone	-11779
▁Camii	-11780
▁felsef	-11781
▁salonu	-11782
ladıktan	-11783
▁farkındalık	-11784
▁Lazer	-11785
▁parayı	-11786
▁Selçuklu	-11787
▁RT	-11788
▁kadros	-11789
ref	-11790
▁içindir	-11791
▁bran	-11792
▁vaj	-11793
▁full	-11794
▁kitapları	-11795
kusuz	-11796
▁ikna	-11797
MİR	-11798
▁pl	-11799
▁Tumblr	-11800
▁türkiye	-11801
▁Çak	-11802
▁katılmak	-11803
▁mg	-11804
▁cal	-11805
▁aldığ	-11806
▁Sözler	-11807
izma	-11808
kaya	-11809
▁Uydu	-11810
irmi	-11811
Title	-11812
viçre	-11813
▁gemi	-11814
▁Sorgul	-11815
▁verdik	-11816
▁gerçekleştirdi	-11817
▁Mete	-11818
iğeri	-11819
idiyeköy	-11820
▁Esenyurt	-11821
Sanat	-11822
bat	-11823
baz	-11824
epyeni	-11825
▁kazanır	-11826
gs	-11827
kn	-11828
▁SIR	-11829
▁ulaşabilir	-11830
ONOM	-11831
▁Arçelik	-11832
▁sınıfı	-11833
▁başından	-11834
▁değerini	-11835
▁Şehirler	-11836
▁ihtimali	-11837
Ön	-11838
▁adayı	-11839
▁War	-11840
▁Tavuk	-11841
▁videolar	-11842
ollow	-11843
▁Tahmin	-11844
▁faaliyetlerini	-11845
icdan	-11846
▁Kaçak	-11847
▁özelliğini	-11848
▁işlemlerinde	-11849
{{	-11850
▁Ir	-11851
▁Vek	-11852
▁Güçlü	-11853
▁lif	-11854
▁maçında	-11855
▁Prens	-11856
▁GÜNCEL	-11857
▁ikili	-11858
▁mahalle	-11859
▁konforlu	-11860
▁Det	-11861
▁Sir	-11862
▁kuruluşları	-11863
▁YAYIN	-11864
▁noktaya	-11865
▁yumurt	-11866
▁makul	-11867
▁bahigo	-11868
▁ilerleyen	-11869
tihar	-11870
▁değilse	-11871
dürülebilir	-11872
▁dilim	-11873
ake	-11874
▁Musk	-11875
▁OLDU	-11876
▁Hekim	-11877
URU	-11878
▁SAĞLIK	-11879
▁tanımlama	-11880
▁sözleşmeler	-11881
▁mit	-11882
oad	-11883
▁domates	-11884
▁projeleri	-11885
wei	-11886
▁Altı	-11887
▁yaşamını	-11888
▁Derin	-11889
▁duyul	-11890
▁anlatıyor	-11891
▁yaptığını	-11892
▁Satıcı	-11893
▁vatandaşların	-11894
▁bot	-11895
▁Bulgaristan	-11896
indedir	-11897
lıktan	-11898
▁sarf	-11899
▁derhal	-11900
osp	-11901
▁==	-11902
adası	-11903
▁suya	-11904
ılmaya	-11905
▁fantez	-11906
▁çizg	-11907
▁amaçlıdır	-11908
Net	-11909
▁deneyimini	-11910
▁Lir	-11911
▁Tom	-11912
▁Says	-11913
▁Bahçe	-11914
▁Davet	-11915
▁geldik	-11916
▁belirlem	-11917
,”	-11918
eterin	-11919
▁Intel	-11920
▁atmos	-11921
▁Meg	-11922
▁PTT	-11923
alılar	-11924
▁Yoğun	-11925
▁kuvvetli	-11926
▁oynamaya	-11927
▁NFT	-11928
▁Çal	-11929
echn	-11930
▁Ürünü	-11931
mî	-11932
ilerinde	-11933
ames	-11934
▁ilişkisi	-11935
umun	-11936
ownload	-11937
ehenn	-11938
▁Şampiyonası	-11939
▁Pub	-11940
▁sekiz	-11941
▁Prim	-11942
▁Store	-11943
▁kimin	-11944
▁aldığımız	-11945
▁olanların	-11946
▁USB	-11947
lop	-11948
larıdır	-11949
▁Yönetmen	-11950
▁KARGO	-11951
▁söyler	-11952
▁gönderildi	-11953
▁keşif	-11954
▁Gereken	-11955
▁arayarak	-11956
▁use	-11957
▁UYGUL	-11958
eğinden	-11959
▁ziyade	-11960
▁olmasın	-11961
İG	-11962
sitesi	-11963
▁kurallara	-11964
▁istediğini	-11965
▁elbis	-11966
▁rüzgar	-11967
▁dayanık	-11968
▁Görüntüleme	-11969
laşması	-11970
▁Sendik	-11971
▁Il	-11972
▁boyunda	-11973
iğimiz	-11974
▁rus	-11975
▁İcra	-11976
▁Blok	-11977
▁ilgilendir	-11978
▁Xia	-11979
▁mecbur	-11980
raç	-11981
▁İLGİLİ	-11982
▁gerçeği	-11983
▁gereksiz	-11984
astık	-11985
▁etmey	-11986
▁perde	-11987
▁Fikir	-11988
KEZ	-11989
▁Testi	-11990
▁peşin	-11991
▁Yaptır	-11992
▁kâr	-11993
▁Polonya	-11994
ularak	-11995
▁boşluk	-11996
▁tarayıcınızda	-11997
▁Arslan	-11998
▁Vizyon	-11999
▁İçinde	-12000
▁DET	-12001
âd	-12002
▁bonuslar	-12003
KAR	-12004
▁Ümit	-12005
okoloji	-12006
▁Onu	-12007
▁Yalçın	-12008
▁veriliyor	-12009
▁yayınları	-12010
▁pik	-12011
▁artışı	-12012
▁dünyadaki	-12013
Dün	-12014
lemi	-12015
▁dünyası	-12016
▁ertel	-12017
▁olurdu	-12018
▁olağanüstü	-12019
▁Enerj	-12020
Deniz	-12021
▁Birlik	-12022
▁Grafik	-12023
▁cemaat	-12024
▁çılgın	-12025
▁Zirv	-12026
▁bölümüne	-12027
▁Diyanet	-12028
▁kanseri	-12029
tor	-12030
▁Bed	-12031
▁Aziz	-12032
▁Hacı	-12033
tiğim	-12034
uki	-12035
unuzda	-12036
tive	-12037
ideki	-12038
▁banyo	-12039
▁kadına	-12040
▁yaratan	-12041
▁Çeşitli	-12042
▁karşısına	-12043
▁askı	-12044
▁sent	-12045
▁Taban	-12046
▁katıldığı	-12047
ým	-12048
▁silahlı	-12049
▁Tekstil	-12050
▁pür	-12051
▁ceph	-12052
▁Başarılı	-12053
▁ediyorlar	-12054
▁Mekt	-12055
Ah	-12056
yalar	-12057
ydi	-12058
▁basınç	-12059
▁etmeyin	-12060
▁Erkekler	-12061
▁BAS	-12062
iral	-12063
▁gelsin	-12064
▁Avustur	-12065
▁Kötü	-12066
▁Yaşar	-12067
▁ibaret	-12068
▁Mevzu	-12069
▁tarafınıza	-12070
▁kişiden	-12071
iliğinden	-12072
emde	-12073
▁Hayatı	-12074
',	-12075
▁ı	-12076
İVERS	-12077
▁boşalt	-12078
aday	-12079
▁ileti	-12080
▁mezar	-12081
▁adımlar	-12082
▁İmamoğlu	-12083
▁belirlemek	-12084
astr	-12085
▁yapmam	-12086
▁epey	-12087
▁stratejik	-12088
▁süresince	-12089
▁topar	-12090
▁paketleri	-12091
▁tamamlandı	-12092
▁yapılmalıdır	-12093
rid	-12094
til	-12095
REN	-12096
▁Tev	-12097
▁Filmi	-12098
▁ebeveyn	-12099
▁çiğ	-12100
▁bant	-12101
▁pres	-12102
▁tırnak	-12103
▁ked	-12104
abiye	-12105
▁atın	-12106
▁Erken	-12107
cen	-12108
▁hic	-12109
uawei	-12110
▁mesafe	-12111
▁yaşamış	-12112
▁öneri	-12113
▁Chat	-12114
Bel	-12115
▁klinik	-12116
▁sayfaları	-12117
replace	-12118
▁oyunlarını	-12119
▁cookie	-12120
▁Malzemeler	-12121
▁zarf	-12122
malıyız	-12123
▁bağlamda	-12124
▁Mali	-12125
▁Yöntemleri	-12126
itab	-12127
▁Sef	-12128
▁Yağmur	-12129
Mal	-12130
▁aksi	-12131
▁terörist	-12132
ülüyor	-12133
▁navig	-12134
▁Dök	-12135
chain	-12136
▁puff	-12137
)’	-12138
oşa	-12139
▁yel	-12140
lamayı	-12141
▁saatler	-12142
formation	-12143
▁kıymetli	-12144
▁HES	-12145
▁hikây	-12146
▁uydur	-12147
▁Boyut	-12148
pert	-12149
▁how	-12150
▁Firmalar	-12151
▁merdiven	-12152
▁Büt	-12153
▁tavan	-12154
▁İnsanların	-12155
▁rep	-12156
▁çorbası	-12157
▁puanı	-12158
▁patates	-12159
▁reklamları	-12160
hereum	-12161
▁artması	-12162
▁üretici	-12163
ÇEK	-12164
▁çöp	-12165
▁bölümünü	-12166
▁QR	-12167
▁Add	-12168
opark	-12169
▁reklamsız	-12170
▁mesela	-12171
▁diyorum	-12172
▁Yazan	-12173
▁yoruma	-12174
▁yapış	-12175
▁Yarışması	-12176
</	-12177
▁Belçika	-12178
INIZ	-12179
ümüze	-12180
▁olacağız	-12181
▁Big	-12182
▁Danışmanlığı	-12183
http	-12184
▁ihale	-12185
▁AKS	-12186
▁listelen	-12187
▁yapıya	-12188
▁prov	-12189
▁One	-12190
▁fal	-12191
▁Sitemizi	-12192
نَ	-12193
▁Akın	-12194
▁Yarım	-12195
▁erişimi	-12196
▁hangisi	-12197
▁yapanlar	-12198
ilat	-12199
▁kullanmaktadır	-12200
▁varlığını	-12201
▁Group	-12202
▁tanımak	-12203
▁Afyonkarahisar	-12204
').	-12205
gir	-12206
▁MAK	-12207
▁Ret	-12208
▁paralel	-12209
▁Pl	-12210
▁Bulut	-12211
▁oyununu	-12212
▁işlemlerinin	-12213
▁Süs	-12214
▁yüzü	-12215
▁Gelenek	-12216
▁açıklamalar	-12217
▁imkansız	-12218
▁görülüyor	-12219
uyorlar	-12220
▁Eyüp	-12221
▁Otobüs	-12222
▁bildirdi	-12223
▁bireylerin	-12224
▁fan	-12225
yaş	-12226
▁pilav	-12227
▁yüzük	-12228
▁Dublaj	-12229
▁Rezerv	-12230
melerine	-12231
▁we	-12232
abey	-12233
▁Poly	-12234
▁belirlenir	-12235
▁açıklamalarda	-12236
▁Kök	-12237
▁ısrar	-12238
▁resmen	-12239
▁Yönelik	-12240
leşi	-12241
dıklarını	-12242
▁grupları	-12243
▁aradığınız	-12244
▁DÖN	-12245
ersek	-12246
▁kont	-12247
▁dondur	-12248
▁öncelikli	-12249
▁mask	-12250
▁Özellikler	-12251
uydu	-12252
▁Çel	-12253
▁görünce	-12254
َل	-12255
LAYIN	-12256
▁Auth	-12257
▁yaban	-12258
▁edebilecek	-12259
▁Taksim	-12260
▁ÜNİVERS	-12261
▁Depolama	-12262
rome	-12263
ِي	-12264
▁duv	-12265
▁Rıza	-12266
▁Amatör	-12267
▁keyfi	-12268
▁duyduğu	-12269
▁CD	-12270
▁batı	-12271
hem	-12272
▁hemde	-12273
▁görünt	-12274
▁şunlardır	-12275
▁Sigara	-12276
▁yaşadık	-12277
▁maz	-12278
▁Ekipman	-12279
▁Telekom	-12280
adiş	-12281
▁Engin	-12282
amadığı	-12283
▁Makyaj	-12284
▁Pratik	-12285
▁Kalkınma	-12286
▁Eczan	-12287
▁akadem	-12288
▁cinayet	-12289
▁sebze	-12290
▁Nitekim	-12291
▁olurlar	-12292
oç	-12293
▁Fatma	-12294
▁ard	-12295
▁böyl	-12296
▁Macar	-12297
▁filmin	-12298
▁Bülten	-12299
▁nükleer	-12300
▁satım	-12301
▁Engelli	-12302
ülük	-12303
▁vaka	-12304
▁yapmalısınız	-12305
▁hazırlanmıştır	-12306
▁yüze	-12307
alarca	-12308
ÜLER	-12309
▁gelişimi	-12310
▁atmak	-12311
▁sendik	-12312
▁aldığını	-12313
▁Çekebilir	-12314
üğünü	-12315
Devlet	-12316
masyon	-12317
▁Mesaf	-12318
▁şahit	-12319
edikçe	-12320
acaklar	-12321
EX	-12322
▁SEV	-12323
▁dediği	-12324
▁teyit	-12325
▁şikây	-12326
▁mahallesi	-12327
▁çekebilir	-12328
▁elden	-12329
cid	-12330
otokop	-12331
▁kesme	-12332
▁kötül	-12333
▁Lastik	-12334
BR	-12335
▁Ayn	-12336
▁Mün	-12337
▁ört	-12338
▁Müşter	-12339
▁aralığ	-12340
▁seçilen	-12341
▁tıkanık	-12342
▁Videolar	-12343
▁kadınlara	-12344
LÜK	-12345
ater	-12346
▁Sov	-12347
▁kiral	-12348
▁somut	-12349
malıyım	-12350
▁özür	-12351
▁Aşağıda	-12352
▁Milletler	-12353
igür	-12354
▁Yel	-12355
unuzdan	-12356
▁aramak	-12357
▁FOT	-12358
▁bakmak	-12359
▁hallerde	-12360
▁veriyorum	-12361
▁YÜK	-12362
▁köşe	-12363
likten	-12364
▁bileşen	-12365
▁had	-12366
▁sünnet	-12367
tok	-12368
▁Gebze	-12369
▁Toplantısı	-12370
ADAN	-12371
▁sağlanmaktadır	-12372
▁duyulan	-12373
▁Ta	-12374
▁Oyna	-12375
▁gidiş	-12376
▁kadınları	-12377
▁istifa	-12378
▁deneyin	-12379
▁Öğrenciler	-12380
EMİ	-12381
encide	-12382
ciğer	-12383
▁kavr	-12384
▁İstiklal	-12385
YS	-12386
php	-12387
acağından	-12388
fan	-12389
▁app	-12390
▁kızıl	-12391
▁çıkardı	-12392
▁tamamladı	-12393
▁Yurtdışı	-12394
▁Hikayeler	-12395
▁seçeneğini	-12396
▁bon	-12397
inizdeki	-12398
▁piyasada	-12399
▁koyun	-12400
▁gerektirir	-12401
limi	-12402
uzel	-12403
▁Şubesi	-12404
▁Mc	-12405
▁örg	-12406
▁eline	-12407
▁yağış	-12408
▁Adınız	-12409
▁içecek	-12410
Kay	-12411
▁açılması	-12412
▁olduktan	-12413
▁HP	-12414
▁zem	-12415
İzmir	-12416
▁gazetec	-12417
▁rencide	-12418
▁Ediyor	-12419
▁Mercedes	-12420
▁Türbanlı	-12421
tv	-12422
delik	-12423
▁metr	-12424
ett	-12425
▁altyazılı	-12426
▁CANLI	-12427
▁mantık	-12428
▁Sitenin	-12429
▁GR	-12430
indan	-12431
▁döner	-12432
▁sport	-12433
▁çıkıp	-12434
▁Devletleri	-12435
▁Reddit	-12436
Twitter	-12437
▁müddet	-12438
▁inançlara	-12439
▁oyuncuların	-12440
Haber	-12441
▁güler	-12442
▁günümüze	-12443
▁kurucusu	-12444
▁hesapları	-12445
▁endüstriyel	-12446
▁doğrusu	-12447
▁Lojistik	-12448
▁toplantısında	-12449
▁Us	-12450
reen	-12451
▁SGK	-12452
edikal	-12453
▁Arşivi	-12454
▁konuyla	-12455
▁yönergesi	-12456
▁yöntemlerle	-12457
arık	-12458
▁medeniyet	-12459
▁uygulamasını	-12460
LEME	-12461
istir	-12462
▁Sevgi	-12463
▁yaptırmak	-12464
lash	-12465
▁BELED	-12466
▁ilanı	-12467
▁yazmış	-12468
?"	-12469
âs	-12470
dex	-12471
▁Ku	-12472
▁Pınar	-12473
▁eğilim	-12474
▁Denetim	-12475
▁Koronavirüs	-12476
▁komşu	-12477
▁edilmez	-12478
betin	-12479
▁Katıl	-12480
********	-12481
▁MEB	-12482
▁hel	-12483
▁Tart	-12484
▁hastalıklar	-12485
▁fotoğrafları	-12486
uval	-12487
▁Misafir	-12488
▁kiralık	-12489
▁Arabistan	-12490
ds	-12491
▁yaralandı	-12492
YK	-12493
▁gidecek	-12494
▁İsviçre	-12495
▁Çerezleri	-12496
adoğu	-12497
rettin	-12498
▁Abdül	-12499
▁hesabından	-12500
asus	-12501
▁Suresi	-12502
▁imzalan	-12503
▁çalışırken	-12504
by	-12505
iğinde	-12506
▁Travesti	-12507
▁laf	-12508
▁evli	-12509
▁Göztepe	-12510
raj	-12511
▁Suudi	-12512
vas	-12513
ping	-12514
ersen	-12515
▁iseniz	-12516
▁Yetişkin	-12517
▁örnekleri	-12518
▁zorunludur	-12519
▁kira	-12520
▁Diler	-12521
▁Komutan	-12522
▁Mükemmel	-12523
için	-12524
▁vermez	-12525
▁Ethereum	-12526
▁etkinlikleri	-12527
data	-12528
ekiz	-12529
▁Esn	-12530
▁Ajans	-12531
▁boyama	-12532
▁işlemin	-12533
▁yaptığım	-12534
▁Pin	-12535
ellef	-12536
▁razı	-12537
▁bastır	-12538
▁Sorumlusu	-12539
▁YOL	-12540
▁kadınım	-12541
▁bağışıklık	-12542
▁gerekenler	-12543
▁Um	-12544
▁Küp	-12545
▁imla	-12546
▁Kadir	-12547
▁Anında	-12548
▁amaçları	-12549
▁aşık	-12550
▁Pırlanta	-12551
▁Hid	-12552
▁gezi	-12553
▁gelecekte	-12554
▁oyuncuları	-12555
▁konusundaki	-12556
tain	-12557
▁SOSYAL	-12558
As	-12559
▁Dışı	-12560
IMIZDA	-12561
▁Sayfası	-12562
▁izleyen	-12563
no	-12564
▁KO	-12565
lılar	-12566
▁çanta	-12567
▁Kamera	-12568
▁Maliye	-12569
Ev	-12570
▁haftanın	-12571
▁Akademik	-12572
▁kurucu	-12573
▁Bağlant	-12574
▁dükkan	-12575
ote	-12576
▁sorumlusu	-12577
▁REK	-12578
▁SSL	-12579
▁Çavuş	-12580
▁Referans	-12581
▁Beyoğlu	-12582
aciğer	-12583
▁canlandır	-12584
▁getirerek	-12585
▁markaları	-12586
▁etkinlikler	-12587
▁itiraf	-12588
ozit	-12589
▁Fas	-12590
▁sonradan	-12591
iba	-12592
yor	-12593
▁into	-12594
▁karn	-12595
opar	-12596
iyorsa	-12597
▁resimler	-12598
ath	-12599
▁Planı	-12600
ümüzün	-12601
▁Restor	-12602
▁ilgisi	-12603
▁devamlı	-12604
▁operasyonu	-12605
▁müthiş	-12606
▁adresiniz	-12607
▁insanlarla	-12608
▁aktarıldığı	-12609
▁istediğim	-12610
▁Hel	-12611
▁Gold	-12612
uyordu	-12613
▁sevinirim	-12614
.'	-12615
▁Aut	-12616
NAK	-12617
▁MERKEZ	-12618
ünce	-12619
▁savaşı	-12620
▁İslami	-12621
▁Sözleri	-12622
▁eyalet	-12623
▁SPOR	-12624
▁Biden	-12625
▁gönderim	-12626
▁seyret	-12627
anızın	-12628
efkoşa	-12629
▁kaygı	-12630
▁Mol	-12631
▁Fikst	-12632
▁Afganistan	-12633
DUR	-12634
yani	-12635
▁YÖNET	-12636
▁Karakter	-12637
”.	-12638
▁Bilm	-12639
▁İddi	-12640
liyorum	-12641
▁mezunu	-12642
▁bugünkü	-12643
▁hev	-12644
▁düşt	-12645
▁Oyuncular	-12646
▁Uyku	-12647
▁Olsun	-12648
▁İleri	-12649
▁ruhsat	-12650
▁Ecz	-12651
▁Akl	-12652
▁GÖN	-12653
▁kültürü	-12654
▁Sıralama	-12655
▁merkezleri	-12656
▁içeriklerin	-12657
▁bilgilerinin	-12658
Ch	-12659
ister	-12660
ikolat	-12661
▁Twit	-12662
▁sponsor	-12663
ANI	-12664
▁inci	-12665
▁destekleyen	-12666
▁CM	-12667
▁Wh	-12668
▁Çiğ	-12669
averse	-12670
ýz	-12671
emem	-12672
▁Burun	-12673
▁iyisi	-12674
▁kast	-12675
▁Sivil	-12676
tanımlı	-12677
▁indirme	-12678
▁bireyler	-12679
▁lisanslı	-12680
▁imalar	-12681
biyen	-12682
▁Dili	-12683
▁başkenti	-12684
rest	-12685
▁hatası	-12686
aden	-12687
arları	-12688
aksiyon	-12689
▁Mesleki	-12690
erc	-12691
▁Yör	-12692
diveni	-12693
▁Hepsi	-12694
▁taciz	-12695
▁Renkli	-12696
▁kardeşim	-12697
Rus	-12698
iyetini	-12699
▁kelimeler	-12700
Con	-12701
▁MET	-12702
iğine	-12703
▁İhracat	-12704
ute	-12705
▁başlıca	-12706
▁havalim	-12707
▁yazıyı	-12708
▁bankalar	-12709
▁hissi	-12710
▁global	-12711
İnsan	-12712
▁sus	-12713
ocket	-12714
▁chat	-12715
▁yansım	-12716
Ürün	-12717
▁çözünür	-12718
▁çeşitliliği	-12719
▁şaş	-12720
TALYA	-12721
▁birebir	-12722
Re	-12723
▁dilerim	-12724
USU	-12725
▁yorumda	-12726
▁yargılan	-12727
▁heyet	-12728
▁buradaki	-12729
ayabilirsiniz	-12730
▁Bahçelievler	-12731
ABD	-12732
▁Kül	-12733
avv	-12734
▁Ayı	-12735
ato	-12736
oom	-12737
▁Cap	-12738
▁Zel	-12739
ONU	-12740
ürt	-12741
▁hatun	-12742
osistem	-12743
▁sınırı	-12744
▁dosyalar	-12745
▁sözcük	-12746
▁kodları	-12747
▁sade	-12748
▁Özer	-12749
▁hamur	-12750
▁sorusu	-12751
▁etkileyici	-12752
▁DEST	-12753
▁kokusu	-12754
eksi	-12755
index	-12756
▁zira	-12757
▁atıf	-12758
▁Yapıl	-12759
Tar	-12760
cam	-12761
işimi	-12762
▁komün	-12763
▁bağırsak	-12764
▁deneyimler	-12765
üsünde	-12766
▁geçiren	-12767
▁tarama	-12768
şan	-12769
▁İnce	-12770
▁kullandığınız	-12771
▁ba	-12772
▁siteden	-12773
▁makinası	-12774
▁çır	-12775
▁bayrak	-12776
▁maltepe	-12777
▁elinden	-12778
▁protesto	-12779
▁sonuçlarını	-12780
▁Reg	-12781
▁YOK	-12782
bih	-12783
mine	-12784
▁pdf	-12785
Detay	-12786
▁Aktiv	-12787
▁benims	-12788
▁Büyükel	-12789
▁SİZ	-12790
▁madenc	-12791
▁yazılmamış	-12792
▁yasadışı	-12793
▁anladım	-12794
▁Arapça	-12795
▁meme	-12796
miyorum	-12797
Ge	-12798
sch	-12799
ices	-12800
▁daire	-12801
▁donat	-12802
▁gençler	-12803
ULU	-12804
ima	-12805
▁Up	-12806
izler	-12807
▁eserleri	-12808
▁homeopati	-12809
oşet	-12810
lunun	-12811
▁yazıda	-12812
▁illegal	-12813
▁bahisler	-12814
DP	-12815
▁hakem	-12816
▁Yapay	-12817
▁kararlar	-12818
leştirilmiş	-12819
▁Yönetmeliği	-12820
▁Lib	-12821
▁konuşt	-12822
▁aldığım	-12823
▁olmayabilir	-12824
ody	-12825
izmi	-12826
▁haş	-12827
iyeleri	-12828
▁EKONOM	-12829
not	-12830
▁demokrasi	-12831
▁Melek	-12832
▁kurulması	-12833
eşim	-12834
▁anlatım	-12835
▁_	-12836
▁Önerileri	-12837
▁ahlaka	-12838
▁idare	-12839
▁Çevir	-12840
▁oradan	-12841
▁onlarla	-12842
▁aldıktan	-12843
eya	-12844
▁Heps	-12845
ahtarı	-12846
▁vermeyi	-12847
iva	-12848
atta	-12849
▁Isı	-12850
▁Sof	-12851
▁col	-12852
▁spam	-12853
▁Kampanya	-12854
▁abonelik	-12855
TAR	-12856
▁Örgütü	-12857
▁birinde	-12858
▁burç	-12859
ico	-12860
▁Ris	-12861
▁Tablet	-12862
▁hedefi	-12863
▁talepleri	-12864
ento	-12865
▁manzar	-12866
▁misyon	-12867
▁ulaşan	-12868
▁halkının	-12869
ilmeli	-12870
diğinizde	-12871
▁İK	-12872
ockchain	-12873
▁Eklenen	-12874
ılırken	-12875
▁Siteye	-12876
▁işaretleyin	-12877
▁TAM	-12878
▁Turan	-12879
▁Kişilik	-12880
▁etmeleri	-12881
▁olmayacaktır	-12882
ier	-12883
▁Nas	-12884
▁HEMEN	-12885
▁perakende	-12886
▁Pot	-12887
▁Tap	-12888
larımla	-12889
▁sıralam	-12890
▁yoldan	-12891
ecessary	-12892
▁etmenin	-12893
▁Çalışmaları	-12894
▁ittifak	-12895
▁Bireysel	-12896
▁çağdaş	-12897
▁Comp	-12898
▁Girne	-12899
▁yemin	-12900
▁çür	-12901
▁maddenin	-12902
▁nok	-12903
▁macer	-12904
▁tutuklandı	-12905
▁arıyorsanız	-12906
▁atabilirsiniz	-12907
("	-12908
▁elbise	-12909
osman	-12910
▁Hediy	-12911
zı	-12912
book	-12913
▁yarattığı	-12914
oza	-12915
▁bakarak	-12916
▁HAKKINDA	-12917
▁used	-12918
adişah	-12919
▁Hamilelik	-12920
sün	-12921
mede	-12922
▁Mert	-12923
▁Hafif	-12924
wal	-12925
▁Beb	-12926
▁Toptan	-12927
▁söylemiş	-12928
▁YAPIL	-12929
▁mekân	-12930
▁Boyama	-12931
▁gözler	-12932
▁KİM	-12933
▁sömür	-12934
▁gerekebilir	-12935
▁burcu	-12936
▁Elit	-12937
▁kalmaz	-12938
▁kaydol	-12939
▁iyileştirmek	-12940
beyli	-12941
▁Birkaç	-12942
▁bankan	-12943
MB	-12944
▁oyuna	-12945
▁zafer	-12946
▁Tamamen	-12947
▁herkesi	-12948
▁bulma	-12949
masıdır	-12950
▁yükselen	-12951
▁DÜZ	-12952
▁andan	-12953
▁bölgenin	-12954
▁bölgesel	-12955
▁olursanız	-12956
eyerek	-12957
▁hafız	-12958
▁kürtaj	-12959
▁üstteki	-12960
▁eksikliği	-12961
▁almaz	-12962
lilerin	-12963
pag	-12964
▁UZ	-12965
dekiler	-12966
▁sensör	-12967
▁memleket	-12968
▁ziyareti	-12969
larınızla	-12970
▁Nis	-12971
▁Kızılay	-12972
adok	-12973
▁Kalan	-12974
▁Huawei	-12975
▁Garant	-12976
▁girdiği	-12977
▁muhtemel	-12978
ediğin	-12979
▁işveren	-12980
▁nakl	-12981
▁Lav	-12982
▁Kaplama	-12983
▁Yılbaşı	-12984
memektedir	-12985
▁BİLİ	-12986
▁Okuma	-12987
▁adımları	-12988
▁göstergesi	-12989
▁yaşar	-12990
▁Vide	-12991
▁Semih	-12992
▁görevli	-12993
▁Jandarma	-12994
▁paylaşılan	-12995
▁Fl	-12996
▁lez	-12997
lamada	-12998
▁verdiğini	-12999
▁Ag	-13000
▁});	-13001
▁menü	-13002
▁tabir	-13003
▁kepenk	-13004
▁Cerrahi	-13005
▁verirken	-13006
doğu	-13007
▁kullanışlı	-13008
akar	-13009
▁çalışmasını	-13010
ZON	-13011
▁toptan	-13012
▁Berlin	-13013
▁hâkim	-13014
▁Xiaomi	-13015
▁siyasal	-13016
▁oldugunu	-13017
▁DO	-13018
▁HAV	-13019
▁atılan	-13020
▁gördüğünüz	-13021
▁Eden	-13022
▁plaj	-13023
▁birtakım	-13024
▁ülkeleri	-13025
▁ürünlerde	-13026
▁doğalgaz	-13027
îm	-13028
▁kredisi	-13029
-)	-13030
enen	-13031
ision	-13032
▁Bilimler	-13033
▁Erdem	-13034
▁semptom	-13035
▁tren	-13036
▁qu	-13037
▁Şüph	-13038
▁belirler	-13039
▁Telefonu	-13040
▁başlamadan	-13041
▁fabrika	-13042
▁alışkanlık	-13043
rap	-13044
ümüzü	-13045
▁Dönemi	-13046
▁Ödülleri	-13047
▁Stan	-13048
▁kullanılıyor	-13049
▁saklan	-13050
▁açılmış	-13051
▁müşterilerin	-13052
irse	-13053
▁Eren	-13054
▁tavır	-13055
▁Çamaşır	-13056
▁Roman	-13057
▁bizde	-13058
▁olayları	-13059
▁Sahabet	-13060
▁faturası	-13061
idir	-13062
▁emr	-13063
▁küm	-13064
▁Zinc	-13065
▁Çanta	-13066
▁Marmaris	-13067
▁adlandırılan	-13068
aseb	-13069
eteriner	-13070
SM	-13071
burnu	-13072
▁büyüyen	-13073
▁muhabbet	-13074
▁Şerif	-13075
▁KÖ	-13076
ersp	-13077
▁Anti	-13078
▁kaleme	-13079
Dünya	-13080
▁HAKKIMIZDA	-13081
▁Programları	-13082
iyenin	-13083
▁haliyle	-13084
▁olursak	-13085
▁uygulamayı	-13086
▁hesaba	-13087
▁iktis	-13088
▁şehirde	-13089
▁TIKLAYIN	-13090
▁açıp	-13091
▁hepimiz	-13092
▁montajı	-13093
EF	-13094
][	-13095
▁çif	-13096
▁Mide	-13097
▁bilgilerine	-13098
▁Mit	-13099
▁kucak	-13100
▁Festival	-13101
▁Otomotiv	-13102
▁FİYAT	-13103
ocument	-13104
▁İllegal	-13105
▁kolaylık	-13106
OCA	-13107
▁riv	-13108
tayım	-13109
▁kitle	-13110
▁internette	-13111
▁metn	-13112
▁düzeni	-13113
▁toplama	-13114
▁sağlamaya	-13115
ivan	-13116
▁sir	-13117
▁boğaz	-13118
▁sözlü	-13119
▁Psikoloji	-13120
limp	-13121
salar	-13122
▁restoran	-13123
▁değerinde	-13124
▁diyebiliriz	-13125
▁Brezilya	-13126
Man	-13127
▁Kilit	-13128
▁köprü	-13129
▁Lefkoşa	-13130
▁Örgü	-13131
▁HAR	-13132
▁best	-13133
▁mineral	-13134
▁gösterebilir	-13135
▁more	-13136
▁kimseye	-13137
▁kaldım	-13138
▁şimdiye	-13139
▁ÇOC	-13140
dığından	-13141
▁alacağınız	-13142
CD	-13143
fect	-13144
▁MAS	-13145
▁Tüketici	-13146
▁Ziyaretçi	-13147
▁Inc	-13148
▁bahçe	-13149
▁süpür	-13150
▁Uygulamalar	-13151
▁çeyr	-13152
▁Mesafeli	-13153
fuk	-13154
▁adil	-13155
▁forex	-13156
▁Kütüphan	-13157
▁vakti	-13158
.....	-13159
▁month	-13160
▁Cevaplar	-13161
PO	-13162
▁TAŞ	-13163
▁Estetik	-13164
▁nedenleri	-13165
▁aynen	-13166
eceğinizi	-13167
▁modeller	-13168
▁Vbet	-13169
▁nişan	-13170
▁Hint	-13171
▁Asgari	-13172
▁Mühendislik	-13173
▁Esra	-13174
▁Başladı	-13175
▁gerçekleştiren	-13176
▁time	-13177
▁VERİLERİN	-13178
▁seviyesine	-13179
▁ekim	-13180
▁Mahk	-13181
ragman	-13182
▁zorla	-13183
gusu	-13184
▁simg	-13185
▁MEDYA	-13186
▁verilere	-13187
biz	-13188
▁şeref	-13189
▁boyutlu	-13190
▁vücudun	-13191
▁tedavisinde	-13192
▁maçta	-13193
luğunda	-13194
▁Fethiye	-13195
▁tarihinin	-13196
ANT	-13197
▁rot	-13198
▁alev	-13199
▁ikiye	-13200
▁Tüp	-13201
▁kıyı	-13202
pozyum	-13203
▁hastane	-13204
▁imalatı	-13205
bağ	-13206
▁Bozuk	-13207
olasyon	-13208
▁böbrek	-13209
ivri	-13210
▁BAŞV	-13211
▁Sad	-13212
▁Demek	-13213
▁kütüphan	-13214
▁sayfalar	-13215
▁Mars	-13216
▁Adnan	-13217
▁Aracı	-13218
▁Serbest	-13219
aydın	-13220
▁fiyatlı	-13221
▁özelliklere	-13222
LIĞI	-13223
▁uzaklaştır	-13224
▁artı	-13225
▁burs	-13226
▁milletvek	-13227
▁Hur	-13228
▁DESTEK	-13229
▁Deprem	-13230
▁Sitene	-13231
▁oynayan	-13232
▁çeyrek	-13233
▁İskender	-13234
▁alınmadan	-13235
onomik	-13236
▁azaltmak	-13237
yası	-13238
▁aksiyon	-13239
▁Rek	-13240
▁Birimi	-13241
▁Patent	-13242
▁oturma	-13243
▁güvence	-13244
▁Gayrimenkul	-13245
kz	-13246
tüel	-13247
▁Şim	-13248
▁sıralan	-13249
▁yükleme	-13250
ix	-13251
▁Bürosu	-13252
▁kararları	-13253
ky	-13254
igh	-13255
istal	-13256
alarak	-13257
▁ALTIN	-13258
▁havale	-13259
▁Taraftar	-13260
▁coşk	-13261
▁Güler	-13262
▁kimliği	-13263
▁Aslı	-13264
▁Fırın	-13265
▁sürdürüyor	-13266
▁temsilcisi	-13267
▁dönüm	-13268
▁Hesaplama	-13269
▁yang	-13270
▁Atlan	-13271
▁tarafta	-13272
▁Çevrimiçi	-13273
barek	-13274
▁yaşamaya	-13275
▁verilerinizi	-13276
▁konumlandırmak	-13277
▁sordu	-13278
▁ağı	-13279
▁İsa	-13280
▁parçalar	-13281
▁Yüzyıl	-13282
▁verilerine	-13283
▁co	-13284
▁Vegan	-13285
anyetik	-13286
abilecekleri	-13287
▁Akş	-13288
▁OKU	-13289
▁YAN	-13290
▁Valisi	-13291
▁avcılar	-13292
▁sorgulama	-13293
▁yaşındayım	-13294
▁düşünüyorsanız	-13295
cusu	-13296
▁Altay	-13297
▁edemez	-13298
▁günlerinde	-13299
▁seviyesinde	-13300
▁Nokta	-13301
▁öncel	-13302
▁Sancak	-13303
▁yakında	-13304
▁sunmaktayız	-13305
▁TEKNİK	-13306
▁kullanıc	-13307
iyum	-13308
▁layık	-13309
LARIMIZ	-13310
▁oz	-13311
▁Leg	-13312
onlar	-13313
▁dönük	-13314
▁onlardan	-13315
▁sürecinin	-13316
ojen	-13317
üven	-13318
▁ihraç	-13319
▁Yolları	-13320
bulans	-13321
▁Sap	-13322
▁avantajı	-13323
▁Ford	-13324
▁konsept	-13325
▁ışığı	-13326
▁Felsefe	-13327
▁Atık	-13328
ategories	-13329
pir	-13330
sijen	-13331
att	-13332
▁Şeyh	-13333
▁sarışın	-13334
MU	-13335
▁Kud	-13336
▁isyan	-13337
▁liraya	-13338
▁koyu	-13339
▁niye	-13340
▁Sarışın	-13341
▁bölgelerde	-13342
▁mutlak	-13343
▁endişe	-13344
ısındaki	-13345
▁etmeyen	-13346
ward	-13347
▁AMA	-13348
▁söndür	-13349
▁ameliyatı	-13350
▁paylaşımı	-13351
▁olabileceğini	-13352
▁genetik	-13353
▁kategori	-13354
aker	-13355
▁Küb	-13356
▁Puzzle	-13357
lediğimiz	-13358
▁bırakmak	-13359
▁Geleneksel	-13360
Düz	-13361
nel	-13362
▁Verileri	-13363
▁Sürdürülebilir	-13364
lig	-13365
▁SAH	-13366
▁kıyasla	-13367
▁Koruyucu	-13368
▁Belli	-13369
▁bitkisel	-13370
▁geldiniz	-13371
ass	-13372
dirme	-13373
efabrik	-13374
GÜN	-13375
▁Vip	-13376
ashion	-13377
▁Search	-13378
▁amacına	-13379
▁dayanan	-13380
▁Kok	-13381
▁Basit	-13382
▁hükümlerine	-13383
ebilecektir	-13384
ağlık	-13385
▁taşır	-13386
▁Çukur	-13387
aks	-13388
cept	-13389
▁kalması	-13390
▁insanlık	-13391
▁gönderilir	-13392
acag	-13393
▁Almanca	-13394
cileri	-13395
▁bölümleri	-13396
Doğ	-13397
late	-13398
▁Taksi	-13399
▁pişman	-13400
▁tecavüz	-13401
▁çalışıyorum	-13402
The	-13403
▁Fikstürü	-13404
▁altındadır	-13405
▁gerektiğinde	-13406
geçmiş	-13407
ınızdaki	-13408
atan	-13409
▁DS	-13410
▁okula	-13411
▁Koş	-13412
▁Ücreti	-13413
▁işçiler	-13414
▁Ül	-13415
arka	-13416
▁mısınız	-13417
▁Alanları	-13418
▁kurtulun	-13419
▁kendimizi	-13420
▁sahiplerinin	-13421
latan	-13422
▁sağladı	-13423
▁kapsayan	-13424
▁tanır	-13425
▁tezgah	-13426
▁yapıyorsunuz	-13427
▁php	-13428
izmin	-13429
▁Betp	-13430
laşmış	-13431
▁Smart	-13432
▁getirildi	-13433
eed	-13434
off	-13435
▁Yetkili	-13436
İLM	-13437
▁seviye	-13438
▁çalışanların	-13439
▁Paketi	-13440
▁paralar	-13441
▁kazandıran	-13442
avori	-13443
▁Bask	-13444
▁artar	-13445
▁Levent	-13446
▁Ortadoğu	-13447
▁{{/	-13448
acaat	-13449
▁gidin	-13450
▁desteklemek	-13451
▁yöneticileri	-13452
İDEO	-13453
▁POP	-13454
▁bam	-13455
▁duran	-13456
▁AVM	-13457
▁zev	-13458
▁sonlandır	-13459
urn	-13460
▁muayen	-13461
▁karşınıza	-13462
▁cezalandır	-13463
▁araştırmacı	-13464
▁olabileceği	-13465
MI	-13466
▁Lor	-13467
▁kıt	-13468
▁Alma	-13469
▁Turkey	-13470
▁Bence	-13471
▁arttırmak	-13472
şen	-13473
▁destekler	-13474
▁Şti	-13475
▁yeryüz	-13476
▁Ton	-13477
▁Banyo	-13478
▁Birleşmiş	-13479
▁Piş	-13480
iliğin	-13481
▁Firması	-13482
▁hayatının	-13483
▁kampanyası	-13484
▁Yüce	-13485
luklar	-13486
▁türüdür	-13487
▁İhtiyaç	-13488
▁motosiklet	-13489
▁içe	-13490
▁krom	-13491
▁Türkmen	-13492
▁Olimp	-13493
ilasyon	-13494
▁BAĞ	-13495
▁Bot	-13496
▁Birlikte	-13497
▁seviyeye	-13498
uhaf	-13499
▁Mobile	-13500
kıl	-13501
▁kılavuz	-13502
▁olabildiğince	-13503
▁etmesini	-13504
▁Sû	-13505
▁takson	-13506
▁Bilimsel	-13507
▁noktaları	-13508
▁öykü	-13509
▁taktir	-13510
arm	-13511
▁paylaşıl	-13512
▁hastalığın	-13513
▁avrupa	-13514
▁araçların	-13515
▁teminat	-13516
▁anlaşmalı	-13517
▁tasarlanmıştır	-13518
▁kalmadı	-13519
▁kitaplar	-13520
▁ederseniz	-13521
▁unutulmaz	-13522
▁molek	-13523
acan	-13524
▁algıl	-13525
▁bülten	-13526
▁öğrencisi	-13527
▁Kongresi	-13528
▁Yalı	-13529
▁bitti	-13530
▁listel	-13531
▁noktasına	-13532
▁bakıldığında	-13533
▁mesl	-13534
▁Vef	-13535
▁doğu	-13536
▁irad	-13537
▁Linux	-13538
▁Hazine	-13539
nem	-13540
▁katli	-13541
▁eklemek	-13542
▁eğitime	-13543
▁Arkadaşlar	-13544
aşma	-13545
▁Cookie	-13546
eyz	-13547
▁Duası	-13548
▁emper	-13549
▁aldıkları	-13550
▁ilim	-13551
▁yarısı	-13552
mo	-13553
lock	-13554
▁tahrik	-13555
▁Bağlantılar	-13556
ovasyon	-13557
▁Devrim	-13558
▁dayanarak	-13559
▁çalışanlar	-13560
icinin	-13561
▁konumda	-13562
▁fr	-13563
▁konuşul	-13564
▁TEKNOLOJİ	-13565
SI	-13566
▁titr	-13567
▁Coğraf	-13568
▁takılan	-13569
▁dolap	-13570
▁önlemleri	-13571
▁cooki	-13572
kış	-13573
üsüne	-13574
LERE	-13575
▁Gerilim	-13576
▁but	-13577
▁ilke	-13578
avar	-13579
▁Dek	-13580
▁seans	-13581
▁Uygulamaları	-13582
azzam	-13583
dayım	-13584
▁Ağız	-13585
▁kavg	-13586
▁gözlük	-13587
▁belirlenmesi	-13588
▁seçebilirsiniz	-13589
▁yürüm	-13590
▁üyenin	-13591
▁oranlar	-13592
▁International	-13593
▁Neb	-13594
▁görünümü	-13595
▁Kongre	-13596
▁eserin	-13597
▁düşündüğünüz	-13598
▁Şük	-13599
▁Şarj	-13600
▁arıyorum	-13601
ites	-13602
▁Nüf	-13603
▁SMM	-13604
▁şarap	-13605
▁Haftalık	-13606
ifi	-13607
▁prensip	-13608
▁tercihi	-13609
eğim	-13610
ıcılar	-13611
▁ıslak	-13612
▁Saldır	-13613
▁Öncesi	-13614
▁önemini	-13615
▁doğrultuda	-13616
▁ÜREK	-13617
▁Kurtuluş	-13618
▁esenyurt	-13619
amanızı	-13620
▁eklenen	-13621
▁verilerini	-13622
plant	-13623
▁kronik	-13624
▁tedbirleri	-13625
das	-13626
▁ceb	-13627
kullan	-13628
▁Gebelik	-13629
▁bakter	-13630
▁kopyalanamaz	-13631
▁pirinç	-13632
ezya	-13633
▁diyabet	-13634
İl	-13635
▁yağlı	-13636
▁Harika	-13637
▁Randevu	-13638
▁odaları	-13639
▁Değişiklik	-13640
▁birliktelik	-13641
ülerek	-13642
▁tırman	-13643
ümde	-13644
▁Erol	-13645
▁katman	-13646
▁Som	-13647
lenmeye	-13648
▁standar	-13649
▁markalar	-13650
▁sürdüren	-13651
▁girecek	-13652
▁önlemler	-13653
▁arkadaşlık	-13654
▁Game	-13655
▁Şark	-13656
▁DÜNYA	-13657
▁atarak	-13658
▁Bulutlu	-13659
▁Gökhan	-13660
▁yoğurt	-13661
▁indirimli	-13662
▁makaleler	-13663
▁şekillendir	-13664
Çok	-13665
▁mutluluğ	-13666
oster	-13667
▁stil	-13668
▁şüphesiz	-13669
▁Paylaşım	-13670
▁algorit	-13671
▁gayrimenkul	-13672
artma	-13673
▁bulgu	-13674
▁Asker	-13675
▁Faruk	-13676
▁Tatar	-13677
▁İmar	-13678
winfo	-13679
iğinin	-13680
▁Internet	-13681
▁hususunda	-13682
▁imkânı	-13683
▁açıklan	-13684
▁dışarıdan	-13685
▁İhale	-13686
▁dileriz	-13687
▁Alüminyum	-13688
▁çadır	-13689
elawinfo	-13690
▁Elbise	-13691
▁cookielawinfo	-13692
▁BÖLÜM	-13693
▁Bunlara	-13694
ont	-13695
baba	-13696
▁YAK	-13697
▁linki	-13698
▁To	-13699
▁doğrulama	-13700
ng	-13701
▁vakt	-13702
▁gecesi	-13703
▁kocaeli	-13704
▁Eğit	-13705
▁Lise	-13706
▁buldum	-13707
▁Altyapı	-13708
▁sitedeki	-13709
▁Temizleme	-13710
edd	-13711
Filter	-13712
▁Theme	-13713
üzg	-13714
▁gergin	-13715
▁İçeriği	-13716
▁vurgulayan	-13717
▁Devr	-13718
▁dergi	-13719
▁geldim	-13720
oint	-13721
▁Dog	-13722
▁Toplu	-13723
▁Bizler	-13724
▁Kumar	-13725
read	-13726
▁bilgisini	-13727
▁faaliyetlerinin	-13728
TD	-13729
▁kurut	-13730
▁King	-13731
▁yüklü	-13732
▁Sandal	-13733
▁Avusturya	-13734
oksi	-13735
idin	-13736
▁Kilo	-13737
▁varmış	-13738
▁Bostancı	-13739
▁gönderme	-13740
▁olanları	-13741
▁çekirdek	-13742
!)	-13743
▁KİT	-13744
ington	-13745
▁başlattı	-13746
▁anlamıyla	-13747
▁Kullanılır	-13748
▁danışmanlığı	-13749
▁Hor	-13750
cıları	-13751
▁berek	-13752
▁yapacağı	-13753
▁Umar	-13754
idd	-13755
▁Akar	-13756
▁Uyar	-13757
▁sorusuna	-13758
▁Koy	-13759
▁maske	-13760
▁bakımdan	-13761
▁problemleri	-13762
▁Berk	-13763
ekteki	-13764
▁mekanik	-13765
malarının	-13766
eng	-13767
▁manş	-13768
▁mahal	-13769
▁olanağı	-13770
▁portföy	-13771
▁oluşuyor	-13772
AND	-13773
indir	-13774
▁doğdu	-13775
▁uzanan	-13776
▁yollar	-13777
loud	-13778
tıkça	-13779
▁Yeter	-13780
▁Hon	-13781
▁sac	-13782
▁Arka	-13783
▁cild	-13784
leks	-13785
▁Kos	-13786
▁vekil	-13787
▁ülkeden	-13788
▁ihtil	-13789
SEL	-13790
▁mp	-13791
▁oluştu	-13792
▁Takı	-13793
▁zorlan	-13794
▁sitelerde	-13795
▁ortağı	-13796
▁bitkiler	-13797
▁yönetmelik	-13798
işisel	-13799
▁Portekiz	-13800
▁programına	-13801
▁temsilcileri	-13802
▁lazer	-13803
▁total	-13804
▁yavru	-13805
ýl	-13806
çuk	-13807
inler	-13808
▁üzüm	-13809
▁dersi	-13810
▁Boyutu	-13811
▁programında	-13812
▁Tol	-13813
alesi	-13814
▁Kablo	-13815
▁Uzaktan	-13816
▁zik	-13817
▁peynir	-13818
▁cidd	-13819
ablon	-13820
▁sayısına	-13821
▁çikolata	-13822
▁ibar	-13823
▁vicdan	-13824
▁yepyeni	-13825
▁içeriklerden	-13826
eyince	-13827
obahis	-13828
▁müslüm	-13829
üntü	-13830
▁Puanı	-13831
▁formunu	-13832
▁Seni	-13833
▁liste	-13834
▁yaşandı	-13835
▁KUM	-13836
▁Gölü	-13837
XX	-13838
For	-13839
▁Ba	-13840
▁Zayıf	-13841
▁sıkıl	-13842
▁onaylı	-13843
▁şekeri	-13844
▁iştirak	-13845
▁tahliye	-13846
▁tüketimi	-13847
▁arkadaşlarımız	-13848
▁nazaran	-13849
▁müşteriye	-13850
▁iv	-13851
▁kutsal	-13852
▁Keçi	-13853
▁Gerekenler	-13854
▁arkadaşları	-13855
emedi	-13856
egment	-13857
▁açığa	-13858
▁sanık	-13859
▁Çerkes	-13860
izle	-13861
▁Esenler	-13862
alizm	-13863
▁BL	-13864
▁çalıştı	-13865
▁sahiplerine	-13866
▁santral	-13867
▁tabidir	-13868
▁Orijinal	-13869
▁comments	-13870
▁hastaneye	-13871
now	-13872
▁Sana	-13873
▁taht	-13874
▁oraya	-13875
▁silme	-13876
▁çeviri	-13877
▁uyarısı	-13878
▁Buzdolabı	-13879
▁yıllarında	-13880
ely	-13881
▁Alper	-13882
▁kursu	-13883
▁Mahall	-13884
▁kapsamı	-13885
▁projenin	-13886
▁yaratmak	-13887
▁sül	-13888
ita	-13889
▁Nem	-13890
▁months	-13891
▁düşünceler	-13892
udio	-13893
▁sözlük	-13894
▁sisteminde	-13895
▁verdikleri	-13896
▁teknolojinin	-13897
ıştı	-13898
content	-13899
▁mantıklı	-13900
dinde	-13901
iness	-13902
▁keskin	-13903
▁söyleyebiliriz	-13904
▁görüldü	-13905
endiğiniz	-13906
▁Muhar	-13907
▁devleti	-13908
▁hizmetlerden	-13909
eklik	-13910
▁Şuan	-13911
▁Blackjack	-13912
▁yapıldığını	-13913
romu	-13914
gören	-13915
▁mantar	-13916
▁car	-13917
▁free	-13918
▁içerikli	-13919
▁görülebilir	-13920
Değ	-13921
▁icr	-13922
▁Türü	-13923
acının	-13924
▁ferah	-13925
IŞI	-13926
check	-13927
ropol	-13928
▁içten	-13929
▁İNSAN	-13930
▁emanet	-13931
▁ml	-13932
▁Ulaşım	-13933
Bak	-13934
▁Fed	-13935
▁aya	-13936
acası	-13937
▁mült	-13938
ımızla	-13939
▁YÜZ	-13940
▁erkeğin	-13941
▁listesinde	-13942
▁>>	-13943
ceği	-13944
▁Davut	-13945
▁gerilim	-13946
▁hazırlanıyor	-13947
my	-13948
▁=>	-13949
sest	-13950
▁taşımaktadır	-13951
▁okumaya	-13952
▁desteklem	-13953
▁gönderelim	-13954
▁pasta	-13955
▁Gaming	-13956
▁karşılay	-13957
▁fas	-13958
luğuna	-13959
▁Projeleri	-13960
▁وَ	-13961
▁Spr	-13962
pazarı	-13963
▁ZİY	-13964
▁çorba	-13965
ream	-13966
mediğini	-13967
▁internetten	-13968
▁ürünlerinin	-13969
▁Kürd	-13970
▁Grand	-13971
▁kızın	-13972
cilerin	-13973
▁kanaat	-13974
▁#>	-13975
room	-13976
▁Cal	-13977
▁Aktar	-13978
▁çığ	-13979
halde	-13980
▁sağl	-13981
▁vadede	-13982
▁Okunanlar	-13983
▁oluşturun	-13984
iyo	-13985
▁kalç	-13986
▁Haftanın	-13987
▁siparişler	-13988
Bey	-13989
▁diğeri	-13990
▁devamını	-13991
▁Yayıncılık	-13992
▁Desteği	-13993
▁Soc	-13994
Bölüm	-13995
ology	-13996
▁Cons	-13997
▁bomb	-13998
▁donan	-13999
▁oyunda	-14000
▁arşivlendi	-14001
▁yapmaktayız	-14002
▁HUK	-14003
▁led	-14004
▁Mahfi	-14005
▁yaşamı	-14006
wp	-14007
Facebook	-14008
▁kanalları	-14009
▁BİN	-14010
▁YAT	-14011
▁ETKİN	-14012
▁Yenilik	-14013
▁gündür	-14014
▁enerjisi	-14015
▁departman	-14016
▁pamuk	-14017
tıklarını	-14018
rene	-14019
▁alam	-14020
amel	-14021
▁Tweet	-14022
▁ettiğim	-14023
▁uyandır	-14024
▁kayıtları	-14025
ücel	-14026
▁Etti	-14027
▁Trak	-14028
▁ışın	-14029
▁inanıyorum	-14030
PU	-14031
üphane	-14032
▁oynamanın	-14033
▁hastaların	-14034
enli	-14035
▁sürüş	-14036
▁Kemer	-14037
vil	-14038
tact	-14039
▁CEV	-14040
▁ömrü	-14041
▁Ermeni	-14042
▁Bildirimi	-14043
________________	-14044
olo	-14045
▁Modeli	-14046
▁Takvimi	-14047
Directory	-14048
▁Videoları	-14049
▁Ra	-14050
omuz	-14051
▁hâlâ	-14052
eşehir	-14053
▁kampanyalar	-14054
ror	-14055
▁Nakit	-14056
▁Ambalaj	-14057
hasır	-14058
▁Denet	-14059
▁Serdar	-14060
▁gereksinim	-14061
ck	-14062
ogram	-14063
▁Hiper	-14064
▁kuruldu	-14065
▁yıp	-14066
▁Komp	-14067
▁Komut	-14068
alit	-14069
▁umar	-14070
▁Değişimi	-14071
▁yuvarlak	-14072
▁Paslanmaz	-14073
▁teknikleri	-14074
▁<#	-14075
▁kapital	-14076
▁riskini	-14077
seokoloji	-14078
▁hareketleri	-14079
▁İnc	-14080
BİTAK	-14081
▁Vatan	-14082
amayacağı	-14083
▁görevleri	-14084
▁mül	-14085
▁these	-14086
▁çoğal	-14087
▁Göm	-14088
▁muz	-14089
▁Kimya	-14090
▁kulüb	-14091
▁vergisi	-14092
▁kapasitesi	-14093
Hz	-14094
▁Urfa	-14095
▁nolu	-14096
▁ayının	-14097
ARAY	-14098
▁Bilgin	-14099
▁olsaydı	-14100
▁şikayetler	-14101
▁mecr	-14102
▁Olağan	-14103
▁TikTok	-14104
▁tuvalet	-14105
cül	-14106
crip	-14107
▁Gur	-14108
▁küp	-14109
▁Oral	-14110
▁kavuştur	-14111
")	-14112
▁KEN	-14113
iyordum	-14114
▁yaşadı	-14115
uyuz	-14116
▁kuruluşlar	-14117
▁belirsiz	-14118
oğul	-14119
▁Ata	-14120
▁Vah	-14121
akları	-14122
▁Hukuki	-14123
▁kurtulmak	-14124
LARA	-14125
▁Nar	-14126
▁bıraktı	-14127
▁işlenen	-14128
▁anlatmak	-14129
▁eti	-14130
▁Zirvesi	-14131
▁indirmek	-14132
▁dediğimiz	-14133
▁yuk	-14134
anobet	-14135
AMAZ	-14136
bakan	-14137
▁Alex	-14138
▁gösterg	-14139
▁Danışmanı	-14140
▁gelebilecek	-14141
play	-14142
özel	-14143
▁köt	-14144
▁İBB	-14145
▁Açılış	-14146
▁Buradaki	-14147
▁alındığı	-14148
TB	-14149
ila	-14150
ogg	-14151
▁OYUN	-14152
▁işken	-14153
düğünde	-14154
▁Cennet	-14155
▁yanınızda	-14156
▁CR	-14157
▁durumları	-14158
▁laboratuvar	-14159
arkod	-14160
▁buğday	-14161
insan	-14162
▁Aşırı	-14163
▁katılımıyla	-14164
▁Nam	-14165
verengi	-14166
▁Üyeler	-14167
▁hizmetlerinin	-14168
▁TER	-14169
▁VİTRA	-14170
▁girildi	-14171
▁bilinçli	-14172
▁kelimesi	-14173
▁kanalı	-14174
▁NO	-14175
ross	-14176
▁zarara	-14177
▁kayseri	-14178
Gaz	-14179
▁kader	-14180
▁Kaldır	-14181
▁Tehlik	-14182
▁maçları	-14183
▁Kesinlikle	-14184
▁zahmetinden	-14185
IV	-14186
urun	-14187
▁Atöly	-14188
▁Efsan	-14189
▁liman	-14190
▁uygulamak	-14191
▁Kuvvetleri	-14192
▁sağlıyoruz	-14193
▁niteliğinde	-14194
pos	-14195
▁rad	-14196
▁Listeme	-14197
▁kartları	-14198
▁sayfamızda	-14199
▁alman	-14200
▁barın	-14201
▁Meş	-14202
▁tanınan	-14203
▁beğenilen	-14204
BİR	-14205
▁Cer	-14206
▁Uyum	-14207
▁oyna	-14208
▁duyan	-14209
▁Buraya	-14210
▁meraklı	-14211
▁Cevapları	-14212
avuzu	-14213
▁mahkum	-14214
▁yapmakta	-14215
ador	-14216
mesin	-14217
▁sars	-14218
▁uğur	-14219
▁Petrol	-14220
Kap	-14221
eter	-14222
işle	-14223
urada	-14224
▁itib	-14225
▁Ermenistan	-14226
urdu	-14227
▁ecz	-14228
▁Vizesi	-14229
ehri	-14230
▁Yürüy	-14231
▁gittim	-14232
▁unutul	-14233
▁yenileme	-14234
lıc	-14235
▁GELİ	-14236
▁Koleksiyon	-14237
fed	-14238
▁Dua	-14239
▁GÜNDEM	-14240
▁İşaret	-14241
▁beklenm	-14242
ENLER	-14243
▁görmez	-14244
▁Zorunlu	-14245
▁reng	-14246
▁Oktay	-14247
tiğinde	-14248
MAS	-14249
▁KAYIT	-14250
▁sigortası	-14251
▁SİN	-14252
▁edilmesine	-14253
gazm	-14254
▁kanı	-14255
▁Design	-14256
rade	-14257
▁deli	-14258
▁Bekir	-14259
▁edeceğini	-14260
ticle	-14261
▁Your	-14262
▁kuran	-14263
▁store	-14264
▁içeriğinde	-14265
bre	-14266
diğin	-14267
▁zihinsel	-14268
▁Sorgulama	-14269
▁sayfasını	-14270
▁Çalışmalar	-14271
▁Jack	-14272
▁denli	-14273
▁göreve	-14274
ülteni	-14275
▁yumuş	-14276
▁Kızlar	-14277
▁açabilir	-14278
(/	-14279
eliyiz	-14280
▁Eksik	-14281
▁kalmadan	-14282
▁politikasındaki	-14283
▁ödün	-14284
▁engeller	-14285
▁rahatlat	-14286
▁barındıran	-14287
’,	-14288
▁CNR	-14289
▁geliştirilmesi	-14290
▁yapabileceğiniz	-14291
cer	-14292
▁SİST	-14293
▁tehlike	-14294
▁Konferans	-14295
▁oluşturuyor	-14296
şk	-14297
ikatür	-14298
▁birikim	-14299
▁dördüncü	-14300
▁işlerini	-14301
▁etkisiyle	-14302
▁Kullanılan	-14303
▁Aksesuarları	-14304
▁kampanyaları	-14305
▁iktid	-14306
▁Herkesin	-14307
▁milletvekili	-14308
▁VİDEO	-14309
▁minik	-14310
▁Card	-14311
▁metni	-14312
▁entegr	-14313
▁WEB	-14314
amaları	-14315
▁Müdürlüğ	-14316
ukatı	-14317
ragmanı	-14318
▁kopyal	-14319
▁çıplak	-14320
üksel	-14321
▁logo	-14322
▁orjinal	-14323
▁ticareti	-14324
▁istemiyorum	-14325
abiliyorsunuz	-14326
▁VPN	-14327
aryak	-14328
ally	-14329
▁geleni	-14330
▁Day	-14331
▁Gelişmiş	-14332
▁başlandı	-14333
▁kısmından	-14334
Öğr	-14335
▁ARK	-14336
▁staj	-14337
▁yürek	-14338
▁Kurulum	-14339
▁giderken	-14340
▁varan	-14341
▁sağlığ	-14342
▁Çorbası	-14343
Uz	-14344
▁sayısız	-14345
▁Istanbul	-14346
▁hizmetlerinden	-14347
ott	-14348
mayla	-14349
hatsapp	-14350
▁ataşehir	-14351
sword	-14352
▁Filtr	-14353
▁Çıkan	-14354
▁girmesi	-14355
▁ilgisini	-14356
lil	-14357
▁Vitam	-14358
▁dökül	-14359
▁Oldukça	-14360
▁gözü	-14361
▁kişilerle	-14362
▁IQ	-14363
▁NOT	-14364
▁Zengin	-14365
▁Ağaç	-14366
▁Stor	-14367
ahattin	-14368
▁Ofisi	-14369
▁takımın	-14370
▁sunabilmek	-14371
arna	-14372
▁adak	-14373
▁yetmez	-14374
▁Çeviri	-14375
▁dönemine	-14376
▁ötesinde	-14377
masi	-14378
▁III	-14379
message	-14380
amayacağını	-14381
▁ortamlarda	-14382
eceğin	-14383
▁tekstil	-14384
▁galibiyet	-14385
▁Şehircilik	-14386
▁ayrıntıları	-14387
▁sayfasından	-14388
▁İzni	-14389
▁KADIN	-14390
▁kandır	-14391
emezsiniz	-14392
▁Fırat	-14393
▁Ürünün	-14394
▁Admin	-14395
Bit	-14396
▁Yürüt	-14397
▁Trendbet	-14398
ğrul	-14399
▁Meydanı	-14400
igar	-14401
▁Hit	-14402
usuyla	-14403
larımın	-14404
▁Arzu	-14405
▁Mosk	-14406
▁Üvey	-14407
▁açtığı	-14408
▁vesile	-14409
▁yapacağız	-14410
▁değişiklikleri	-14411
İÇ	-14412
▁klas	-14413
▁show	-14414
▁kavramı	-14415
▁önerileri	-14416
▁gelecektir	-14417
▁seo	-14418
▁İdari	-14419
▁Zeka	-14420
▁ekley	-14421
▁Karabağ	-14422
lenin	-14423
▁oral	-14424
▁Finansal	-14425
organ	-14426
▁okuyup	-14427
▁platformda	-14428
EDİ	-14429
▁Kamer	-14430
▁başlayarak	-14431
ACI	-14432
▁yeme	-14433
▁İktis	-14434
▁Erg	-14435
▁Lit	-14436
sub	-14437
▁Çekici	-14438
erspektif	-14439
▁skor	-14440
▁Sermay	-14441
▁kaçınılmaz	-14442
▁Toz	-14443
▁kutuyu	-14444
▁bayanım	-14445
▁Toplumsal	-14446
▁animasyon	-14447
▁q	-14448
BAŞ	-14449
DAK	-14450
▁teşh	-14451
▁meşgul	-14452
▁Bağcılar	-14453
UV	-14454
▁etmekle	-14455
▁kadrosu	-14456
ımsak	-14457
oroloji	-14458
▁nihayet	-14459
▁kendisinden	-14460
▁üstelik	-14461
▁edildiğini	-14462
▁pu	-14463
TÜRK	-14464
bilim	-14465
▁Sabit	-14466
▁Tecrüb	-14467
▁tarafa	-14468
▁kısmının	-14469
▁ödülü	-14470
▁yayınlar	-14471
IRI	-14472
▁olduğunca	-14473
▁tarihlerinde	-14474
▁erdi	-14475
▁muaf	-14476
▁inanc	-14477
▁FİR	-14478
▁Seh	-14479
▁kade	-14480
tirici	-14481
▁habere	-14482
▁dünyasına	-14483
▁incelemek	-14484
▁çıkaran	-14485
▁kullanırken	-14486
▁düzenlemeler	-14487
lali	-14488
▁Ceb	-14489
▁KAZ	-14490
iliğe	-14491
▁vurgu	-14492
▁durumdan	-14493
▁geçersiz	-14494
iss	-14495
▁düşer	-14496
▁ÇOCUK	-14497
▁ilginizi	-14498
ço	-14499
tij	-14500
allı	-14501
lana	-14502
▁Gözlem	-14503
▁Kitaplar	-14504
isy	-14505
▁muhalefet	-14506
▁OP	-14507
list	-14508
▁SAL	-14509
▁Tru	-14510
▁öyk	-14511
(\	-14512
▁kurma	-14513
▁Balkon	-14514
▁yalıtım	-14515
▁geleceğe	-14516
▁Çakır	-14517
abildiği	-14518
evî	-14519
leye	-14520
▁guzel	-14521
▁ayrılan	-14522
▁süreçleri	-14523
▁aşağıl	-14524
▁Engelliler	-14525
▁Send	-14526
▁Mrbahis	-14527
asyonları	-14528
▁gençlerin	-14529
▁Avantajları	-14530
usa	-14531
▁adaylar	-14532
▁yapmanın	-14533
▁telefonda	-14534
▁It	-14535
▁eminim	-14536
▁görüldüğü	-14537
OF	-14538
bolu	-14539
▁görüntüler	-14540
▁OKUN	-14541
▁ertesi	-14542
▁düzeltip	-14543
dr	-14544
bür	-14545
▁Por	-14546
adokya	-14547
▁değerlendirmek	-14548
▁emlak	-14549
▁Kafkas	-14550
▁düşünün	-14551
Blog	-14552
LADI	-14553
▁yaptırım	-14554
abilitasyon	-14555
▁Categories	-14556
▁çalışmalara	-14557
▁KAS	-14558
▁BİLG	-14559
▁Dini	-14560
▁TOKİ	-14561
▁Geçir	-14562
▁süreleri	-14563
▁alındığında	-14564
kk	-14565
aklar	-14566
▁eğil	-14567
▁sürdü	-14568
▁Hürriyet	-14569
▁ürünlere	-14570
▁moderatör	-14571
maca	-14572
onal	-14573
▁sitelerini	-14574
leşmiş	-14575
lemeler	-14576
SP	-14577
ıbb	-14578
▁experi	-14579
▁sürecin	-14580
▁sevdiğim	-14581
▁vermekte	-14582
▁kaldırılması	-14583
▁BTC	-14584
amalar	-14585
▁annem	-14586
▁çeliş	-14587
▁mimari	-14588
▁Saatleri	-14589
hip	-14590
▁(%	-14591
▁çant	-14592
▁anten	-14593
▁köklü	-14594
ıntılar	-14595
▁Değişikliği	-14596
abin	-14597
ocal	-14598
ooth	-14599
▁paz	-14600
▁büro	-14601
▁esir	-14602
▁düşürücü	-14603
▁mükellef	-14604
▁Akademisi	-14605
mayacağını	-14606
▁İstanbulbahis	-14607
▁şap	-14608
▁Bende	-14609
▁Etkili	-14610
▁Tema	-14611
▁Çub	-14612
dular	-14613
▁feth	-14614
▁Esnaf	-14615
undadır	-14616
▁Setleri	-14617
▁tanımlanan	-14618
mız	-14619
▁SAK	-14620
▁Özkan	-14621
▁Halısı	-14622
anik	-14623
atar	-14624
▁Kurtar	-14625
▁yüklen	-14626
tane	-14627
▁SEN	-14628
▁zihn	-14629
▁garip	-14630
▁Binance	-14631
▁uygulanacak	-14632
ph	-14633
İlk	-14634
▁Köpr	-14635
▁ordus	-14636
▁sağlayabilir	-14637
▁Kelimeler	-14638
SIZ	-14639
▁balon	-14640
alizasyon	-14641
▁Mul	-14642
▁gümrük	-14643
▁sormak	-14644
▁oyunlarında	-14645
known	-14646
istanbul	-14647
▁Soyadınız	-14648
▁geçirdiği	-14649
oban	-14650
siklop	-14651
lamasını	-14652
▁vas	-14653
▁herşey	-14654
▁üyeliği	-14655
▁taktirde	-14656
▁sevdiği	-14657
▁sunarak	-14658
▁Hesabı	-14659
▁çekimi	-14660
▁je	-14661
▁KVK	-14662
▁işg	-14663
▁nur	-14664
▁HUKUK	-14665
abileceksiniz	-14666
EKİ	-14667
ture	-14668
▁Tır	-14669
eller	-14670
▁kaynaklar	-14671
▁ÖTV	-14672
▁takı	-14673
▁Yılın	-14674
▁Onların	-14675
▁Ede	-14676
▁amatör	-14677
als	-14678
▁DÜŞ	-14679
▁okuyan	-14680
▁Gönderen	-14681
▁Parçaları	-14682
etk	-14683
sah	-14684
▁Eylem	-14685
▁ürüne	-14686
aloğu	-14687
▁kaçağı	-14688
taraf	-14689
▁euro	-14690
▁mesai	-14691
▁Rektör	-14692
▁Nöbetçi	-14693
▁müş	-14694
akkak	-14695
emeye	-14696
eliğin	-14697
▁Ekmek	-14698
▁Tesisat	-14699
cunun	-14700
▁LG	-14701
▁şö	-14702
taur	-14703
Genel	-14704
▁oluşabilecek	-14705
Gir	-14706
Çev	-14707
▁depresyon	-14708
fin	-14709
deksi	-14710
▁Siber	-14711
▁başarılar	-14712
stem	-14713
▁Okuy	-14714
▁Sesli	-14715
▁renkler	-14716
▁yazıyor	-14717
▁Gerçekleştir	-14718
▁Maraş	-14719
▁Deneyim	-14720
▁Eryaman	-14721
▁Kurtköy	-14722
▁açıklamaya	-14723
anmış	-14724
malık	-14725
▁namazı	-14726
▁dersleri	-14727
▁cayma	-14728
▁tahsis	-14729
▁Vakitleri	-14730
▁Dilerseniz	-14731
▁HAZ	-14732
▁viz	-14733
▁REKLAM	-14734
▁KONULAR	-14735
▁cezaları	-14736
▁gösterim	-14737
▁KATEGORİLER	-14738
▁abd	-14739
▁esmer	-14740
▁sitelere	-14741
▁Büyü	-14742
▁Recent	-14743
▁hilesi	-14744
▁münhasır	-14745
▁Karşılaştırma	-14746
▁Yüzde	-14747
şah	-14748
▁Karot	-14749
▁vurguladı	-14750
▁çerezlerin	-14751
▁teknolojiler	-14752
sten	-14753
▁müte	-14754
liliğe	-14755
▁nasil	-14756
▁eserler	-14757
▁değiştirilmesi	-14758
naz	-14759
▁deg	-14760
value	-14761
▁telaf	-14762
▁değişir	-14763
▁İçerikler	-14764
▁destekçiler	-14765
▁BAH	-14766
▁İspanyol	-14767
▁kın	-14768
eksika	-14769
▁sahil	-14770
▁İstih	-14771
▁işleminin	-14772
ature	-14773
▁Elon	-14774
▁hack	-14775
ilmesinin	-14776
HK	-14777
Büyük	-14778
hizmet	-14779
▁Özcan	-14780
▁ekosistem	-14781
▁yükümlülüğü	-14782
▁FK	-14783
ehmet	-14784
▁gülüm	-14785
▁adrest	-14786
▁Döviz	-14787
▁denize	-14788
▁tekniği	-14789
▁Müc	-14790
▁edelim	-14791
▁Görüntüle	-14792
▁kurumları	-14793
▁Aksiyon	-14794
▁bağlantıları	-14795
.|	-14796
İç	-14797
hendisi	-14798
▁malzemesi	-14799
umda	-14800
▁Plaj	-14801
▁borcu	-14802
▁türden	-14803
▁geçecek	-14804
▁Oct	-14805
▁sebz	-14806
ikleri	-14807
▁önder	-14808
leştiği	-14809
tify	-14810
▁listesini	-14811
▁rah	-14812
▁alanındaki	-14813
▁dalga	-14814
▁desteğiyle	-14815
▁çarpıcı	-14816
▁lojistik	-14817
▁Kullanıcıların	-14818
caya	-14819
▁Buradan	-14820
▁Vergisi	-14821
▁değerler	-14822
▁soruların	-14823
▁comp	-14824
▁işyeri	-14825
▁ağırlıklı	-14826
▁kurumların	-14827
yken	-14828
▁Light	-14829
▁halini	-14830
▁saygın	-14831
iret	-14832
▁senesinde	-14833
DR	-14834
▁Burs	-14835
▁Metro	-14836
▁fotokop	-14837
▁bilmeyen	-14838
date	-14839
değer	-14840
▁rastgele	-14841
▁gerçekleşecek	-14842
▁here	-14843
▁Komün	-14844
ıştırma	-14845
▁birimleri	-14846
▁arayabilirsiniz	-14847
ny	-14848
▁hedefleyen	-14849
FE	-14850
▁pub	-14851
▁çil	-14852
rasya	-14853
emedim	-14854
▁geçtiği	-14855
▁ilişkiye	-14856
sar	-14857
▁tir	-14858
▁sair	-14859
▁kasab	-14860
▁kararını	-14861
▁manşetleri	-14862
TUR	-14863
▁füz	-14864
round	-14865
çinin	-14866
▁Nefes	-14867
▁dezenf	-14868
▁taşımacılığı	-14869
▁çalışmalarının	-14870
▁Lord	-14871
▁çırp	-14872
▁milletin	-14873
▁Direktörü	-14874
▁meb	-14875
▁kurtarma	-14876
▁paslanmaz	-14877
▁POPÜLER	-14878
▁alınacaktır	-14879
LAK	-14880
abol	-14881
▁Aşık	-14882
,"	-14883
▁anım	-14884
▁hamile	-14885
▁hatları	-14886
▁Veli	-14887
ibratör	-14888
geldiniz	-14889
▁yaşamın	-14890
Gel	-14891
▁EYT	-14892
▁üste	-14893
▁alınız	-14894
▁hayvanlar	-14895
lick	-14896
▁Kulüp	-14897
▁akışı	-14898
▁litre	-14899
▁Çekim	-14900
▁kağıdı	-14901
▁gazetesi	-14902
▁Silivri	-14903
▁açıktır	-14904
▁Yalnızca	-14905
▁vermiştir	-14906
▁Rezervasyon	-14907
▁ani	-14908
▁ayın	-14909
▁ayırt	-14910
▁olunur	-14911
checkbox	-14912
ebo	-14913
▁kontr	-14914
İRK	-14915
▁damak	-14916
▁cezaev	-14917
feransı	-14918
ins	-14919
▁stor	-14920
▁Sorunu	-14921
▁mersin	-14922
▁solunum	-14923
▁İttifak	-14924
üneyt	-14925
▁verg	-14926
▁Merve	-14927
▁Premium	-14928
▁ailenin	-14929
▁çekilen	-14930
▁nitelendir	-14931
▁Tir	-14932
▁içme	-14933
▁ailesinin	-14934
▁Günde	-14935
▁Sekreter	-14936
▁yetkilileri	-14937
▁fos	-14938
▁sosy	-14939
▁Erkan	-14940
▁Karbon	-14941
▁FT	-14942
▁Rak	-14943
▁Mümkün	-14944
alandırma	-14945
▁dolduralım	-14946
▁olmadığına	-14947
ilyon	-14948
elikli	-14949
avantaj	-14950
▁deposu	-14951
▁EY	-14952
minin	-14953
▁Benz	-14954
acılar	-14955
▁sayıl	-14956
▁nitelikte	-14957
ebilme	-14958
▁gelmek	-14959
▁çıkarı	-14960
▁Vir	-14961
▁play	-14962
▁Allâh	-14963
▁dönen	-14964
▁Emekli	-14965
▁cevaplar	-14966
eve	-14967
▁YET	-14968
▁ilde	-14969
▁gelmiyor	-14970
▁yönünden	-14971
▁yolla	-14972
▁çağrısı	-14973
▁Komitesi	-14974
▁harflerle	-14975
▁Tec	-14976
▁sofr	-14977
▁istin	-14978
▁sözde	-14979
▁Fabrik	-14980
▁Forumu	-14981
▁gazeteci	-14982
▁DURUM	-14983
▁cihazları	-14984
▁fiil	-14985
▁intik	-14986
▁oynadığı	-14987
▁beklentiler	-14988
▁tercihlerinizi	-14989
▁İlçesi	-14990
▁gençlik	-14991
▁kurduğu	-14992
▁Efendimiz	-14993
▁kaynağından	-14994
boy	-14995
▁IŞ	-14996
kurt	-14997
ölye	-14998
▁fiziki	-14999
▁dilediği	-15000
▁zeytinyağı	-15001
▁BEL	-15002
▁dub	-15003
▁cerrah	-15004
▁Araçlar	-15005
▁gönderi	-15006
ediklerini	-15007
ifer	-15008
▁etsin	-15009
▁masöz	-15010
▁ömürlü	-15011
lemesine	-15012
▁avantajları	-15013
eyner	-15014
ıyaka	-15015
▁İLAN	-15016
▁takvim	-15017
▁geçmesi	-15018
ould	-15019
▁hazırladığı	-15020
grama	-15021
▁farklıdır	-15022
▁Alg	-15023
▁Turu	-15024
▁yatan	-15025
▁çıtır	-15026
▁eng	-15027
▁kazanmış	-15028
▁İletişime	-15029
▁Spo	-15030
▁Nazlı	-15031
▁müracaat	-15032
▁korur	-15033
▁HABERE	-15034
▁satmak	-15035
▁milliyet	-15036
==	-15037
üzün	-15038
▁VAK	-15039
▁belgesel	-15040
▁fırsatlar	-15041
abat	-15042
▁TELE	-15043
▁afet	-15044
▁çözmek	-15045
▁Universit	-15046
▁sorunlara	-15047
▁faaliyetler	-15048
▁şim	-15049
▁Gümrük	-15050
▁yaratı	-15051
▁göstererek	-15052
▁DETAY	-15053
▁Yapın	-15054
▁düzenledi	-15055
âk	-15056
▁Odaları	-15057
▁Pandemi	-15058
▁oyunlarına	-15059
dis	-15060
▁olayın	-15061
▁yüksektir	-15062
ulus	-15063
▁MAR	-15064
▁YAŞAM	-15065
▁aklıma	-15066
▁geçirdi	-15067
nes	-15068
▁borsa	-15069
▁windows	-15070
fig	-15071
▁rejim	-15072
▁MUT	-15073
▁siber	-15074
▁Gençler	-15075
▁Abonelik	-15076
RAN	-15077
▁Bizans	-15078
▁endeksi	-15079
Üye	-15080
üphe	-15081
▁SİT	-15082
Am	-15083
▁çıkabilir	-15084
dig	-15085
▁Norveç	-15086
▁frek	-15087
ladıkları	-15088
▁oynama	-15089
Par	-15090
▁Tebliğ	-15091
▁yemekleri	-15092
▁verilebilir	-15093
cc	-15094
▁soğan	-15095
▁Belirli	-15096
▁Edebiyatı	-15097
▁dolgu	-15098
▁tebliğ	-15099
▁görmeye	-15100
▁sürecine	-15101
▁kullandığımız	-15102
ahan	-15103
▁Kole	-15104
EBİLİR	-15105
▁Olacak	-15106
▁kızları	-15107
▁oyununda	-15108
AZI	-15109
▁dokuz	-15110
▁yapmaz	-15111
▁ms	-15112
erisi	-15113
ruklu	-15114
▁Çantası	-15115
▁sektörüne	-15116
▁etmelisiniz	-15117
ðý	-15118
iha	-15119
sol	-15120
İBİ	-15121
▁nın	-15122
▁iltih	-15123
▁endeks	-15124
▁yoksun	-15125
▁öneririz	-15126
TO	-15127
▁SH	-15128
▁Mezar	-15129
▁Süreç	-15130
▁azdır	-15131
▁edebilmek	-15132
▁üreticisi	-15133
▁IB	-15134
lished	-15135
namesi	-15136
▁Kararı	-15137
▁kapatma	-15138
▁ulaşarak	-15139
▁ayarlanır	-15140
DIM	-15141
▁reaksiyon	-15142
ea	-15143
ydı	-15144
▁Vaj	-15145
[...]
