<unk>	0
<s>	0
</s>	0
<pad>	0
<|beginoftext|>	0
<|endoftext|>	0
<|startoftext|>	0
<newline>	0
<mask>	0
<turkish>	0
<instruction>	0
</instruction>	0
<context>	0
<|system|>	0
<|user|>	0
<|assistant|>	0
<|end|>	0
<safe>	0
<unsafe>	0
<filtered>	0
<translate>	0
<summarize>	0
<classify>	0
<reserved1>	0
<reserved2>	0
<reserved3>	0
er	-0
la	-1
in	-2
an	-3
en	-4
▁b	-5
il	-6
ir	-7
ar	-8
ın	-9
▁k	-10
▁s	-11
ma	-12
lar	-13
▁d	-14
▁y	-15
el	-16
ek	-17
et	-18
▁v	-19
ak	-20
▁g	-21
al	-22
or	-23
▁i	-24
▁t	-25
es	-26
▁o	-27
ler	-28
iz	-29
un	-30
da	-31
de	-32
▁ve	-33
▁h	-34
ay	-35
▁B	-36
at	-37
ik	-38
im	-39
iy	-40
on	-41
lan	-42
ır	-43
em	-44
as	-45
▁A	-46
ur	-47
▁K	-48
▁S	-49
ed	-50
lı	-51
is	-52
▁a	-53
▁bir	-54
it	-55
ün	-56
ul	-57
▁T	-58
▁m	-59
ap	-60
iş	-61
ür	-62
▁ç	-63
le	-64
ız	-65
ım	-66
am	-67
ab	-68
▁M	-69
aş	-70
um	-71
az	-72
ah	-73
▁E	-74
ey	-75
▁D	-76
li	-77
▁ol	-78
ya	-79
▁p	-80
▁iç	-81
▁il	-82
▁Y	-83
▁İ	-84
st	-85
ları	-86
▁G	-87
ış	-88
▁H	-89
ıl	-90
ık	-91
dan	-92
ev	-93
ların	-94
▁ö	-95
▁f	-96
..	-97
ağ	-98
▁için	-99
ad	-100
mak	-101
esi	-102
ol	-103
eğ	-104
ok	-105
üz	-106
▁P	-107
▁gö	-108
leri	-109
▁n	-110
▁yap	-111
eri	-112
den	-113
ini	-114
ec	-115
iniz	-116
ında	-117
sı	-118
▁ş	-119
ine	-120
uz	-121
iğ	-122
dı	-123
▁ar	-124
ilir	-125
uy	-126
üm	-127
eb	-128
ük	-129
inde	-130
▁al	-131
du	-132
dir	-133
▁bu	-134
▁C	-135
iler	-136
▁ile	-137
▁O	-138
cı	-139
▁F	-140
af	-141
us	-142
▁c	-143
şt	-144
ut	-145
▁ed	-146
ez	-147
ekt	-148
▁et	-149
iyor	-150
lik	-151
▁z	-152
ullan	-153
tı	-154
eler	-155
cak	-156
▁r	-157
uk	-158
ta	-159
ip	-160
ilm	-161
oğ	-162
▁N	-163
eç	-164
om	-165
av	-166
len	-167
ını	-168
▁ver	-169
di	-170
▁an	-171
dır	-172
inin	-173
▁Ç	-174
ti	-175
▁gör	-176
lama	-177
iye	-178
▁kullan	-179
lık	-180
larak	-181
ön	-182
▁(	-183
▁bil	-184
yor	-185
▁da	-186
▁baş	-187
ro	-188
▁de	-189
lay	-190
▁iş	-191
ül	-192
...	-193
▁tar	-194
▁in	-195
▁en	-196
▁kar	-197
lem	-198
ası	-199
ort	-200
ına	-201
ce	-202
▁R	-203
▁ger	-204
▁olarak	-205
▁son	-206
ğı	-207
▁ön	-208
eş	-209
▁gel	-210
man	-211
▁Bu	-212
ib	-213
ması	-214
▁V	-215
tır	-216
▁kon	-217
▁ay	-218
▁ma	-219
▁değ	-220
ından	-221
op	-222
▁oldu	-223
▁Ö	-224
ınız	-225
me	-226
ör	-227
üy	-228
eni	-229
ist	-230
lu	-231
ürk	-232
anı	-233
imiz	-234
te	-235
ayı	-236
ac	-237
isi	-238
▁dah	-239
ic	-240
yon	-241
laş	-242
▁ad	-243
▁uy	-244
▁L	-245
▁ist	-246
os	-247
ih	-248
▁gün	-249
unu	-250
üş	-251
met	-252
▁olan	-253
▁An	-254
ra	-255
▁sit	-256
▁“	-257
▁bul	-258
sa	-259
aki	-260
▁çok	-261
▁U	-262
ede	-263
▁yer	-264
▁Ş	-265
uş	-266
ark	-267
▁aç	-268
▁her	-269
orum	-270
ca	-271
mış	-272
gil	-273
tir	-274
gi	-275
inden	-276
mek	-277
ot	-278
▁Türk	-279
▁kur	-280
ama	-281
ibi	-282
▁Ü	-283
siniz	-284
se	-285
▁sür	-286
eli	-287
▁yaz	-288
tan	-289
▁kad	-290
san	-291
ter	-292
edir	-293
arı	-294
ara	-295
▁üz	-296
alış	-297
▁es	-298
alı	-299
imi	-300
ep	-301
eki	-302
eh	-303
▁daha	-304
ka	-305
aman	-306
aber	-307
ef	-308
▁sağ	-309
eden	-310
▁bel	-311
▁geç	-312
▁üzer	-313
lü	-314
if	-315
öz	-316
ının	-317
ru	-318
ıyor	-319
iği	-320
▁olduğ	-321
ilen	-322
▁veya	-323
ilirsiniz	-324
▁Bir	-325
ımız	-326
end	-327
öy	-328
▁ür	-329
▁ek	-330
ers	-331
cort	-332
lab	-333
zel	-334
▁var	-335
▁kal	-336
izmet	-337
▁-	-338
▁olma	-339
▁bulun	-340
liğ	-341
▁yaş	-342
ki	-343
▁çalış	-344
▁gibi	-345
aç	-346
lara	-347
id	-348
▁yıl	-349
iyat	-350
gu	-351
est	-352
▁Al	-353
men	-354
eleri	-355
▁on	-356
lerin	-357
daki	-358
ğr	-359
ecek	-360
iyet	-361
▁taraf	-362
miş	-363
yun	-364
▁Ar	-365
▁çık	-366
ans	-367
let	-368
▁alan	-369
üt	-370
makt	-371
▁hak	-372
▁gerek	-373
yla	-374
öl	-375
art	-376
anlı	-377
▁yar	-378
▁el	-379
erk	-380
▁şek	-381
lam	-382
şı	-383
▁u	-384
unda	-385
▁kiş	-386
▁yön	-387
üc	-388
▁tek	-389
larını	-390
tr	-391
eye	-392
iyle	-393
ağı	-394
▁siz	-395
▁kay	-396
▁zaman	-397
adır	-398
▁Baş	-399
urum	-400
elik	-401
lat	-402
▁ko	-403
ahis	-404
ıcı	-405
▁pro	-406
mas	-407
▁ak	-408
emiz	-409
▁sah	-410
▁doğ	-411
ade	-412
ven	-413
ılan	-414
res	-415
aret	-416
edi	-417
ost	-418
arak	-419
ılı	-420
▁I	-421
oc	-422
maktadır	-423
yi	-424
aya	-425
▁tak	-426
ıs	-427
▁hizmet	-428
▁kap	-429
iç	-430
▁gir	-431
erek	-432
asında	-433
▁sor	-434
larda	-435
kin	-436
▁l	-437
ley	-438
▁kadar	-439
od	-440
ımı	-441
üyük	-442
▁or	-443
ektedir	-444
unuz	-445
maya	-446
▁gü	-447
▁dev	-448
ram	-449
asıl	-450
bet	-451
▁ama	-452
▁özel	-453
lacak	-454
sel	-455
uşt	-456
▁İn	-457
dığ	-458
deki	-459
▁kat	-460
▁En	-461
▁tarafından	-462
▁den	-463
ken	-464
cu	-465
▁belir	-466
▁Türkiye	-467
▁yeni	-468
▁w	-469
eceğ	-470
▁Ay	-471
▁şekil	-472
lerini	-473
▁Es	-474
nin	-475
iv	-476
▁düş	-477
lere	-478
üs	-479
▁Z	-480
esinde	-481
ci	-482
▁W	-483
işim	-484
▁ürün	-485
▁hal	-486
gili	-487
▁tüm	-488
▁yay	-489
unun	-490
ret	-491
iştir	-492
ştir	-493
der	-494
çek	-495
ob	-496
▁iz	-497
cel	-498
dım	-499
▁sat	-500
ada	-501
▁ev	-502
tal	-503
▁karşı	-504
▁ne	-505
▁yük	-506
▁sonra	-507
▁içer	-508
▁şekilde	-509
larına	-510
og	-511
▁top	-512
▁hay	-513
▁escort	-514
ster	-515
▁"	-516
com	-517
▁ben	-518
▁düz	-519
yan	-520
usu	-521
▁bo	-522
uyor	-523
▁at	-524
▁sev	-525
▁açık	-526
▁uz	-527
ayan	-528
▁dön	-529
siz	-530
▁say	-531
mesi	-532
dığı	-533
oj	-534
▁bağ	-535
▁gen	-536
re	-537
▁yan	-538
ht	-539
▁ok	-540
eniz	-541
▁seç	-542
tik	-543
▁yak	-544
ig	-545
leş	-546
▁İst	-547
istem	-548
▁böl	-549
▁bak	-550
ran	-551
dur	-552
▁durum	-553
▁İl	-554
dür	-555
han	-556
▁mü	-557
ika	-558
▁Bil	-559
up	-560
liği	-561
▁göre	-562
larının	-563
asyon	-564
▁ise	-565
bul	-566
▁uygu	-567
yı	-568
▁iyi	-569
▁ü	-570
ilik	-571
uştur	-572
ten	-573
eyi	-574
▁değil	-575
una	-576
▁ilgili	-577
▁Er	-578
ğu	-579
▁e	-580
ileri	-581
▁Kar	-582
▁Gün	-583
▁yol	-584
▁–	-585
▁gerçek	-586
anbul	-587
▁ya	-588
▁yüz	-589
gun	-590
▁bilg	-591
▁ser	-592
iğer	-593
▁fark	-594
leştir	-595
aat	-596
oloj	-597
▁Kur	-598
▁göster	-599
▁oyun	-600
bir	-601
azla	-602
▁Sit	-603
▁yorum	-604
ing	-605
▁do	-606
▁işlem	-607
▁hakk	-608
▁öğr	-609
inizi	-610
ça	-611
▁İş	-612
ebilir	-613
raf	-614
sız	-615
▁adres	-616
▁ilk	-617
▁hem	-618
▁sun	-619
▁büyük	-620
▁kend	-621
ket	-622
gram	-623
▁önem	-624
atır	-625
ılır	-626
▁Haber	-627
rı	-628
▁har	-629
por	-630
ızı	-631
▁ort	-632
▁sahip	-633
▁fazla	-634
abilir	-635
▁biz	-636
▁kab	-637
▁insan	-638
▁neden	-639
ili	-640
larında	-641
▁has	-642
net	-643
acak	-644
▁güven	-645
▁tut	-646
▁tarih	-647
▁Bel	-648
tar	-649
lığı	-650
ehir	-651
▁Ak	-652
▁aş	-653
nı	-654
etim	-655
▁alt	-656
azı	-657
▁eğ	-658
ulu	-659
osta	-660
lardan	-661
enin	-662
▁Pro	-663
▁Başk	-664
ub	-665
▁tes	-666
ide	-667
ye	-668
esine	-669
▁yet	-670
mektedir	-671
▁sır	-672
nın	-673
abilirsiniz	-674
azan	-675
esini	-676
oz	-677
▁olduğu	-678
diğ	-679
▁ot	-680
▁yok	-681
itim	-682
▁ede	-683
ilerin	-684
▁haber	-685
▁is	-686
üzel	-687
▁çek	-688
▁Yap	-689
▁kor	-690
he	-691
eme	-692
▁ki	-693
▁devam	-694
etir	-695
lerde	-696
eg	-697
▁ter	-698
▁Bak	-699
lah	-700
▁Kon	-701
isel	-702
▁Gen	-703
labilir	-704
▁Ev	-705
si	-706
▁der	-707
▁mu	-708
▁göz	-709
▁Son	-710
▁gön	-711
yal	-712
▁alın	-713
azır	-714
▁söz	-715
▁hes	-716
▁par	-717
lendir	-718
▁İç	-719
sek	-720
uç	-721
▁bahis	-722
çe	-723
▁as	-724
erkez	-725
lerinin	-726
▁İstanbul	-727
▁az	-728
▁Ek	-729
aşı	-730
▁san	-731
▁yaptı	-732
ediğ	-733
ocuk	-734
▁fiyat	-735
▁web	-736
▁nasıl	-737
▁değer	-738
ünü	-739
diği	-740
maz	-741
ısı	-742
asar	-743
tt	-744
▁getir	-745
dü	-746
▁J	-747
▁sistem	-748
ici	-749
orm	-750
▁dest	-751
iyorum	-752
▁düzen	-753
▁Escort	-754
larımız	-755
tık	-756
aylaş	-757
▁hiç	-758
uma	-759
ıp	-760
ilmesi	-761
alık	-762
▁dün	-763
daş	-764
▁Eğ	-765
▁sayı	-766
posta	-767
▁oy	-768
esin	-769
▁önce	-770
▁üy	-771
ilecek	-772
çi	-773
▁söy	-774
lerine	-775
larla	-776
▁dış	-777
▁fir	-778
▁uygun	-779
▁olmak	-780
ektir	-781
▁diğer	-782
likle	-783
erez	-784
▁olur	-785
dem	-786
▁mes	-787
ala	-788
▁yapıl	-789
▁doğru	-790
▁bur	-791
ge	-792
▁duy	-793
▁gönder	-794
emek	-795
▁mil	-796
eği	-797
irket	-798
▁kı	-799
na	-800
lanan	-801
lığ	-802
▁önemli	-803
dık	-804
▁tür	-805
▁şey	-806
malı	-807
▁etk	-808
▁kazan	-809
▁üzere	-810
ülk	-811
aba	-812
▁Tek	-813
rup	-814
▁hayat	-815
▁|	-816
olu	-817
eyen	-818
laşt	-819
ent	-820
likte	-821
▁hazır	-822
sun	-823
▁kan	-824
▁:	-825
ov	-826
▁bas	-827
▁öğren	-828
▁farklı	-829
▁yayın	-830
ileceğ	-831
▁Av	-832
ne	-833
▁Mü	-834
ındaki	-835
▁Or	-836
▁içinde	-837
▁arasında	-838
▁konu	-839
▁kr	-840
▁çalışma	-841
adece	-842
▁tama	-843
fa	-844
nak	-845
▁/	-846
ildi	-847
iyon	-848
üp	-849
obil	-850
gün	-851
ant	-852
▁zor	-853
▁ulaş	-854
▁bilgi	-855
▁er	-856
abı	-857
▁tan	-858
kat	-859
▁kullanıl	-860
endi	-861
ink	-862
▁kim	-863
▁öl	-864
▁Ser	-865
▁etm	-866
aj	-867
▁El	-868
ladı	-869
ttp	-870
▁güzel	-871
//	-872
det	-873
▁http	-874
▁kabul	-875
://	-876
▁Hak	-877
ebilirsiniz	-878
▁im	-879
▁#	-880
▁mak	-881
▁mod	-882
▁Tar	-883
▁eş	-884
▁bek	-885
▁olduğunu	-886
asin	-887
oy	-888
las	-889
▁uygulama	-890
lak	-891
▁tem	-892
▁iliş	-893
▁değiş	-894
leme	-895
lük	-896
▁dik	-897
ünde	-898
osyal	-899
▁ülk	-900
▁oluştur	-901
uv	-902
▁Yeni	-903
▁hakkında	-904
larından	-905
eda	-906
dar	-907
▁birlikte	-908
▁saat	-909
▁İs	-910
isinde	-911
ternet	-912
▁üst	-913
▁yapılan	-914
▁görün	-915
▁‘	-916
▁bin	-917
▁olacak	-918
acı	-919
gel	-920
elef	-921
▁destek	-922
▁tekn	-923
tür	-924
ook	-925
ver	-926
tü	-927
▁Gü	-928
iyaret	-929
ile	-930
▁yapı	-931
ahat	-932
azar	-933
lerinde	-934
lantı	-935
layan	-936
elefon	-937
lamak	-938
▁kullanıcı	-939
atı	-940
▁ilet	-941
ücret	-942
esinin	-943
▁paylaş	-944
sam	-945
uru	-946
▁ücret	-947
amp	-948
▁aynı	-949
▁eder	-950
lerimiz	-951
olit	-952
▁Ön	-953
▁mi	-954
öyle	-955
mıştır	-956
▁Bur	-957
▁gelen	-958
▁belirt	-959
ivers	-960
luk	-961
▁para	-962
kan	-963
▁San	-964
nun	-965
▁Her	-966
▁kö	-967
iyoruz	-968
▁hat	-969
▁tık	-970
▁ağ	-971
ayıt	-972
alan	-973
enk	-974
ektör	-975
AN	-976
mal	-977
▁iki	-978
hal	-979
eks	-980
iversit	-981
lerden	-982
▁Kullan	-983
usunda	-984
kı	-985
▁bölüm	-986
▁eden	-987
▁su	-988
ww	-989
ri	-990
eti	-991
evap	-992
▁yüksek	-993
▁yardım	-994
▁İz	-995
▁Dün	-996
▁mal	-997
▁Mu	-998
ch	-999
▁ban	-1000
▁öz	-1001
van	-1002
asino	-1003
▁haf	-1004
ektr	-1005
hur	-1006
▁yas	-1007
▁tal	-1008
▁Ver	-1009
▁sadece	-1010
▁,	-1011
tiğ	-1012
sal	-1013
▁Beled	-1014
▁Öz	-1015
▁takip	-1016
▁Genel	-1017
cağ	-1018
▁Yön	-1019
▁Kan	-1020
▁Ko	-1021
▁kolay	-1022
▁giriş	-1023
▁olması	-1024
▁Kad	-1025
▁kurul	-1026
iyas	-1027
ava	-1028
edav	-1029
▁hız	-1030
▁Yorum	-1031
▁önc	-1032
▁edilm	-1033
▁mut	-1034
sanız	-1035
cih	-1036
▁ip	-1037
▁Ne	-1038
▁bulunan	-1039
mi	-1040
▁Ün	-1041
▁Özel	-1042
meye	-1043
▁mev	-1044
▁Gir	-1045
▁Uy	-1046
ack	-1047
▁sorun	-1048
ıza	-1049
min	-1050
kü	-1051
▁gerçekleştir	-1052
▁Tüm	-1053
▁tab	-1054
▁[	-1055
gan	-1056
▁düşün	-1057
▁genel	-1058
htiy	-1059
ere	-1060
▁sorum	-1061
ize	-1062
kara	-1063
▁em	-1064
ınır	-1065
▁teş	-1066
ow	-1067
▁firma	-1068
ışı	-1069
▁dil	-1070
▁çev	-1071
▁Gel	-1072
▁yatır	-1073
▁bilgiler	-1074
▁https	-1075
▁sal	-1076
▁sık	-1077
oru	-1078
AR	-1079
▁kalit	-1080
▁müşt	-1081
ılım	-1082
ece	-1083
▁kadın	-1084
▁if	-1085
▁satın	-1086
▁Nasıl	-1087
▁At	-1088
▁Ad	-1089
lenen	-1090
▁Kiş	-1091
oloji	-1092
▁üzerinden	-1093
▁Yar	-1094
oğlu	-1095
▁Gaz	-1096
go	-1097
▁Gör	-1098
urt	-1099
▁ziyaret	-1100
rıca	-1101
▁üret	-1102
▁dikkat	-1103
dik	-1104
▁Cum	-1105
▁edeb	-1106
▁mad	-1107
oh	-1108
üne	-1109
lerle	-1110
▁Dev	-1111
▁...	-1112
▁ada	-1113
▁kaç	-1114
▁Ol	-1115
▁mı	-1116
elim	-1117
▁%	-1118
ğü	-1119
▁Doğ	-1120
itap	-1121
sik	-1122
▁ör	-1123
eşit	-1124
▁tasar	-1125
aştır	-1126
▁On	-1127
▁dönem	-1128
ütün	-1129
▁çocuk	-1130
▁Ben	-1131
▁kendi	-1132
▁Kay	-1133
▁Top	-1134
▁Ot	-1135
▁arka	-1136
▁sı	-1137
ikay	-1138
▁Par	-1139
trol	-1140
onom	-1141
rak	-1142
lerinden	-1143
ER	-1144
▁art	-1145
▁etmek	-1146
▁biri	-1147
tem	-1148
▁deney	-1149
▁site	-1150
▁ihtiy	-1151
▁kıs	-1152
bar	-1153
sin	-1154
uluk	-1155
▁sak	-1156
anıt	-1157
▁olduk	-1158
taj	-1159
▁bölg	-1160
iliyor	-1161
▁seb	-1162
▁Başkanı	-1163
▁Bahis	-1164
▁Et	-1165
▁çöz	-1166
eket	-1167
▁bey	-1168
▁adresimi	-1169
▁As	-1170
▁tercih	-1171
▁tamam	-1172
▁çıkar	-1173
▁gid	-1174
muş	-1175
▁Güven	-1176
▁çerez	-1177
▁eğitim	-1178
lim	-1179
ırak	-1180
izi	-1181
elerin	-1182
▁Tak	-1183
etay	-1184
▁tam	-1185
▁Kr	-1186
ucu	-1187
mayı	-1188
tif	-1189
▁Sağ	-1190
▁karar	-1191
aha	-1192
hangi	-1193
mel	-1194
okt	-1195
▁sen	-1196
ekk	-1197
▁edilen	-1198
çok	-1199
▁geçir	-1200
gı	-1201
▁şirket	-1202
▁indir	-1203
erli	-1204
anın	-1205
rar	-1206
ukuk	-1207
landır	-1208
üç	-1209
▁In	-1210
▁kapsam	-1211
▁dur	-1212
gin	-1213
▁telefon	-1214
lilik	-1215
▁Mil	-1216
▁Kal	-1217
dığını	-1218
▁res	-1219
sınız	-1220
▁fa	-1221
▁Kat	-1222
▁Kap	-1223
▁Yıl	-1224
▁han	-1225
▁size	-1226
▁Cumhur	-1227
oş	-1228
▁görev	-1229
egor	-1230
▁ait	-1231
oğraf	-1232
ıldı	-1233
▁Bey	-1234
sta	-1235
▁Sat	-1236
▁başka	-1237
▁yür	-1238
masına	-1239
),	-1240
manın	-1241
▁bit	-1242
ımda	-1243
▁ik	-1244
▁*	-1245
▁bun	-1246
▁hiçbir	-1247
▁hesab	-1248
▁Büyük	-1249
▁yönet	-1250
layın	-1251
suz	-1252
eklam	-1253
▁Kas	-1254
arası	-1255
lıyor	-1256
▁sitesi	-1257
enek	-1258
sunuz	-1259
umuz	-1260
▁incel	-1261
▁içerisinde	-1262
▁uzun	-1263
▁üzerinde	-1264
masını	-1265
▁cevap	-1266
▁açıklama	-1267
▁Ür	-1268
▁un	-1269
▁met	-1270
▁oyn	-1271
ipar	-1272
▁Yaz	-1273
üyor	-1274
▁Bet	-1275
çı	-1276
mir	-1277
▁kişisel	-1278
ayın	-1279
▁serv	-1280
ag	-1281
▁dedi	-1282
▁olabilir	-1283
ümüz	-1284
▁üç	-1285
ex	-1286
▁güç	-1287
▁Değ	-1288
gın	-1289
▁sağlık	-1290
▁diye	-1291
laştır	-1292
▁oluş	-1293
ari	-1294
adı	-1295
▁sonr	-1296
▁Kor	-1297
▁Fiyat	-1298
▁of	-1299
ud	-1300
resi	-1301
▁TL	-1302
hat	-1303
inize	-1304
▁Merkez	-1305
▁bazı	-1306
edya	-1307
ök	-1308
istan	-1309
manız	-1310
▁bırak	-1311
acağ	-1312
bol	-1313
▁güncel	-1314
▁yazı	-1315
madan	-1316
▁kaynak	-1317
for	-1318
per	-1319
▁Mer	-1320
olitik	-1321
fen	-1322
▁program	-1323
▁taşı	-1324
mer	-1325
indeki	-1326
ipariş	-1327
duğu	-1328
▁ediyor	-1329
▁başv	-1330
tur	-1331
▁Hizmet	-1332
▁dav	-1333
▁Üniversit	-1334
ve	-1335
▁Has	-1336
▁sav	-1337
▁Mah	-1338
▁yaptığ	-1339
duğ	-1340
▁proj	-1341
lenmiş	-1342
▁Ok	-1343
ij	-1344
▁çeşit	-1345
▁Uz	-1346
▁Ankara	-1347
▁Aç	-1348
▁mark	-1349
▁iptal	-1350
atan	-1351
lıdır	-1352
▁işaret	-1353
landı	-1354
▁aşağı	-1355
▁Tur	-1356
▁bilgil	-1357
ilmek	-1358
erj	-1359
ideo	-1360
▁mer	-1361
meler	-1362
▁amaç	-1363
▁herhangi	-1364
ni	-1365
▁film	-1366
mez	-1367
lo	-1368
▁kişi	-1369
rim	-1370
▁dolay	-1371
iyesi	-1372
▁iletişim	-1373
▁erk	-1374
ansı	-1375
▁dem	-1376
ber	-1377
edik	-1378
▁kom	-1379
▁anlam	-1380
ültür	-1381
deme	-1382
▁Hay	-1383
▁merkez	-1384
yacak	-1385
▁Tekn	-1386
▁içerik	-1387
▁Dünya	-1388
▁rahat	-1389
üçük	-1390
rupa	-1391
▁internet	-1392
▁konusunda	-1393
▁Der	-1394
line	-1395
▁tah	-1396
▁Tr	-1397
▁araç	-1398
▁başarı	-1399
▁Ürün	-1400
▁Ban	-1401
ıntı	-1402
▁geliştir	-1403
ekkür	-1404
bu	-1405
sat	-1406
uslar	-1407
kün	-1408
▁Oyun	-1409
ilere	-1410
edef	-1411
▁tav	-1412
▁the	-1413
▁bah	-1414
▁görüş	-1415
▁Daha	-1416
ele	-1417
▁Eğitim	-1418
▁Ve	-1419
▁Giriş	-1420
▁üzerine	-1421
▁kontrol	-1422
▁AB	-1423
asına	-1424
dın	-1425
otoğraf	-1426
ekte	-1427
▁ih	-1428
▁birçok	-1429
.”	-1430
ecektir	-1431
▁canlı	-1432
▁İçin	-1433
aliyet	-1434
mat	-1435
▁man	-1436
▁zar	-1437
form	-1438
▁Söz	-1439
▁İlk	-1440
▁bile	-1441
ılması	-1442
▁kullanı	-1443
▁git	-1444
▁sektör	-1445
ati	-1446
▁bildir	-1447
tep	-1448
▁sef	-1449
sını	-1450
ira	-1451
▁Allah	-1452
amaz	-1453
▁geliş	-1454
▁yapan	-1455
▁tarayı	-1456
▁etti	-1457
▁Web	-1458
▁ortaya	-1459
akika	-1460
▁geri	-1461
▁Dr	-1462
▁almak	-1463
EN	-1464
anlığı	-1465
▁plan	-1466
▁etkin	-1467
ediğiniz	-1468
▁kız	-1469
▁sayf	-1470
▁'	-1471
ediği	-1472
isine	-1473
▁değiştir	-1474
ite	-1475
▁konuş	-1476
▁soru	-1477
▁Kişisel	-1478
mam	-1479
baş	-1480
ale	-1481
▁sonuç	-1482
▁veren	-1483
▁yerine	-1484
ümkün	-1485
▁Alt	-1486
doğ	-1487
aban	-1488
▁gerekli	-1489
▁sosyal	-1490
▁yöntem	-1491
▁ancak	-1492
zer	-1493
▁sınır	-1494
nek	-1495
nde	-1496
wit	-1497
▁Öğr	-1498
▁list	-1499
▁yapmak	-1500
isini	-1501
üsü	-1502
▁yılında	-1503
▁Mak	-1504
▁Bon	-1505
▁kurum	-1506
lum	-1507
latform	-1508
ilmektedir	-1509
ekten	-1510
ayda	-1511
▁Böl	-1512
link	-1513
▁fır	-1514
▁başla	-1515
▁bütün	-1516
▁kayıt	-1517
▁olup	-1518
▁dünya	-1519
▁şu	-1520
▁Avrupa	-1521
▁bon	-1522
▁kes	-1523
▁kısa	-1524
imli	-1525
may	-1526
▁mesaj	-1527
din	-1528
larınız	-1529
▁arkadaş	-1530
▁günü	-1531
▁bilin	-1532
▁tr	-1533
ınıza	-1534
▁ayr	-1535
▁hareket	-1536
matik	-1537
▁edil	-1538
lerdir	-1539
▁yen	-1540
mayacak	-1541
cü	-1542
ime	-1543
▁Gerek	-1544
▁Ancak	-1545
▁hızlı	-1546
▁hemen	-1547
▁Yük	-1548
▁Kom	-1549
tiv	-1550
of	-1551
luluk	-1552
alt	-1553
bi	-1554
▁din	-1555
orn	-1556
ame	-1557
▁tedav	-1558
▁vardır	-1559
▁yatırım	-1560
▁bayan	-1561
imdi	-1562
▁yardımcı	-1563
ons	-1564
▁ola	-1565
akl	-1566
kanı	-1567
▁özellik	-1568
▁id	-1569
acklink	-1570
▁iti	-1571
▁talep	-1572
▁Çok	-1573
▁dol	-1574
▁Mes	-1575
▁to	-1576
▁mümkün	-1577
▁tat	-1578
eriler	-1579
enc	-1580
üşt	-1581
▁hesap	-1582
▁kır	-1583
ınızı	-1584
▁Ayrıca	-1585
▁Yaş	-1586
dından	-1587
▁kullanım	-1588
cek	-1589
ledi	-1590
etler	-1591
undan	-1592
lanır	-1593
▁değerlendir	-1594
ilmiş	-1595
▁veri	-1596
▁Met	-1597
▁boy	-1598
▁hav	-1599
▁araştır	-1600
co	-1601
▁Kasım	-1602
talık	-1603
endir	-1604
to	-1605
▁his	-1606
▁mem	-1607
▁model	-1608
▁edin	-1609
▁kaydet	-1610
pr	-1611
ali	-1612
▁gelir	-1613
ıyoruz	-1614
lemek	-1615
maları	-1616
ünkü	-1617
ohbet	-1618
▁num	-1619
▁orta	-1620
▁yayım	-1621
▁elektr	-1622
▁ila	-1623
▁ün	-1624
▁yüzde	-1625
▁temiz	-1626
▁amacı	-1627
▁Har	-1628
▁Dem	-1629
iyi	-1630
▁yakın	-1631
▁sıra	-1632
▁taş	-1633
▁tarayıcı	-1634
▁&	-1635
dana	-1636
tiği	-1637
log	-1638
üb	-1639
▁geçen	-1640
▁kol	-1641
▁Rus	-1642
ekli	-1643
talya	-1644
▁Hakk	-1645
imleri	-1646
▁milyon	-1647
▁gereken	-1648
▁per	-1649
yas	-1650
urda	-1651
▁ilişkin	-1652
leyen	-1653
kinci	-1654
▁Müdür	-1655
anış	-1656
▁değişik	-1657
▁kesin	-1658
ebook	-1659
▁cez	-1660
▁oran	-1661
▁benim	-1662
▁Çalış	-1663
▁diy	-1664
▁hep	-1665
▁kut	-1666
▁verm	-1667
▁Canlı	-1668
▁hedef	-1669
tığ	-1670
yum	-1671
eriğ	-1672
▁gaz	-1673
▁Başkan	-1674
witter	-1675
▁kam	-1676
▁bar	-1677
icaret	-1678
labilirsiniz	-1679
▁veriler	-1680
▁Hal	-1681
▁dos	-1682
akat	-1683
lanması	-1684
▁Yan	-1685
▁büy	-1686
▁teşekkür	-1687
▁faaliyet	-1688
▁Aj	-1689
▁li	-1690
▁Sağlık	-1691
stagram	-1692
▁Cev	-1693
ital	-1694
▁yaşam	-1695
ınıf	-1696
iri	-1697
abet	-1698
▁sitemiz	-1699
▁zamanda	-1700
▁hukuk	-1701
can	-1702
▁Kadın	-1703
cut	-1704
▁oldukça	-1705
one	-1706
▁engel	-1707
tu	-1708
▁reklam	-1709
▁diz	-1710
▁olsun	-1711
▁cih	-1712
uyu	-1713
ılmış	-1714
uyla	-1715
br	-1716
▁satış	-1717
▁Nedir	-1718
▁Tem	-1719
üküm	-1720
▁yaklaş	-1721
▁bağlı	-1722
▁siteler	-1723
eğin	-1724
fes	-1725
▁kav	-1726
▁izin	-1727
lül	-1728
▁la	-1729
▁Biz	-1730
▁Ara	-1731
▁Serv	-1732
▁çözüm	-1733
▁Bay	-1734
▁kil	-1735
ate	-1736
larıyla	-1737
▁Fir	-1738
eyin	-1739
lamaz	-1740
▁altında	-1741
▁bağlantı	-1742
ünün	-1743
▁İngil	-1744
all	-1745
sına	-1746
osu	-1747
etmen	-1748
cil	-1749
doğan	-1750
▁çalışan	-1751
onik	-1752
▁tekrar	-1753
▁detay	-1754
şehir	-1755
▁pr	-1756
dak	-1757
LE	-1758
acebook	-1759
▁Haberler	-1760
▁alış	-1761
üğ	-1762
imler	-1763
nda	-1764
▁süre	-1765
isyon	-1766
şte	-1767
▁Çocuk	-1768
▁spor	-1769
dim	-1770
▁öğrenc	-1771
zem	-1772
▁Üniversitesi	-1773
fer	-1774
mail	-1775
▁Han	-1776
▁Ger	-1777
ırı	-1778
oğun	-1779
▁Siz	-1780
▁aracı	-1781
▁elde	-1782
▁şart	-1783
▁tur	-1784
tin	-1785
...]	-1786
AT	-1787
▁olun	-1788
inizin	-1789
ens	-1790
ebek	-1791
▁mey	-1792
ıyorum	-1793
▁değildir	-1794
▁ölç	-1795
▁sipariş	-1796
▁onay	-1797
lenm	-1798
▁servis	-1799
▁Kı	-1800
▁yağ	-1801
▁hafta	-1802
▁ardından	-1803
▁itibar	-1804
siyon	-1805
▁sizin	-1806
▁Pr	-1807
▁Sür	-1808
aza	-1809
▁Su	-1810
veriş	-1811
imize	-1812
▁Sev	-1813
▁ses	-1814
▁Ter	-1815
▁and	-1816
▁Tes	-1817
▁kez	-1818
▁nedir	-1819
uh	-1820
▁ABD	-1821
elere	-1822
iyeti	-1823
▁siteleri	-1824
▁ortam	-1825
lif	-1826
ou	-1827
emi	-1828
▁artık	-1829
imizin	-1830
▁Sistem	-1831
▁Kır	-1832
▁Res	-1833
▁koş	-1834
▁renk	-1835
mı	-1836
▁alanlar	-1837
ie	-1838
▁[...]	-1839
tım	-1840
▁Ul	-1841
▁türlü	-1842
▁Geç	-1843
sında	-1844
▁for	-1845
ampan	-1846
su	-1847
▁Ör	-1848
▁yönelik	-1849
atif	-1850
▁bugün	-1851
▁madd	-1852
▁uç	-1853
isinin	-1854
adolu	-1855
▁tük	-1856
▁yarar	-1857
uslararası	-1858
asını	-1859
eci	-1860
▁mik	-1861
isay	-1862
uc	-1863
▁geldi	-1864
▁Bunun	-1865
ift	-1866
▁belg	-1867
▁genç	-1868
▁Spor	-1869
▁nedeniyle	-1870
▁platform	-1871
▁Ama	-1872
▁Gazet	-1873
▁teslim	-1874
EM	-1875
ba	-1876
▁gerekir	-1877
▁herk	-1878
▁sunu	-1879
▁ihtiyaç	-1880
▁böyle	-1881
▁Bayan	-1882
▁halinde	-1883
lulu	-1884
▁İzmir	-1885
▁ber	-1886
esinden	-1887
ogle	-1888
▁oku	-1889
▁sağla	-1890
▁içeriğ	-1891
▁hizmeti	-1892
▁küçük	-1893
▁uzman	-1894
sil	-1895
▁dahil	-1896
▁kapsamında	-1897
aran	-1898
gulama	-1899
▁•	-1900
tığı	-1901
▁dakika	-1902
▁zarar	-1903
yanın	-1904
▁temel	-1905
▁Do	-1906
▁anal	-1907
▁Hat	-1908
▁Ed	-1909
ET	-1910
▁sözleş	-1911
etleri	-1912
sman	-1913
▁Ajansı	-1914
▁olmayan	-1915
▁mevcut	-1916
▁fotoğraf	-1917
imde	-1918
▁boyun	-1919
▁cin	-1920
lüğü	-1921
▁yarat	-1922
malar	-1923
▁Sitemiz	-1924
▁İnsan	-1925
▁Go	-1926
▁sey	-1927
▁koy	-1928
▁fayda	-1929
▁Say	-1930
isk	-1931
ücad	-1932
dül	-1933
okta	-1934
▁Çerez	-1935
▁Cevabı	-1936
▁Bul	-1937
pp	-1938
anlar	-1939
▁anlaş	-1940
▁hesabınız	-1941
▁Şirket	-1942
▁casino	-1943
▁pek	-1944
▁ner	-1945
nız	-1946
uştu	-1947
▁Aş	-1948
▁st	-1949
▁medya	-1950
▁hangi	-1951
▁konusu	-1952
▁Ab	-1953
yo	-1954
▁bakım	-1955
dığınız	-1956
iyim	-1957
▁inan	-1958
▁sab	-1959
üler	-1960
▁Man	-1961
üncü	-1962
imizi	-1963
▁pan	-1964
zu	-1965
▁adı	-1966
▁Sitesi	-1967
gisi	-1968
▁Mobil	-1969
▁ifade	-1970
erson	-1971
▁ekonom	-1972
▁ul	-1973
▁kullanılmak	-1974
▁Mar	-1975
▁.	-1976
▁Sosyal	-1977
▁Alan	-1978
▁geniş	-1979
▁izle	-1980
▁erkek	-1981
▁mobil	-1982
▁Ah	-1983
isayar	-1984
abileceğ	-1985
▁yetk	-1986
▁iy	-1987
▁yaptığı	-1988
▁Belediyesi	-1989
▁etmiş	-1990
ümü	-1991
▁ücretsiz	-1992
▁ilan	-1993
▁Ağ	-1994
▁ilişk	-1995
ast	-1996
▁vak	-1997
izm	-1998
üf	-1999
▁Ey	-2000
▁Mod	-2001
onu	-2002
ord	-2003
▁Yer	-2004
▁kural	-2005
lardır	-2006
▁sayesinde	-2007
▁maç	-2008
abancı	-2009
▁adımı	-2010
alat	-2011
▁anla	-2012
▁Em	-2013
▁yaşan	-2014
▁Eğer	-2015
ind	-2016
▁video	-2017
alnız	-2018
alar	-2019
pit	-2020
mayan	-2021
▁tıklayın	-2022
▁isteyen	-2023
dum	-2024
larınızı	-2025
▁kaldır	-2026
▁hiss	-2027
▁yüksel	-2028
▁kaliteli	-2029
▁dir	-2030
▁kargo	-2031
bahis	-2032
name	-2033
▁ödeme	-2034
▁dair	-2035
▁ab	-2036
▁seçenek	-2037
▁adet	-2038
▁Bas	-2039
▁Mal	-2040
AL	-2041
▁Erdoğan	-2042
asyonu	-2043
▁Bit	-2044
▁te	-2045
▁Yak	-2046
▁sefere	-2047
umu	-2048
▁ister	-2049
lis	-2050
▁le	-2051
▁tarayıcıya	-2052
▁Mas	-2053
▁kit	-2054
▁saldır	-2055
afa	-2056
elerini	-2057
malıdır	-2058
▁Üy	-2059
sın	-2060
▁dahaki	-2061
ığ	-2062
▁Anadolu	-2063
▁hüküm	-2064
erji	-2065
uan	-2066
▁Seç	-2067
▁St	-2068
▁vatan	-2069
ami	-2070
▁ilç	-2071
duk	-2072
▁boz	-2073
▁bizim	-2074
uvar	-2075
▁Para	-2076
▁ettiğ	-2077
▁Giz	-2078
▁İlet	-2079
▁başladı	-2080
▁yapıyor	-2081
▁çeşitli	-2082
▁?	-2083
▁cihaz	-2084
▁yaptığımda	-2085
▁ele	-2086
lanmış	-2087
▁av	-2088
haba	-2089
ücü	-2090
▁bunu	-2091
▁olay	-2092
ina	-2093
▁şekl	-2094
▁dolayı	-2095
yonel	-2096
▁Hakkında	-2097
▁form	-2098
▁Hav	-2099
▁öner	-2100
ube	-2101
▁kitap	-2102
▁İyi	-2103
▁yeniden	-2104
ukarı	-2105
his	-2106
meyi	-2107
▁mağ	-2108
▁çağ	-2109
▁yat	-2110
▁Soru	-2111
meniz	-2112
▁Merkezi	-2113
▁istem	-2114
▁Kim	-2115
▁Bağ	-2116
▁Facebook	-2117
▁yanı	-2118
fesyonel	-2119
mem	-2120
▁tasarım	-2121
evi	-2122
har	-2123
be	-2124
▁anlat	-2125
esel	-2126
▁kullanılan	-2127
ıda	-2128
▁sahibi	-2129
orno	-2130
▁bilm	-2131
lüt	-2132
▁unut	-2133
▁Twitter	-2134
za	-2135
edim	-2136
▁boş	-2137
▁vur	-2138
ünden	-2139
▁Gerekli	-2140
uğ	-2141
▁bilgileri	-2142
▁hacklink	-2143
▁pak	-2144
lek	-2145
▁tanı	-2146
emin	-2147
▁Açık	-2148
▁Deniz	-2149
▁Den	-2150
▁Belediye	-2151
▁Gö	-2152
▁oluyor	-2153
▁mah	-2154
ork	-2155
▁Sak	-2156
▁ayrı	-2157
ınca	-2158
str	-2159
▁bor	-2160
▁iade	-2161
▁pazar	-2162
▁eski	-2163
elerde	-2164
▁teknik	-2165
▁Casino	-2166
oktor	-2167
▁dışında	-2168
▁tavs	-2169
▁ağır	-2170
▁istiyor	-2171
atur	-2172
▁Yayın	-2173
▁dok	-2174
▁can	-2175
▁Per	-2176
▁Bun	-2177
▁verilen	-2178
▁Çev	-2179
▁sizlere	-2180
▁devlet	-2181
▁olab	-2182
▁ortak	-2183
lüğ	-2184
erken	-2185
▁sebep	-2186
▁gez	-2187
ince	-2188
ight	-2189
▁dayan	-2190
▁Kayıt	-2191
layarak	-2192
▁Çek	-2193
▁lis	-2194
▁uzak	-2195
▁bize	-2196
oğu	-2197
▁sig	-2198
▁bet	-2199
muştur	-2200
arken	-2201
inizde	-2202
▁Google	-2203
▁ekip	-2204
▁beraber	-2205
ınav	-2206
▁yine	-2207
▁Politik	-2208
▁Aralık	-2209
asındaki	-2210
akk	-2211
▁Tarih	-2212
▁Kullanıcı	-2213
▁Cumhurbaş	-2214
mızı	-2215
lenmesi	-2216
inal	-2217
air	-2218
IN	-2219
▁yayımlan	-2220
ola	-2221
▁Diğer	-2222
▁bana	-2223
▁kuruluş	-2224
alet	-2225
▁biraz	-2226
ess	-2227
▁ara	-2228
▁Osman	-2229
ört	-2230
▁olacaktır	-2231
▁Bah	-2232
▁görül	-2233
inci	-2234
▁dep	-2235
▁amacıyla	-2236
▁eksik	-2237
diğini	-2238
alım	-2239
ijital	-2240
▁yemek	-2241
elidir	-2242
▁başvuru	-2243
tim	-2244
▁teknoloj	-2245
▁İletişim	-2246
lil	-2247
çiler	-2248
▁©	-2249
▁Prof	-2250
▁ederek	-2251
▁ayar	-2252
our	-2253
lenme	-2254
ışık	-2255
▁yazın	-2256
▁durumda	-2257
bak	-2258
cılık	-2259
▁fik	-2260
▁sanat	-2261
düğ	-2262
kın	-2263
▁kanal	-2264
▁ders	-2265
ku	-2266
▁Alman	-2267
AK	-2268
▁oda	-2269
▁Sav	-2270
rik	-2271
▁tamamen	-2272
yar	-2273
lin	-2274
mamış	-2275
deş	-2276
▁adım	-2277
▁am	-2278
▁Devlet	-2279
▁özellikle	-2280
▁mis	-2281
▁nit	-2282
▁çıkan	-2283
HP	-2284
▁müz	-2285
ment	-2286
usal	-2287
▁hale	-2288
▁Kurum	-2289
▁j	-2290
ela	-2291
forman	-2292
leriyle	-2293
lanacak	-2294
▁sürdür	-2295
▁Kö	-2296
▁gerç	-2297
lerinizi	-2298
▁işlet	-2299
umlu	-2300
▁artır	-2301
▁üye	-2302
esiyle	-2303
▁Film	-2304
▁lüt	-2305
cağı	-2306
ban	-2307
ülen	-2308
meden	-2309
▁üretim	-2310
▁güvenilir	-2311
ES	-2312
▁Yönet	-2313
uar	-2314
▁görüntü	-2315
▁tanım	-2316
ıştır	-2317
otor	-2318
▁bilim	-2319
).	-2320
İT	-2321
▁us	-2322
menin	-2323
inc	-2324
ke	-2325
▁organ	-2326
▁bay	-2327
▁Türkçe	-2328
▁Kol	-2329
tic	-2330
▁Demir	-2331
www	-2332
▁sağlar	-2333
laka	-2334
▁yapılacak	-2335
▁saç	-2336
▁Alı	-2337
yası	-2338
AD	-2339
▁aj	-2340
▁giz	-2341
▁iddi	-2342
▁lütfen	-2343
amız	-2344
▁Antalya	-2345
▁aktar	-2346
rafik	-2347
asının	-2348
apor	-2349
▁şeh	-2350
▁AK	-2351
▁key	-2352
▁mücad	-2353
ünüyor	-2354
▁Yardım	-2355
AS	-2356
ünüz	-2357
▁birbir	-2358
tarı	-2359
gesi	-2360
tern	-2361
▁deneyim	-2362
ene	-2363
▁X	-2364
ekor	-2365
▁Genç	-2366
akliyat	-2367
ga	-2368
elerdir	-2369
likleri	-2370
ian	-2371
▁boyunca	-2372
▁doğr	-2373
▁Sp	-2374
ect	-2375
▁hava	-2376
▁şehir	-2377
şam	-2378
▁bunun	-2379
▁gerekmektedir	-2380
▁edilir	-2381
▁koşul	-2382
▁Bar	-2383
ser	-2384
▁Program	-2385
▁tespit	-2386
▁sorumlu	-2387
▁piyas	-2388
▁Hem	-2389
sit	-2390
▁gec	-2391
▁Meh	-2392
anışman	-2393
▁İnternet	-2394
▁nedenle	-2395
▁doldur	-2396
▁Af	-2397
▁ikinci	-2398
▁tarif	-2399
▁mek	-2400
▁nokta	-2401
ışma	-2402
ome	-2403
▁tarihi	-2404
▁grup	-2405
▁sağlamak	-2406
▁adresi	-2407
ata	-2408
▁olsa	-2409
▁mas	-2410
tion	-2411
▁Dön	-2412
cret	-2413
üst	-2414
▁Bilg	-2415
anlış	-2416
ült	-2417
▁kişiler	-2418
enler	-2419
▁Tam	-2420
▁müşteri	-2421
atik	-2422
abilecek	-2423
▁Uygulama	-2424
▁toplum	-2425
iğini	-2426
▁Bilgi	-2427
▁benz	-2428
lıkla	-2429
▁Eş	-2430
▁Haz	-2431
▁Önc	-2432
▁dönüş	-2433
istik	-2434
ha	-2435
▁Düz	-2436
▁Elektr	-2437
itör	-2438
▁kah	-2439
ham	-2440
▁yalnız	-2441
▁Tab	-2442
▁Ali	-2443
▁Mark	-2444
▁Yatır	-2445
▁teh	-2446
ipto	-2447
▁Proj	-2448
laması	-2449
▁sistemi	-2450
▁güvenlik	-2451
▁Sah	-2452
▁parça	-2453
▁süreç	-2454
▁yaptır	-2455
lasyon	-2456
▁doğal	-2457
▁memnun	-2458
elen	-2459
▁dosya	-2460
mar	-2461
AY	-2462
▁yayımlanmayacak	-2463
sak	-2464
▁burada	-2465
▁oto	-2466
▁sar	-2467
▁Yüksek	-2468
▁Aydın	-2469
liyor	-2470
▁yapılır	-2471
▁etkil	-2472
▁Fiyatları	-2473
▁hey	-2474
ılıyor	-2475
▁Kurulu	-2476
kaç	-2477
▁kullanarak	-2478
▁Güncel	-2479
▁kelim	-2480
lanma	-2481
▁ac	-2482
ress	-2483
▁oyuncu	-2484
▁tüket	-2485
▁ail	-2486
▁Ada	-2487
▁biç	-2488
ore	-2489
yle	-2490
▁kart	-2491
fi	-2492
▁çevr	-2493
▁fiyatları	-2494
▁kültür	-2495
▁yürüt	-2496
▁takım	-2497
▁hurda	-2498
▁çiz	-2499
utbol	-2500
▁kampan	-2501
layıcı	-2502
▁savaş	-2503
▁yık	-2504
lâ	-2505
lendi	-2506
▁suç	-2507
▁kas	-2508
ation	-2509
liğini	-2510
▁sıcak	-2511
aları	-2512
▁isim	-2513
▁itibaren	-2514
▁sırasında	-2515
emez	-2516
mayın	-2517
▁»	-2518
▁okuy	-2519
elerine	-2520
her	-2521
▁ey	-2522
▁Ekim	-2523
▁Dest	-2524
▁başvur	-2525
▁arama	-2526
üle	-2527
▁söyledi	-2528
eşil	-2529
pt	-2530
aten	-2531
ker	-2532
▁müşteriler	-2533
▁alır	-2534
▁vatandaş	-2535
▁Tasar	-2536
ayi	-2537
ınızda	-2538
▁Lis	-2539
seniz	-2540
▁yani	-2541
▁günlük	-2542
▁Kitap	-2543
▁kişinin	-2544
▁sebeb	-2545
▁Sözleş	-2546
▁onun	-2547
cılar	-2548
▁işaretlenmiş	-2549
makta	-2550
▁gerekt	-2551
▁istediğiniz	-2552
ese	-2553
▁sınıf	-2554
eksiyon	-2555
▁siyas	-2556
▁adına	-2557
▁malzem	-2558
miştir	-2559
ediye	-2560
▁çar	-2561
▁Kız	-2562
▁aşağıdaki	-2563
lında	-2564
▁hatır	-2565
▁Rusya	-2566
▁Yüz	-2567
▁inş	-2568
gen	-2569
▁ana	-2570
▁Se	-2571
▁ic	-2572
▁Ücret	-2573
gür	-2574
ova	-2575
▁No	-2576
▁yazılım	-2577
▁sayılı	-2578
▁hasta	-2579
fak	-2580
HA	-2581
▁Net	-2582
▁okul	-2583
▁belli	-2584
blem	-2585
▁Güvenilir	-2586
maktay	-2587
lenir	-2588
tepe	-2589
ormal	-2590
▁Çünkü	-2591
▁alışveriş	-2592
▁Amer	-2593
▁uğr	-2594
▁merak	-2595
▁Bakanlığı	-2596
ilmiştir	-2597
▁net	-2598
EK	-2599
▁Un	-2600
▁varsa	-2601
▁geliyor	-2602
▁rağ	-2603
▁seçim	-2604
ult	-2605
▁yoğun	-2606
▁hastalık	-2607
▁vüc	-2608
mesini	-2609
etik	-2610
UR	-2611
▁Göz	-2612
inans	-2613
▁Kategor	-2614
muz	-2615
ersiz	-2616
kr	-2617
▁onu	-2618
masının	-2619
▁Sal	-2620
▁str	-2621
▁pat	-2622
erç	-2623
meyen	-2624
ulan	-2625
▁çıktı	-2626
▁İşte	-2627
dız	-2628
▁Kültür	-2629
▁tec	-2630
▁beğ	-2631
adan	-2632
▁adam	-2633
▁ekran	-2634
▁Yet	-2635
▁aldı	-2636
atör	-2637
cağını	-2638
oda	-2639
▁sürekli	-2640
lerce	-2641
▁Sanat	-2642
elerinin	-2643
▁anda	-2644
▁bulunmaktadır	-2645
▁gazet	-2646
▁Var	-2647
▁Sor	-2648
▁hikay	-2649
aşa	-2650
luğ	-2651
▁Çık	-2652
izyon	-2653
▁The	-2654
AM	-2655
▁Büyükşehir	-2656
▁aray	-2657
luğu	-2658
ern	-2659
mız	-2660
leniyor	-2661
▁Haf	-2662
▁kaybet	-2663
▁konuda	-2664
▁belirtilen	-2665
▁durumunda	-2666
▁Parti	-2667
dığımız	-2668
diğiniz	-2669
▁Haberleri	-2670
▁Can	-2671
ısından	-2672
elikle	-2673
▁kullanılır	-2674
▁sok	-2675
▁ilaç	-2676
▁makin	-2677
▁ürünler	-2678
meleri	-2679
▁uyar	-2680
▁kategor	-2681
▁by	-2682
▁ettiği	-2683
▁not	-2684
▁ah	-2685
ân	-2686
içek	-2687
▁gider	-2688
elleri	-2689
Bu	-2690
▁eriş	-2691
EL	-2692
▁halı	-2693
▁Paylaş	-2694
▁üçüncü	-2695
▁sayfa	-2696
▁Erk	-2697
▁test	-2698
▁banka	-2699
İN	-2700
▁Etik	-2701
▁kapat	-2702
▁Neden	-2703
▁Bonusu	-2704
▁Sam	-2705
enüz	-2706
▁edebilirsiniz	-2707
▁politik	-2708
▁hakkı	-2709
qu	-2710
▁toplam	-2711
▁yaklaşık	-2712
▁Ül	-2713
geç	-2714
taş	-2715
▁alma	-2716
▁yurt	-2717
▁person	-2718
▁rağmen	-2719
latma	-2720
▁Gizlilik	-2721
▁Oy	-2722
altı	-2723
▁sizi	-2724
ilerini	-2725
▁Çin	-2726
▁muh	-2727
▁şif	-2728
▁yönetim	-2729
sının	-2730
▁online	-2731
▁Merhaba	-2732
▁dışı	-2733
▁Pan	-2734
▁don	-2735
▁Servisi	-2736
▁mez	-2737
▁profesyonel	-2738
med	-2739
▁İngiliz	-2740
▁Cumhurbaşkanı	-2741
ry	-2742
olojik	-2743
vet	-2744
▁Sh	-2745
öv	-2746
▁Mahall	-2747
▁ka	-2748
gaz	-2749
▁Kab	-2750
▁hast	-2751
▁kayn	-2752
▁toplantı	-2753
▁sik	-2754
▁tarihinde	-2755
▁Bursa	-2756
▁bulunuyor	-2757
leyin	-2758
emal	-2759
▁sp	-2760
▁Part	-2761
▁Sur	-2762
▁Gön	-2763
erçev	-2764
ebileceğ	-2765
▁kredi	-2766
ören	-2767
unan	-2768
▁Mehmet	-2769
dığında	-2770
▁Yazı	-2771
▁seviy	-2772
▁teklif	-2773
stafa	-2774
▁Lüt	-2775
lev	-2776
tuk	-2777
▁Politikası	-2778
lot	-2779
ia	-2780
▁edilmesi	-2781
luluğu	-2782
ıt	-2783
▁verir	-2784
▁bes	-2785
opüler	-2786
tand	-2787
▁Ma	-2788
erler	-2789
lav	-2790
▁Mad	-2791
▁istiyorum	-2792
▁Çan	-2793
dıktan	-2794
ies	-2795
▁kir	-2796
uro	-2797
▁tep	-2798
▁derece	-2799
▁baz	-2800
▁bilgilendir	-2801
▁bonus	-2802
ezi	-2803
▁davran	-2804
▁gerekiyor	-2805
▁Müşt	-2806
▁hoş	-2807
▁it	-2808
İK	-2809
emesi	-2810
bilir	-2811
ıllı	-2812
▁seks	-2813
▁Oda	-2814
▁yanıt	-2815
leriniz	-2816
ly	-2817
bah	-2818
▁çerezler	-2819
lamaya	-2820
▁Kam	-2821
▁içeren	-2822
iddet	-2823
neği	-2824
elt	-2825
▁Ch	-2826
fet	-2827
▁tart	-2828
▁sin	-2829
▁ayrıca	-2830
▁şah	-2831
▁Yas	-2832
eyn	-2833
▁yazar	-2834
ıldığı	-2835
lüm	-2836
amı	-2837
sim	-2838
▁beni	-2839
▁Satın	-2840
son	-2841
eceği	-2842
▁Mut	-2843
abil	-2844
ener	-2845
▁Dik	-2846
▁aracılığı	-2847
ard	-2848
ayet	-2849
aca	-2850
▁kalı	-2851
▁edecek	-2852
▁ted	-2853
▁tedavi	-2854
▁ürünleri	-2855
▁temsil	-2856
▁sahiptir	-2857
▁marka	-2858
.)	-2859
imizde	-2860
izik	-2861
cısı	-2862
▁halk	-2863
lanmaktadır	-2864
olis	-2865
unması	-2866
ton	-2867
▁problem	-2868
▁sohbet	-2869
▁kayb	-2870
out	-2871
vey	-2872
▁ederim	-2873
▁değişiklik	-2874
▁Hes	-2875
ren	-2876
itimi	-2877
ilerine	-2878
▁olmadan	-2879
▁alanında	-2880
▁güçlü	-2881
▁düşük	-2882
▁yanında	-2883
▁birkaç	-2884
▁yanlış	-2885
▁Yönetim	-2886
adığ	-2887
▁verdi	-2888
ülü	-2889
▁Sır	-2890
▁Eylül	-2891
▁fırsat	-2892
▁Kür	-2893
LI	-2894
anlığ	-2895
▁durumu	-2896
▁dolar	-2897
▁vb	-2898
kar	-2899
▁tavsiye	-2900
▁Başv	-2901
▁doktor	-2902
▁gerçekleş	-2903
▁Ort	-2904
▁analiz	-2905
▁Kend	-2906
▁tip	-2907
▁pay	-2908
larca	-2909
▁şöyle	-2910
mesine	-2911
▁tabi	-2912
ilerek	-2913
▁örnek	-2914
▁sayısı	-2915
ger	-2916
▁Lütfen	-2917
▁Güzel	-2918
▁İk	-2919
ılma	-2920
▁Düş	-2921
ımıza	-2922
▁yabancı	-2923
▁Diy	-2924
▁Günü	-2925
KK	-2926
▁Dil	-2927
ezon	-2928
erv	-2929
▁hakları	-2930
▁düny	-2931
▁seçen	-2932
irüs	-2933
iran	-2934
▁Anal	-2935
▁kalan	-2936
▁performan	-2937
neğin	-2938
▁araştırma	-2939
▁vermek	-2940
▁Bakan	-2941
laştı	-2942
▁Kaynak	-2943
▁doğrudan	-2944
▁kısm	-2945
▁hukuki	-2946
▁sonrası	-2947
sen	-2948
par	-2949
▁katılım	-2950
▁Siteleri	-2951
▁yıllık	-2952
üme	-2953
lığını	-2954
▁sek	-2955
▁Kurul	-2956
▁Yol	-2957
▁Millet	-2958
▁rak	-2959
▁iler	-2960
▁risk	-2961
▁şimdi	-2962
okr	-2963
▁Altın	-2964
▁başarılı	-2965
▁kop	-2966
mey	-2967
▁açısından	-2968
▁İslam	-2969
yız	-2970
akt	-2971
yen	-2972
ceğ	-2973
▁taşıma	-2974
▁miktar	-2975
▁Re	-2976
▁diş	-2977
▁oper	-2978
abilmek	-2979
▁hizmetleri	-2980
▁bahs	-2981
ağıt	-2982
▁prot	-2983
▁bilgisayar	-2984
▁aday	-2985
ersin	-2986
icari	-2987
▁Of	-2988
▁sil	-2989
▁basın	-2990
▁Az	-2991
▁buraya	-2992
maktayız	-2993
▁nokt	-2994
eder	-2995
▁Aynı	-2996
▁ham	-2997
▁olmaz	-2998
▁sürede	-2999
▁paket	-3000
▁güvenli	-3001
▁elektrik	-3002
▁yolu	-3003
rüb	-3004
▁İndir	-3005
▁tel	-3006
olitika	-3007
▁düzenlenen	-3008
cr	-3009
elerinde	-3010
▁part	-3011
▁oyunları	-3012
▁Bal	-3013
larım	-3014
▁eşya	-3015
ros	-3016
ai	-3017
gü	-3018
▁yeterli	-3019
▁boyut	-3020
gal	-3021
iden	-3022
unuzu	-3023
ısıyla	-3024
▁tanıt	-3025
gar	-3026
▁deniz	-3027
ımızda	-3028
▁avan	-3029
stik	-3030
üştür	-3031
hats	-3032
▁sürec	-3033
▁detaylı	-3034
üya	-3035
▁Mustafa	-3036
▁kamu	-3037
yap	-3038
▁İçer	-3039
▁Bugün	-3040
teki	-3041
OR	-3042
dev	-3043
▁ıs	-3044
▁kötü	-3045
kray	-3046
▁vaz	-3047
▁yukarı	-3048
▁ifad	-3049
kası	-3050
▁muht	-3051
▁Telefon	-3052
▁isten	-3053
▁yum	-3054
▁yoktur	-3055
▁Kah	-3056
mıyor	-3057
cuz	-3058
hend	-3059
▁Erkek	-3060
tul	-3061
atej	-3062
▁çerçev	-3063
oli	-3064
▁otur	-3065
▁Uzman	-3066
▁avantaj	-3067
▁hayvan	-3068
▁Tat	-3069
▁işlemi	-3070
▁Araştır	-3071
tandart	-3072
▁oluşan	-3073
▁Şimdi	-3074
engin	-3075
▁Mahallesi	-3076
▁müda	-3077
tere	-3078
▁verilerin	-3079
▁sur	-3080
eliğ	-3081
alığı	-3082
▁haberleri	-3083
▁geçmiş	-3084
İR	-3085
▁cid	-3086
▁katkı	-3087
▁Yazar	-3088
coin	-3089
▁Karşı	-3090
▁Destek	-3091
▁Şub	-3092
▁rapor	-3093
▁men	-3094
▁çift	-3095
▁saldırı	-3096
▁www	-3097
CI	-3098
ity	-3099
unlu	-3100
▁ann	-3101
▁elektronik	-3102
asından	-3103
isan	-3104
▁mekan	-3105
▁min	-3106
▁otomatik	-3107
ilebilir	-3108
ilt	-3109
▁um	-3110
üper	-3111
▁TV	-3112
▁milyar	-3113
▁Mec	-3114
▁mük	-3115
▁zorunda	-3116
eyiz	-3117
▁Pazar	-3118
▁meydana	-3119
▁içi	-3120
▁Uluslararası	-3121
▁Detay	-3122
ON	-3123
▁Sonr	-3124
▁insanlar	-3125
▁ulaşabilirsiniz	-3126
ilah	-3127
iyel	-3128
ılacak	-3129
▁Temiz	-3130
dit	-3131
▁resmi	-3132
▁ediyorum	-3133
▁And	-3134
▁aşama	-3135
▁yüzden	-3136
▁mon	-3137
uyoruz	-3138
oca	-3139
▁Online	-3140
▁İle	-3141
yım	-3142
OS	-3143
▁geçerli	-3144
▁şeklinde	-3145
▁Mart	-3146
▁emin	-3147
▁fikir	-3148
▁taleb	-3149
pan	-3150
▁düşünüyor	-3151
iantep	-3152
▁iletişime	-3153
▁konum	-3154
▁pas	-3155
ous	-3156
emizde	-3157
▁mevzu	-3158
▁yararlan	-3159
kırı	-3160
▁Site	-3161
ternatif	-3162
▁millet	-3163
▁Instagram	-3164
imin	-3165
▁Tan	-3166
do	-3167
▁kod	-3168
▁Milli	-3169
▁hastan	-3170
▁kardeş	-3171
▁aldığı	-3172
▁ödem	-3173
ebilecek	-3174
▁İZ	-3175
lent	-3176
▁etkili	-3177
▁ku	-3178
▁Koca	-3179
edeki	-3180
▁bulundu	-3181
ayıp	-3182
▁gerçekten	-3183
▁dar	-3184
▁keş	-3185
▁yasal	-3186
▁Ac	-3187
▁eser	-3188
▁değerli	-3189
▁sonucu	-3190
vek	-3191
▁ödül	-3192
▁Bor	-3193
▁soğ	-3194
▁editör	-3195
alığ	-3196
▁verdiği	-3197
▁Teknik	-3198
▁Ticaret	-3199
endik	-3200
▁etme	-3201
▁Arka	-3202
▁Am	-3203
▁re	-3204
ana	-3205
▁karak	-3206
▁Güvenlik	-3207
▁Q	-3208
atürk	-3209
▁Satış	-3210
▁başlık	-3211
Türk	-3212
▁gru	-3213
lal	-3214
▁Veri	-3215
▁Müz	-3216
▁Kart	-3217
▁Sin	-3218
omobil	-3219
pek	-3220
▁duyur	-3221
oya	-3222
▁Br	-3223
▁Sig	-3224
emmel	-3225
▁sağlıklı	-3226
."	-3227
▁Sar	-3228
düz	-3229
▁dal	-3230
ocuğ	-3231
▁Gül	-3232
▁kapı	-3233
iber	-3234
▁İşlem	-3235
▁alıyor	-3236
▁cook	-3237
▁yerde	-3238
iyer	-3239
▁Cumhuriyet	-3240
▁İh	-3241
▁ağr	-3242
▁sağlayan	-3243
abilm	-3244
▁ısı	-3245
▁mutlu	-3246
▁Tasarım	-3247
▁Böyle	-3248
▁Ukray	-3249
▁Almanya	-3250
▁sunul	-3251
ultan	-3252
▁Gerçek	-3253
▁Özellikle	-3254
▁alınan	-3255
▁eğlen	-3256
▁+	-3257
▁İlan	-3258
▁Dış	-3259
▁Esk	-3260
ded	-3261
köy	-3262
ayıs	-3263
▁Samsun	-3264
▁Bakanı	-3265
▁erişim	-3266
İL	-3267
▁aktif	-3268
▁edildi	-3269
▁yapar	-3270
▁zam	-3271
▁yoksa	-3272
▁birey	-3273
▁Sen	-3274
▁Müdürlüğü	-3275
anıyor	-3276
artesi	-3277
▁du	-3278
ediğini	-3279
▁Med	-3280
▁yaşında	-3281
erseniz	-3282
güt	-3283
yıl	-3284
ağa	-3285
▁Orta	-3286
▁mutlaka	-3287
▁Şehir	-3288
▁öğretmen	-3289
▁kesinlikle	-3290
win	-3291
▁yasak	-3292
▁üniversit	-3293
▁tutar	-3294
▁ir	-3295
▁yazılı	-3296
▁Medya	-3297
▁yarı	-3298
▁Hukuk	-3299
iralama	-3300
▁ta	-3301
▁başlayan	-3302
▁üyelik	-3303
▁anlay	-3304
▁düzey	-3305
lima	-3306
▁haline	-3307
unma	-3308
▁yapma	-3309
▁müdahal	-3310
rek	-3311
▁Ekonom	-3312
▁ruh	-3313
▁dört	-3314
▁odak	-3315
▁aittir	-3316
izasyon	-3317
umaş	-3318
▁parç	-3319
▁bi	-3320
▁Mayıs	-3321
▁Zaman	-3322
hi	-3323
ise	-3324
▁bağım	-3325
▁takdir	-3326
dığım	-3327
▁nerede	-3328
▁dost	-3329
▁yaparak	-3330
ses	-3331
▁lisans	-3332
▁Video	-3333
▁arasındaki	-3334
▁kür	-3335
çak	-3336
▁sol	-3337
▁yılı	-3338
▁enf	-3339
lanıyor	-3340
layınız	-3341
▁yav	-3342
arkı	-3343
▁diyor	-3344
▁poz	-3345
▁bölümde	-3346
▁bed	-3347
zz	-3348
▁karşılaş	-3349
gam	-3350
evk	-3351
▁Sı	-3352
AB	-3353
ırken	-3354
lanmıştır	-3355
▁link	-3356
▁dünyanın	-3357
▁Kullanım	-3358
▁şar	-3359
▁nef	-3360
ahtar	-3361
▁normal	-3362
▁Mi	-3363
tis	-3364
▁Ocak	-3365
rac	-3366
▁ilgi	-3367
ner	-3368
▁gelecek	-3369
▁motor	-3370
▁masa	-3371
iyah	-3372
▁tecrüb	-3373
▁Dav	-3374
▁yansı	-3375
müş	-3376
▁Ham	-3377
▁bizi	-3378
▁emek	-3379
▁trans	-3380
▁Vak	-3381
▁tesis	-3382
▁yapabilirsiniz	-3383
▁araya	-3384
bur	-3385
▁Yen	-3386
▁CHP	-3387
roid	-3388
▁Hayat	-3389
▁be	-3390
▁gece	-3391
üph	-3392
▁Taş	-3393
efer	-3394
▁Adana	-3395
meliyat	-3396
dağ	-3397
▁Kaç	-3398
SS	-3399
sızlık	-3400
▁yana	-3401
era	-3402
▁çünkü	-3403
düğü	-3404
▁haberler	-3405
▁genellikle	-3406
▁Bilim	-3407
▁Uzun	-3408
▁sem	-3409
▁se	-3410
▁taz	-3411
▁enerji	-3412
mıştı	-3413
rol	-3414
▁süresi	-3415
▁sonrasında	-3416
ildiği	-3417
ilerinin	-3418
▁hâ	-3419
▁Osmanlı	-3420
An	-3421
▁ekonomik	-3422
ayla	-3423
▁com	-3424
EO	-3425
▁yalnızca	-3426
▁altına	-3427
EMEN	-3428
▁nes	-3429
▁Temmuz	-3430
▁yem	-3431
örü	-3432
▁beri	-3433
hendis	-3434
▁kork	-3435
ümüzde	-3436
ılmaz	-3437
▁İZLE	-3438
▁Kazan	-3439
▁bonusu	-3440
▁yaptık	-3441
▁kampanya	-3442
esiz	-3443
▁insanların	-3444
▁cinsel	-3445
▁kendini	-3446
▁işlemleri	-3447
▁ajans	-3448
▁sonunda	-3449
▁Araç	-3450
spor	-3451
▁fakat	-3452
âr	-3453
▁Mev	-3454
▁Etiketler	-3455
▁Bazı	-3456
enizi	-3457
▁köy	-3458
▁Kredi	-3459
▁Atatürk	-3460
▁Fran	-3461
▁giy	-3462
▁değişim	-3463
▁idar	-3464
▁artış	-3465
▁görmek	-3466
erg	-3467
encer	-3468
▁ihtiyac	-3469
fil	-3470
▁sınav	-3471
dal	-3472
▁kul	-3473
adem	-3474
▁yapılması	-3475
▁Reklam	-3476
▁zaten	-3477
▁Çalışma	-3478
▁belirli	-3479
manızı	-3480
▁sayıda	-3481
elif	-3482
ck	-3483
▁Hizmetleri	-3484
▁Sel	-3485
▁bulunduğu	-3486
etin	-3487
layabilirsiniz	-3488
▁Nisan	-3489
bo	-3490
▁Kanunu	-3491
▁alacak	-3492
▁madde	-3493
▁Üst	-3494
▁Hastan	-3495
rah	-3496
enci	-3497
▁yönetic	-3498
▁alım	-3499
latı	-3500
ilim	-3501
▁Yatırım	-3502
▁inceley	-3503
▁Sey	-3504
yr	-3505
▁ona	-3506
▁adlı	-3507
▁tarz	-3508
seri	-3509
âh	-3510
▁ayak	-3511
adaki	-3512
▁Fır	-3513
dıkları	-3514
▁defa	-3515
▁puan	-3516
▁For	-3517
oman	-3518
mamız	-3519
asıyla	-3520
▁Hız	-3521
▁esn	-3522
▁yada	-3523
▁karakter	-3524
▁sitesinde	-3525
▁kaz	-3526
▁med	-3527
▁ciddi	-3528
▁yaşayan	-3529
▁porno	-3530
orta	-3531
▁kum	-3532
▁fatur	-3533
▁Gök	-3534
lisi	-3535
cının	-3536
▁Fakat	-3537
▁takipçi	-3538
▁koru	-3539
▁sonuc	-3540
▁istanbul	-3541
▁Ana	-3542
▁Kut	-3543
▁Fat	-3544
ED	-3545
▁Kemal	-3546
işehir	-3547
arya	-3548
▁Ahmet	-3549
▁alabilirsiniz	-3550
▁Birliği	-3551
▁Hazır	-3552
ze	-3553
▁başlat	-3554
▁Sadece	-3555
▁Reh	-3556
▁İngiltere	-3557
▁Haziran	-3558
ğust	-3559
▁Ukrayna	-3560
ampiyon	-3561
likler	-3562
▁Tah	-3563
▁Pak	-3564
▁mar	-3565
ete	-3566
İM	-3567
▁ayında	-3568
▁buna	-3569
▁Whats	-3570
lediği	-3571
▁Değiş	-3572
lanabilir	-3573
▁sonraki	-3574
▁öde	-3575
▁cam	-3576
▁bal	-3577
▁edebilir	-3578
▁Hakları	-3579
diğinde	-3580
▁Cevap	-3581
▁Sayı	-3582
▁Teknoloji	-3583
▁mahk	-3584
rem	-3585
▁Dair	-3586
int	-3587
▁basit	-3588
hone	-3589
osyon	-3590
▁gar	-3591
elerden	-3592
▁end	-3593
▁Com	-3594
▁Görün	-3595
uzey	-3596
▁kanun	-3597
▁Halk	-3598
▁olduğunuz	-3599
irin	-3600
▁Yani	-3601
ikayet	-3602
▁Mon	-3603
▁ayır	-3604
▁İçerik	-3605
▁devr	-3606
▁Yorumunuz	-3607
▁List	-3608
▁arttır	-3609
masında	-3610
ST	-3611
▁kapalı	-3612
▁App	-3613
aranti	-3614
▁yüküm	-3615
▁keyif	-3616
maktan	-3617
ğustos	-3618
▁zengin	-3619
▁Bebek	-3620
▁lim	-3621
▁benzer	-3622
▁Sayfa	-3623
▁ülke	-3624
▁şiddet	-3625
umsuz	-3626
▁içeriği	-3627
ima	-3628
▁Not	-3629
▁Gönder	-3630
▁uyarı	-3631
▁heyec	-3632
larımızı	-3633
▁nitelik	-3634
▁Tav	-3635
▁dijital	-3636
▁kuş	-3637
▁ölüm	-3638
▁İlgili	-3639
▁You	-3640
ulması	-3641
▁Ef	-3642
▁halde	-3643
desi	-3644
dırma	-3645
ust	-3646
arım	-3647
▁Tel	-3648
eğe	-3649
rika	-3650
▁özgür	-3651
▁Beş	-3652
fo	-3653
▁yorumlar	-3654
▁kişilerin	-3655
miyor	-3656
▁derec	-3657
▁hayal	-3658
▁Üret	-3659
ımızı	-3660
▁Hikay	-3661
▁istek	-3662
oid	-3663
work	-3664
emiş	-3665
ediy	-3666
dük	-3667
▁cep	-3668
lerimizi	-3669
▁Sipariş	-3670
▁yapın	-3671
▁aslında	-3672
▁kullanımı	-3673
▁etmektedir	-3674
▁gösteren	-3675
leyici	-3676
▁Üye	-3677
▁bab	-3678
hane	-3679
▁Sohbet	-3680
▁çevir	-3681
▁blog	-3682
▁görünt	-3683
taki	-3684
ladığı	-3685
üslüm	-3686
▁veriyor	-3687
diğimiz	-3688
▁personel	-3689
uzu	-3690
▁Le	-3691
▁kaf	-3692
rom	-3693
▁ateş	-3694
▁yere	-3695
▁ticaret	-3696
we	-3697
▁aşı	-3698
▁öldür	-3699
ndan	-3700
▁Hol	-3701
anan	-3702
▁uluslararası	-3703
▁Tarif	-3704
illa	-3705
▁Ap	-3706
emli	-3707
▁Elektrik	-3708
▁dolu	-3709
ilmesini	-3710
▁aracılığıyla	-3711
larımızın	-3712
▁çarp	-3713
▁Nakliyat	-3714
▁beyaz	-3715
▁ilgil	-3716
▁arada	-3717
▁Mus	-3718
▁Pat	-3719
▁paylaşım	-3720
▁gerektir	-3721
estiv	-3722
▁işe	-3723
▁Te	-3724
▁müşter	-3725
▁Saat	-3726
▁Bin	-3727
xt	-3728
▁Devam	-3729
▁henüz	-3730
tiğimiz	-3731
▁indirim	-3732
▁aykırı	-3733
▁ticari	-3734
▁karş	-3735
▁Kul	-3736
▁Takip	-3737
▁herkes	-3738
daa	-3739
▁Bölüm	-3740
▁firmamız	-3741
yer	-3742
▁düşünc	-3743
▁sorumluluk	-3744
▁alanda	-3745
▁lider	-3746
Al	-3747
▁Gaziantep	-3748
▁sıkıntı	-3749
▁kararı	-3750
lığa	-3751
▁Dep	-3752
▁Th	-3753
▁Kılı	-3754
▁kendisine	-3755
▁Hangi	-3756
adi	-3757
▁Teş	-3758
omosyon	-3759
▁İm	-3760
▁bebek	-3761
are	-3762
▁Pas	-3763
▁Kanun	-3764
▁söylem	-3765
acağı	-3766
▁tas	-3767
HEMEN	-3768
▁beş	-3769
▁ürünü	-3770
▁türk	-3771
▁)	-3772
▁Fark	-3773
abileceğiniz	-3774
▁önemlidir	-3775
▁Hava	-3776
▁sene	-3777
▁Yurt	-3778
ilecektir	-3779
isiniz	-3780
▁döv	-3781
▁eve	-3782
▁Değer	-3783
▁fiyatı	-3784
▁aşağıda	-3785
▁esas	-3786
obet	-3787
▁yaşama	-3788
▁standart	-3789
akült	-3790
▁İd	-3791
LAR	-3792
▁şef	-3793
▁önceki	-3794
▁Ders	-3795
▁Ner	-3796
▁Derneği	-3797
bon	-3798
bası	-3799
DP	-3800
▁İliş	-3801
▁Kup	-3802
▁öyle	-3803
▁merkezi	-3804
▁başına	-3805
evizyon	-3806
▁tahmin	-3807
▁kims	-3808
▁Konya	-3809
üny	-3810
▁Konu	-3811
▁Boz	-3812
▁hatta	-3813
▁düşür	-3814
dalı	-3815
bay	-3816
▁Fil	-3817
▁harika	-3818
ıb	-3819
sas	-3820
▁Tut	-3821
▁yeri	-3822
alim	-3823
indow	-3824
▁kent	-3825
▁neler	-3826
th	-3827
iklet	-3828
▁arası	-3829
▁Bek	-3830
eytin	-3831
▁silah	-3832
üstü	-3833
abz	-3834
▁derin	-3835
▁Sık	-3836
▁Ağustos	-3837
cisi	-3838
▁süt	-3839
▁firması	-3840
gör	-3841
AP	-3842
ekteyiz	-3843
▁yara	-3844
▁Co	-3845
▁numar	-3846
▁çoğu	-3847
▁ayrıntı	-3848
▁düzenlem	-3849
▁teknoloji	-3850
▁ediyoruz	-3851
fır	-3852
ıklı	-3853
▁Cen	-3854
uf	-3855
asi	-3856
▁sanal	-3857
▁imz	-3858
▁kuru	-3859
▁müzik	-3860
▁futbol	-3861
uklu	-3862
üştü	-3863
madı	-3864
▁olmuş	-3865
▁ettik	-3866
▁aydın	-3867
▁kurtul	-3868
▁akşam	-3869
▁Sanayi	-3870
mür	-3871
▁Okul	-3872
▁Verilerin	-3873
aka	-3874
▁Amerika	-3875
▁day	-3876
üğün	-3877
▁vazgeç	-3878
▁Bayram	-3879
▁vakit	-3880
▁olmadığını	-3881
▁Mesaj	-3882
▁görsel	-3883
ron	-3884
▁Nelerdir	-3885
▁ekib	-3886
▁hus	-3887
▁Ülk	-3888
asa	-3889
rum	-3890
▁popüler	-3891
▁Gazetesi	-3892
▁Sab	-3893
▁fon	-3894
▁düzelt	-3895
▁Küçük	-3896
ock	-3897
aberi	-3898
▁Saç	-3899
▁seyahat	-3900
▁mükemmel	-3901
cilik	-3902
▁aylık	-3903
iir	-3904
eygam	-3905
▁yapabilir	-3906
▁mahal	-3907
dam	-3908
▁Nur	-3909
▁Ücretsiz	-3910
eceğini	-3911
▁Str	-3912
▁dam	-3913
▁başında	-3914
lendirme	-3915
▁Boy	-3916
▁Sa	-3917
▁Mac	-3918
adık	-3919
▁konuştu	-3920
▁hala	-3921
▁Mersin	-3922
▁yapmış	-3923
▁toprak	-3924
▁vit	-3925
▁izley	-3926
▁sona	-3927
▁davet	-3928
▁mec	-3929
demi	-3930
ekim	-3931
▁Bunu	-3932
▁Din	-3933
sh	-3934
▁Cam	-3935
ınızın	-3936
▁teşekkürler	-3937
▁cüm	-3938
▁finans	-3939
ipt	-3940
▁özellikleri	-3941
▁olmadığı	-3942
▁zorunlu	-3943
▁Başvuru	-3944
liğinde	-3945
▁eğer	-3946
AŞ	-3947
▁yayınlanan	-3948
▁cev	-3949
▁sitesinin	-3950
▁Sistemi	-3951
▁Taşı	-3952
▁del	-3953
▁ünlü	-3954
▁kripto	-3955
▁dök	-3956
▁Tür	-3957
▁fizik	-3958
onya	-3959
▁iddia	-3960
lıklar	-3961
▁baskı	-3962
▁şeyi	-3963
▁Porno	-3964
say	-3965
ileştir	-3966
▁Tay	-3967
ışın	-3968
▁Cop	-3969
▁hap	-3970
▁sezon	-3971
▁Danışman	-3972
▁şans	-3973
▁Beyaz	-3974
▁alanı	-3975
▁girişim	-3976
▁alarak	-3977
▁TÜ	-3978
eceğiz	-3979
▁mücadele	-3980
▁Burada	-3981
ledik	-3982
▁çalışmaları	-3983
ith	-3984
▁buluş	-3985
org	-3986
amak	-3987
LER	-3988
▁altın	-3989
▁Yaşam	-3990
▁öğ	-3991
ocam	-3992
▁imza	-3993
▁Sultan	-3994
▁alanları	-3995
▁kaldı	-3996
uyorum	-3997
▁oyunu	-3998
▁Ziyaret	-3999
lerim	-4000
▁taşın	-4001
▁Cin	-4002
▁gıda	-4003
▁zevk	-4004
kil	-4005
ahmet	-4006
▁uygulaması	-4007
▁kok	-4008
▁eylem	-4009
▁ceza	-4010
ansız	-4011
▁vardı	-4012
▁demek	-4013
▁Peki	-4014
rop	-4015
▁Oto	-4016
▁alab	-4017
▁Makin	-4018
▁yapacak	-4019
omet	-4020
▁Sek	-4021
▁sırala	-4022
duğunuz	-4023
▁sefer	-4024
▁kup	-4025
lığın	-4026
▁lezz	-4027
▁Kara	-4028
veya	-4029
▁olursa	-4030
▁@	-4031
▁yor	-4032
▁Çelik	-4033
▁Şubat	-4034
eyle	-4035
▁Etkin	-4036
▁kartı	-4037
▁katıl	-4038
▁ölçü	-4039
▁Çağ	-4040
▁Yapılır	-4041
▁asker	-4042
▁yaygın	-4043
▁Bonus	-4044
unları	-4045
▁sex	-4046
▁Kil	-4047
▁Taraf	-4048
▁anlamına	-4049
▁Adı	-4050
▁instagram	-4051
▁depo	-4052
▁yasa	-4053
▁açı	-4054
ediler	-4055
▁hafif	-4056
▁gay	-4057
▁kişiye	-4058
▁benzeri	-4059
ülmesi	-4060
▁Çar	-4061
▁hisset	-4062
diniz	-4063
▁Yok	-4064
▁sert	-4065
▁Kit	-4066
▁bulunma	-4067
▁KV	-4068
ane	-4069
vekili	-4070
DE	-4071
meli	-4072
▁Adresi	-4073
▁Bankası	-4074
▁İngilizce	-4075
▁Tık	-4076
▁geldiği	-4077
▁tatlı	-4078
▁durumlarda	-4079
pat	-4080
ullah	-4081
▁eg	-4082
UL	-4083
▁dönemde	-4084
uzur	-4085
▁Kargo	-4086
▁başta	-4087
imar	-4088
▁otel	-4089
başı	-4090
afir	-4091
▁Örneğin	-4092
AZ	-4093
ahh	-4094
▁açıkladı	-4095
ahim	-4096
▁hayatını	-4097
▁sitede	-4098
▁sorumluluğu	-4099
▁Arkadaş	-4100
mekte	-4101
▁Mur	-4102
▁Yağ	-4103
▁Rüya	-4104
▁Word	-4105
▁içine	-4106
edava	-4107
ion	-4108
▁Bat	-4109
kon	-4110
zım	-4111
day	-4112
bala	-4113
▁Forum	-4114
▁tatil	-4115
▁stratej	-4116
▁alternatif	-4117
▁Ex	-4118
pe	-4119
işleri	-4120
▁kuv	-4121
▁biçimde	-4122
▁arıza	-4123
▁iP	-4124
omo	-4125
▁ileri	-4126
▁Eski	-4127
▁şeyler	-4128
İZ	-4129
▁Balık	-4130
▁piş	-4131
ukat	-4132
yright	-4133
▁istiyorsanız	-4134
▁İkinci	-4135
▁vermektedir	-4136
liğe	-4137
eygamber	-4138
▁bunların	-4139
ciler	-4140
layıp	-4141
▁önünde	-4142
▁Kural	-4143
▁kullanmak	-4144
▁sunucu	-4145
şiv	-4146
▁Kırmızı	-4147
ülebilir	-4148
▁acı	-4149
imiçi	-4150
edek	-4151
▁katı	-4152
lastik	-4153
ws	-4154
▁Bitcoin	-4155
▁etik	-4156
liğine	-4157
▁altı	-4158
ezerv	-4159
▁kazandır	-4160
▁Fotoğraf	-4161
ây	-4162
▁terör	-4163
▁Şeh	-4164
ıyla	-4165
▁oğ	-4166
▁tartış	-4167
layabilir	-4168
omeop	-4169
▁tehlik	-4170
▁doğrult	-4171
▁çocuğ	-4172
▁almaktadır	-4173
▁anında	-4174
▁deneme	-4175
▁Sex	-4176
▁fil	-4177
▁meş	-4178
▁Aşağı	-4179
▁olmaya	-4180
App	-4181
▁kazanç	-4182
▁Banka	-4183
ong	-4184
brıs	-4185
tıyor	-4186
▁mücadel	-4187
ive	-4188
▁Şah	-4189
malısınız	-4190
▁uyarınca	-4191
ilip	-4192
ulur	-4193
▁azal	-4194
embe	-4195
▁uygulan	-4196
▁Dikkat	-4197
ilme	-4198
▁yarış	-4199
▁Hesap	-4200
▁makal	-4201
lari	-4202
oker	-4203
▁operasyon	-4204
▁Organ	-4205
▁servisi	-4206
▁aile	-4207
▁ken	-4208
ümüş	-4209
▁çap	-4210
liler	-4211
▁Kıs	-4212
mur	-4213
▁Val	-4214
▁Partisi	-4215
▁çat	-4216
▁tutu	-4217
▁taksi	-4218
▁Sonuç	-4219
▁doğum	-4220
lanacaktır	-4221
▁red	-4222
▁Araştırma	-4223
▁sh	-4224
▁akıllı	-4225
▁Copyright	-4226
▁sitemizde	-4227
▁Müşteri	-4228
▁edici	-4229
▁özelliği	-4230
▁rol	-4231
▁hayır	-4232
amet	-4233
▁yıldır	-4234
▁Çöz	-4235
akliye	-4236
▁psik	-4237
eyim	-4238
▁şüph	-4239
▁Üyelik	-4240
▁kıy	-4241
▁kumaş	-4242
▁Eve	-4243
▁ala	-4244
▁your	-4245
▁Android	-4246
▁yapacağ	-4247
▁önlem	-4248
▁olumsuz	-4249
▁Yeşil	-4250
▁saklıdır	-4251
laşma	-4252
▁Düzen	-4253
▁koruma	-4254
leşt	-4255
▁Kocaeli	-4256
edeni	-4257
ılış	-4258
▁Hurda	-4259
▁Sözleşmesi	-4260
luluğ	-4261
▁İki	-4262
▁Tedav	-4263
▁Hep	-4264
ache	-4265
▁büt	-4266
▁Kategoriler	-4267
▁bilinen	-4268
isa	-4269
▁yerleştir	-4270
▁Belir	-4271
▁ef	-4272
bin	-4273
racat	-4274
▁dahi	-4275
▁işi	-4276
▁çiçek	-4277
▁takdirde	-4278
fı	-4279
niyet	-4280
▁esk	-4281
▁Koş	-4282
▁verileri	-4283
Bir	-4284
indows	-4285
mit	-4286
muyor	-4287
▁yavaş	-4288
▁:)	-4289
▁Cad	-4290
ary	-4291
▁gül	-4292
▁eleştir	-4293
▁mail	-4294
duğunu	-4295
En	-4296
adığı	-4297
▁faydalan	-4298
▁Kir	-4299
best	-4300
paşa	-4301
▁birinci	-4302
▁programı	-4303
olog	-4304
▁Dir	-4305
▁doğrultusunda	-4306
▁öne	-4307
▁edeceğ	-4308
şık	-4309
otik	-4310
▁etkinlik	-4311
mut	-4312
raman	-4313
▁yiy	-4314
usun	-4315
rin	-4316
▁bec	-4317
▁Blog	-4318
▁polis	-4319
▁oranı	-4320
▁yapıldı	-4321
liyet	-4322
nden	-4323
▁danışman	-4324
▁güneş	-4325
larımıza	-4326
▁Benim	-4327
esindeki	-4328
masından	-4329
}}	-4330
▁resim	-4331
tel	-4332
▁borç	-4333
▁ism	-4334
arlı	-4335
▁Üç	-4336
▁örgüt	-4337
▁Diz	-4338
In	-4339
beri	-4340
▁kalk	-4341
üyle	-4342
▁Yazılım	-4343
{{	-4344
▁yolc	-4345
▁Bizim	-4346
▁Fakült	-4347
▁birisi	-4348
▁İlçe	-4349
▁verilm	-4350
▁Büy	-4351
kiler	-4352
▁Port	-4353
manı	-4354
▁ürünlerin	-4355
▁aktiv	-4356
İn	-4357
çesi	-4358
▁sabah	-4359
▁kans	-4360
anız	-4361
▁kişilik	-4362
▁büny	-4363
lus	-4364
▁olası	-4365
▁Mahk	-4366
▁Servis	-4367
▁Cih	-4368
▁Öğretmen	-4369
▁Pol	-4370
▁ışık	-4371
ona	-4372
▁Cez	-4373
TT	-4374
▁onları	-4375
▁hayata	-4376
gileri	-4377
▁yerinde	-4378
▁haberi	-4379
▁otomobil	-4380
dikten	-4381
şe	-4382
▁Psik	-4383
▁edilmiş	-4384
▁yaşanan	-4385
▁korsan	-4386
▁bol	-4387
”,	-4388
gr	-4389
▁Lig	-4390
▁Duy	-4391
▁imkan	-4392
▁öden	-4393
▁gide	-4394
▁Form	-4395
▁Adres	-4396
▁Köy	-4397
tay	-4398
▁kıl	-4399
▁Link	-4400
Yeni	-4401
▁Süper	-4402
▁güc	-4403
app	-4404
▁cm	-4405
▁Sn	-4406
▁Gal	-4407
▁dağı	-4408
▁duvar	-4409
uşak	-4410
▁Günlük	-4411
liliği	-4412
▁beğen	-4413
▁fi	-4414
▁vermiş	-4415
eğini	-4416
▁amaçlı	-4417
yse	-4418
▁Güney	-4419
ivil	-4420
▁Mem	-4421
▁Ro	-4422
IR	-4423
va	-4424
elerle	-4425
isinden	-4426
▁öğrenciler	-4427
arbak	-4428
▁pencer	-4429
▁temin	-4430
▁Sonra	-4431
▁sınırlı	-4432
zeme	-4433
işi	-4434
ire	-4435
▁Sarı	-4436
yacağ	-4437
▁proje	-4438
iliği	-4439
▁Con	-4440
▁başlan	-4441
▁Dijital	-4442
▁asla	-4443
▁Şef	-4444
▁uçak	-4445
▁Müslüm	-4446
pa	-4447
▁duygu	-4448
▁Programı	-4449
▁arac	-4450
oto	-4451
▁ettir	-4452
▁faiz	-4453
▁Bakım	-4454
▁Num	-4455
▁Aka	-4456
▁şiş	-4457
▁ucuz	-4458
▁kendine	-4459
▁düzenli	-4460
▁sorunu	-4461
▁çerçevesinde	-4462
▁dönüştür	-4463
▁itir	-4464
inter	-4465
▁nak	-4466
ell	-4467
▁ima	-4468
kaya	-4469
lıkları	-4470
▁hata	-4471
limat	-4472
▁istediğ	-4473
▁sunan	-4474
▁bat	-4475
▁Sınav	-4476
▁Yemek	-4477
▁Hızlı	-4478
▁yetiş	-4479
▁almış	-4480
lığına	-4481
▁maliyet	-4482
lasik	-4483
▁Cami	-4484
▁kopya	-4485
▁dünyada	-4486
MM	-4487
▁Yardımcısı	-4488
▁sigara	-4489
▁götür	-4490
▁ihti	-4491
▁Alış	-4492
ayıf	-4493
rag	-4494
▁aktarı	-4495
düstr	-4496
▁Müdürü	-4497
tib	-4498
▁olmalı	-4499
dat	-4500
iter	-4501
isiyle	-4502
▁anne	-4503
arlar	-4504
▁Doğu	-4505
abiliyor	-4506
▁çıkış	-4507
▁modelleri	-4508
▁Ses	-4509
arik	-4510
yacaktır	-4511
▁Önceki	-4512
?”	-4513
ileceği	-4514
elerinden	-4515
ond	-4516
sesuar	-4517
▁işlev	-4518
▁karşılık	-4519
▁kimlik	-4520
▁performans	-4521
liğin	-4522
▁Yunan	-4523
ılmıştır	-4524
ovid	-4525
vi	-4526
▁çalışmalar	-4527
▁dile	-4528
▁forum	-4529
▁sap	-4530
▁Fatih	-4531
landa	-4532
▁Güneş	-4533
leyerek	-4534
▁Herk	-4535
▁çalışması	-4536
▁boya	-4537
▁vurgu	-4538
▁bulunur	-4539
▁silin	-4540
arbakır	-4541
▁Doğru	-4542
▁Kıbrıs	-4543
lığında	-4544
▁Kes	-4545
dikleri	-4546
TC	-4547
iktaş	-4548
▁evde	-4549
▁gerektiğini	-4550
▁ilg	-4551
ıma	-4552
▁çerezleri	-4553
amızı	-4554
yüz	-4555
▁Evden	-4556
larındaki	-4557
▁kimse	-4558
▁cok	-4559
▁yapımı	-4560
laz	-4561
▁Ber	-4562
▁ortalama	-4563
▁Aile	-4564
▁belki	-4565
deniz	-4566
and	-4567
▁davranış	-4568
▁desteği	-4569
▁Grup	-4570
▁Şart	-4571
▁Red	-4572
▁sistemleri	-4573
▁paylaşmak	-4574
▁başlar	-4575
▁Bilgisayar	-4576
itesi	-4577
▁Trabz	-4578
iyiz	-4579
iydi	-4580
kenin	-4581
▁beden	-4582
▁nakliyat	-4583
▁Hacklink	-4584
celi	-4585
▁gözden	-4586
▁olanak	-4587
sur	-4588
▁Plan	-4589
▁politika	-4590
▁Modelleri	-4591
iliğ	-4592
ımızın	-4593
inema	-4594
▁Ödül	-4595
ase	-4596
bette	-4597
▁Aydınlatma	-4598
▁İade	-4599
▁yapım	-4600
▁Öl	-4601
▁beyan	-4602
leşme	-4603
▁alına	-4604
▁Apple	-4605
tak	-4606
▁Gür	-4607
▁Kılıç	-4608
▁Üzer	-4609
▁çoğ	-4610
iya	-4611
▁Şek	-4612
▁Korunması	-4613
▁kaynağı	-4614
▁çalıştır	-4615
▁alak	-4616
eyecek	-4617
▁Renk	-4618
▁Yat	-4619
▁tedbir	-4620
▁yükümlül	-4621
▁koltuk	-4622
bahçe	-4623
▁seçenekleri	-4624
▁nedeni	-4625
▁onların	-4626
etli	-4627
▁Network	-4628
▁başar	-4629
▁Is	-4630
▁Mağ	-4631
▁Engel	-4632
▁sahib	-4633
ındır	-4634
▁üzerindeki	-4635
▁Tal	-4636
▁kolayca	-4637
gıç	-4638
▁ameliyat	-4639
süz	-4640
▁Kripto	-4641
laştırma	-4642
▁çay	-4643
▁yandan	-4644
▁gören	-4645
leyebilir	-4646
▁x	-4647
▁kilo	-4648
▁bazen	-4649
▁sana	-4650
▁kurtar	-4651
▁profil	-4652
▁oluşturmak	-4653
▁görüyor	-4654
▁Ödeme	-4655
▁Post	-4656
▁korun	-4657
▁Odası	-4658
▁ren	-4659
▁azalt	-4660
▁Evet	-4661
irim	-4662
▁yetkili	-4663
ill	-4664
▁bağımsız	-4665
ever	-4666
akik	-4667
▁sonu	-4668
▁Cep	-4669
▁Hiç	-4670
▁Op	-4671
outube	-4672
▁Tarihi	-4673
▁Hemen	-4674
▁kullanılabilir	-4675
ırım	-4676
▁İncel	-4677
▁Dur	-4678
▁biridir	-4679
▁rahatsız	-4680
▁Tip	-4681
▁”	-4682
ator	-4683
▁Gazete	-4684
▁ton	-4685
▁birden	-4686
Press	-4687
▁kavram	-4688
▁kus	-4689
▁hüc	-4690
▁you	-4691
▁Göster	-4692
▁Fr	-4693
deb	-4694
▁İran	-4695
▁yönlendir	-4696
▁soy	-4697
cript	-4698
IM	-4699
▁önüne	-4700
▁İp	-4701
▁Oku	-4702
▁Sorum	-4703
eşem	-4704
ıf	-4705
▁reh	-4706
▁def	-4707
dek	-4708
▁olmaktadır	-4709
oft	-4710
ica	-4711
▁iyileştir	-4712
▁buradan	-4713
▁okuma	-4714
▁İnş	-4715
▁mevcuttur	-4716
▁kem	-4717
Türkiye	-4718
▁bulabilirsiniz	-4719
▁aşırı	-4720
▁kalp	-4721
▁yerel	-4722
▁dizi	-4723
▁döneminde	-4724
▁konut	-4725
▁Diş	-4726
uldu	-4727
atistik	-4728
▁Eskişehir	-4729
▁ürünün	-4730
▁bekl	-4731
▁gr	-4732
▁Art	-4733
balaj	-4734
▁Şif	-4735
▁olmuştur	-4736
▁sever	-4737
▁balık	-4738
diler	-4739
▁numarası	-4740
▁Mic	-4741
site	-4742
▁oturum	-4743
ğan	-4744
ydı	-4745
▁verilir	-4746
▁Cuma	-4747
▁Muh	-4748
▁açılır	-4749
▁gelişim	-4750
▁cami	-4751
ategor	-4752
▁ederiz	-4753
▁harf	-4754
sından	-4755
iki	-4756
▁bitir	-4757
▁Artık	-4758
larınıza	-4759
ileceğiniz	-4760
ınar	-4761
odrum	-4762
▁sunulan	-4763
▁tehdit	-4764
usunu	-4765
▁af	-4766
▁sizler	-4767
▁isterseniz	-4768
▁parçası	-4769
▁Kayseri	-4770
▁des	-4771
düzü	-4772
▁lira	-4773
▁Çift	-4774
▁olduğumuz	-4775
ct	-4776
▁dava	-4777
oyun	-4778
ori	-4779
▁yönetimi	-4780
▁Yapılan	-4781
▁Evrim	-4782
▁vücut	-4783
▁kurumsal	-4784
▁siyasi	-4785
les	-4786
▁Birleş	-4787
▁Turk	-4788
lüyor	-4789
▁yerleş	-4790
▁ez	-4791
▁Şu	-4792
▁Hoş	-4793
oyu	-4794
etiyle	-4795
İY	-4796
▁Kaz	-4797
▁senin	-4798
▁ib	-4799
kol	-4800
▁yapmaya	-4801
▁pazarlama	-4802
masyon	-4803
▁Ağacı	-4804
▁namaz	-4805
lenecek	-4806
▁port	-4807
▁enerj	-4808
▁aşk	-4809
else	-4810
▁sırada	-4811
anları	-4812
laj	-4813
anlık	-4814
▁Fener	-4815
▁olmalıdır	-4816
▁vitam	-4817
bey	-4818
▁KVKK	-4819
ekorasyon	-4820
▁Hz	-4821
▁Gru	-4822
▁garant	-4823
▁Kav	-4824
▁Sınıf	-4825
▁çal	-4826
▁etkisi	-4827
▁kendisi	-4828
▁WhatsApp	-4829
▁Fakültesi	-4830
▁imk	-4831
▁özen	-4832
▁eşit	-4833
lardaki	-4834
▁numara	-4835
land	-4836
▁modern	-4837
▁gol	-4838
▁>	-4839
▁WordPress	-4840
▁kış	-4841
▁Fa	-4842
▁süreci	-4843
▁TO	-4844
▁Seks	-4845
▁çekt	-4846
▁deneyimi	-4847
▁Bunlar	-4848
▁yoluyla	-4849
▁bundan	-4850
amik	-4851
▁erken	-4852
onav	-4853
▁Enerji	-4854
▁çalışıyor	-4855
▁Du	-4856
▁alıp	-4857
▁platformu	-4858
aydalı	-4859
▁Murat	-4860
▁peş	-4861
keri	-4862
▁etmeye	-4863
▁bl	-4864
▁Kontrol	-4865
▁Paz	-4866
▁ücreti	-4867
▁Yorumları	-4868
▁huzur	-4869
▁tıklayınız	-4870
post	-4871
gre	-4872
▁kadınlar	-4873
interest	-4874
ektif	-4875
▁Maç	-4876
aporu	-4877
bel	-4878
▁Yıldız	-4879
Ben	-4880
▁yaparken	-4881
▁Yukarı	-4882
▁con	-4883
▁yapılmaktadır	-4884
▁Ker	-4885
OL	-4886
▁elem	-4887
ijinal	-4888
ılmaktadır	-4889
▁Rec	-4890
▁Bütün	-4891
ündeki	-4892
▁türü	-4893
tığını	-4894
▁başkan	-4895
▁ayı	-4896
▁Dakika	-4897
▁binlerce	-4898
▁gönül	-4899
▁gündem	-4900
errah	-4901
ograf	-4902
▁hediye	-4903
▁rek	-4904
▁olmasına	-4905
▁Lisans	-4906
▁kalite	-4907
▁yetiştir	-4908
▁promosyon	-4909
larınızın	-4910
▁kişilere	-4911
KA	-4912
▁şikayet	-4913
▁koruy	-4914
▁çeken	-4915
▁öncesi	-4916
▁sebebiyle	-4917
▁imkanı	-4918
▁bilgilerin	-4919
▁Sonraki	-4920
▁konak	-4921
▁konuşma	-4922
▁De	-4923
▁ide	-4924
ebilmek	-4925
▁tıp	-4926
▁haz	-4927
▁bekliyor	-4928
▁tutulamaz	-4929
iciler	-4930
▁edilmektedir	-4931
▁suyu	-4932
▁sunuyor	-4933
acağız	-4934
▁sarı	-4935
▁bilgisi	-4936
diğim	-4937
teroid	-4938
▁ortadan	-4939
landığı	-4940
▁gal	-4941
likdüzü	-4942
▁edip	-4943
illi	-4944
▁sonucunda	-4945
▁bölgesinde	-4946
İS	-4947
▁açıklaması	-4948
uman	-4949
▁Başkanlığı	-4950
▁Sistemleri	-4951
▁ofis	-4952
▁ark	-4953
lamış	-4954
UN	-4955
mm	-4956
▁Min	-4957
estor	-4958
▁ağrı	-4959
▁Böylece	-4960
▁Tarım	-4961
▁ortamda	-4962
▁bizimle	-4963
▁kodu	-4964
▁Zir	-4965
▁çor	-4966
ko	-4967
▁Eşya	-4968
▁Oyunları	-4969
▁Durum	-4970
▁iPhone	-4971
▁insanın	-4972
bil	-4973
▁Mat	-4974
▁hakaret	-4975
▁lazım	-4976
sizlik	-4977
acaktır	-4978
▁incelem	-4979
▁cilt	-4980
▁tuz	-4981
▁Alışveriş	-4982
obüs	-4983
▁Bahç	-4984
▁karış	-4985
▁Festiv	-4986
▁taahh	-4987
▁gizli	-4988
irken	-4989
▁Sun	-4990
lerimizin	-4991
▁Eğitimi	-4992
▁Rüyada	-4993
▁admin	-4994
▁yöntemi	-4995
udum	-4996
▁seni	-4997
emizin	-4998
lob	-4999
ımın	-5000
iteli	-5001
▁isimli	-5002
sul	-5003
los	-5004
▁eğitimi	-5005
▁hassas	-5006
leğ	-5007
▁mesaf	-5008
▁başlıyor	-5009
▁onlar	-5010
▁ilçesinde	-5011
▁Beşiktaş	-5012
▁haberlerin	-5013
▁Lim	-5014
▁yılda	-5015
▁şaş	-5016
▁ül	-5017
▁bulundur	-5018
▁Kısa	-5019
meni	-5020
▁Suriye	-5021
▁heyecan	-5022
▁Turizm	-5023
▁olduğundan	-5024
▁sevin	-5025
▁Güç	-5026
imizden	-5027
▁Mel	-5028
▁saygı	-5029
▁arz	-5030
▁sağlıyor	-5031
▁Fer	-5032
▁Diyarbakır	-5033
şap	-5034
stanbul	-5035
▁biliyor	-5036
▁altyap	-5037
▁okur	-5038
▁Rab	-5039
▁kuvvet	-5040
▁yeşil	-5041
▁sözleşme	-5042
▁yürür	-5043
▁Sektör	-5044
▁etmesi	-5045
düm	-5046
▁geçti	-5047
▁tır	-5048
▁ismi	-5049
▁Kampan	-5050
▁sim	-5051
▁işte	-5052
▁onlara	-5053
▁çıkıyor	-5054
▁!	-5055
▁kitab	-5056
ks	-5057
▁mus	-5058
▁Fik	-5059
▁kapas	-5060
▁kalın	-5061
▁transfer	-5062
▁Uygun	-5063
iyatro	-5064
aklı	-5065
▁fab	-5066
leyebilirsiniz	-5067
▁Otel	-5068
▁birim	-5069
ulları	-5070
▁Futbol	-5071
▁Koç	-5072
ÜN	-5073
▁Pet	-5074
manıza	-5075
▁Ürünler	-5076
andev	-5077
▁tanış	-5078
▁olanlar	-5079
▁yazarak	-5080
▁denetim	-5081
▁Sem	-5082
▁Sayın	-5083
▁pot	-5084
AH	-5085
nam	-5086
akkabı	-5087
▁anlamda	-5088
▁hac	-5089
▁kırmızı	-5090
▁Size	-5091
▁Gez	-5092
port	-5093
▁Kiralama	-5094
bank	-5095
US	-5096
▁olumlu	-5097
ider	-5098
alatasar	-5099
▁mevzuat	-5100
▁ulusal	-5101
ısıt	-5102
▁Mez	-5103
▁ap	-5104
▁öğrenci	-5105
nu	-5106
▁günlerde	-5107
unt	-5108
▁yıllarda	-5109
▁Beğ	-5110
▁Kupası	-5111
▁Sok	-5112
▁Bilgiler	-5113
iling	-5114
▁anahtar	-5115
tanın	-5116
▁sağlam	-5117
▁bunlar	-5118
▁yaşay	-5119
gari	-5120
alatasaray	-5121
▁bunları	-5122
▁Soy	-5123
▁asıl	-5124
birliği	-5125
▁Tag	-5126
▁çağrı	-5127
▁Toplum	-5128
lenmektedir	-5129
▁Buna	-5130
▁anlama	-5131
▁Windows	-5132
▁cookies	-5133
▁birik	-5134
▁oyna	-5135
öyl	-5136
öğr	-5137
TM	-5138
▁Cumhuriyeti	-5139
amam	-5140
▁sektöründe	-5141
▁yaşındaki	-5142
▁Bölg	-5143
şey	-5144
Ar	-5145
sızın	-5146
▁Metni	-5147
▁alınır	-5148
▁mağaza	-5149
tma	-5150
itik	-5151
rail	-5152
▁açıklamada	-5153
▁are	-5154
ısını	-5155
laştığ	-5156
▁olduğuna	-5157
▁teb	-5158
▁nüf	-5159
▁günde	-5160
▁yıldız	-5161
▁yenilik	-5162
▁Platform	-5163
▁Doğal	-5164
▁Resmi	-5165
▁Yine	-5166
▁Fransa	-5167
▁İşlet	-5168
▁kaçır	-5169
ticaret	-5170
▁kaydı	-5171
rama	-5172
▁karıştır	-5173
▁Kamu	-5174
▁işleme	-5175
▁mo	-5176
▁Taşıma	-5177
cılığı	-5178
dımı	-5179
usuna	-5180
▁dis	-5181
▁dışarı	-5182
▁Farklı	-5183
▁bakış	-5184
▁haberdar	-5185
▁Amerik	-5186
fe	-5187
raniye	-5188
▁alabilir	-5189
▁Mey	-5190
giler	-5191
▁pet	-5192
▁Sakarya	-5193
▁olmasını	-5194
▁Firma	-5195
▁ins	-5196
isyonu	-5197
▁yılın	-5198
▁dağ	-5199
▁kullanılması	-5200
▁Ekle	-5201
ps	-5202
▁alınması	-5203
▁Kuralları	-5204
▁yetkil	-5205
dry	-5206
▁yakalan	-5207
▁Yılmaz	-5208
▁seçeneği	-5209
▁kanıt	-5210
azi	-5211
▁Arap	-5212
▁olabilirsiniz	-5213
▁soğuk	-5214
▁Kendi	-5215
ruf	-5216
▁öncelikle	-5217
▁slot	-5218
▁AL	-5219
ümin	-5220
▁Yapı	-5221
▁sabit	-5222
AA	-5223
▁Göre	-5224
▁çevrimiçi	-5225
laç	-5226
▁Şey	-5227
EB	-5228
▁işç	-5229
▁enflasyon	-5230
▁Sınır	-5231
▁okun	-5232
▁yapılmış	-5233
▁Don	-5234
▁Yür	-5235
▁yeter	-5236
ild	-5237
▁Öğrenc	-5238
▁bölümü	-5239
▁Yabancı	-5240
ıbbi	-5241
▁gelmiş	-5242
▁uyum	-5243
▁inşa	-5244
▁Veren	-5245
▁sertif	-5246
▁garanti	-5247
▁Dis	-5248
▁bende	-5249
▁sokak	-5250
▁filmi	-5251
▁dolaş	-5252
amazan	-5253
▁betsat	-5254
▁Li	-5255
fat	-5256
ain	-5257
▁göç	-5258
▁Dünyanın	-5259
▁yılından	-5260
▁sunmaktadır	-5261
▁Muham	-5262
▁Zor	-5263
eferans	-5264
▁diler	-5265
oğaz	-5266
▁şirketi	-5267
▁bö	-5268
▁beklent	-5269
▁kullanma	-5270
▁Olan	-5271
▁geçer	-5272
▁öngör	-5273
ert	-5274
▁depr	-5275
▁yatırma	-5276
▁Tük	-5277
▁kuralları	-5278
satı	-5279
▁Erz	-5280
nan	-5281
▁nelerdir	-5282
liğinin	-5283
▁dakik	-5284
▁yerli	-5285
▁kısmı	-5286
▁buy	-5287
▁metin	-5288
▁bozuk	-5289
▁yatak	-5290
▁Milletvekili	-5291
liliğ	-5292
▁Ec	-5293
▁araba	-5294
▁Elektronik	-5295
▁durdur	-5296
gat	-5297
▁Kolay	-5298
row	-5299
layacak	-5300
▁geçiş	-5301
▁siteye	-5302
▁önceden	-5303
akkale	-5304
tek	-5305
▁gördüğ	-5306
▁dolaylı	-5307
ml	-5308
▁inşaat	-5309
sem	-5310
▁kullanıcılar	-5311
▁He	-5312
ebiliyor	-5313
ull	-5314
▁Hizmeti	-5315
▁misiniz	-5316
ikat	-5317
▁şeker	-5318
yalı	-5319
▁th	-5320
▁log	-5321
▁adresine	-5322
▁Mühendis	-5323
▁Teknoloj	-5324
RA	-5325
▁giden	-5326
▁kadro	-5327
▁Sik	-5328
▁akl	-5329
▁Seb	-5330
vik	-5331
▁park	-5332
▁ankara	-5333
▁sunar	-5334
▁verildi	-5335
▁Van	-5336
▁Hasan	-5337
ısır	-5338
▁başk	-5339
▁grub	-5340
ksiyon	-5341
emize	-5342
lemesi	-5343
red	-5344
▁genelinde	-5345
stit	-5346
▁ettiğiniz	-5347
▁SEO	-5348
▁Kapı	-5349
▁vs	-5350
▁Be	-5351
▁taahhüt	-5352
▁ters	-5353
▁oynama	-5354
▁Başarı	-5355
▁misafir	-5356
değ	-5357
unuza	-5358
▁Ekonomi	-5359
evler	-5360
▁Bab	-5361
▁Sil	-5362
menizi	-5363
▁Ann	-5364
memiş	-5365
▁tedavisi	-5366
▁evden	-5367
cular	-5368
ilingir	-5369
▁gösterir	-5370
▁üyesi	-5371
▁eb	-5372
▁belirten	-5373
isiklet	-5374
▁trafik	-5375
iyan	-5376
▁Tıp	-5377
UM	-5378
▁vası	-5379
utma	-5380
▁Jap	-5381
eliği	-5382
▁muhat	-5383
!”	-5384
zersiz	-5385
▁sayede	-5386
▁tutuk	-5387
▁kullanmaya	-5388
▁Next	-5389
yurt	-5390
▁kullanan	-5391
üfür	-5392
▁Kombi	-5393
duğumuz	-5394
EV	-5395
ımlı	-5396
▁gelin	-5397
onim	-5398
▁zamanlarda	-5399
▁kayded	-5400
▁Car	-5401
▁toplu	-5402
ediğimiz	-5403
▁usul	-5404
▁Fenerbahçe	-5405
▁tad	-5406
▁Malzem	-5407
▁Karar	-5408
▁Ku	-5409
▁Hastalık	-5410
▁New	-5411
▁çevres	-5412
▁Grubu	-5413
aktör	-5414
▁sonuçları	-5415
▁kayıp	-5416
▁bahset	-5417
olar	-5418
▁cen	-5419
▁çocuklar	-5420
▁Sorular	-5421
▁Saklıdır	-5422
ris	-5423
lenebilir	-5424
vı	-5425
medi	-5426
▁karşısında	-5427
lım	-5428
▁rad	-5429
ılmasına	-5430
▁hazırlanan	-5431
▁Batı	-5432
▁ince	-5433
▁Tabi	-5434
▁istih	-5435
▁Toplantı	-5436
▁iad	-5437
▁olacağ	-5438
▁this	-5439
▁ilişki	-5440
▁sıfır	-5441
ülten	-5442
▁with	-5443
▁Meclis	-5444
▁endiş	-5445
▁mezun	-5446
▁rakam	-5447
▁post	-5448
haber	-5449
old	-5450
▁yapmanız	-5451
▁hasar	-5452
▁Geri	-5453
und	-5454
ende	-5455
▁AKP	-5456
uluğ	-5457
ech	-5458
▁Galatasaray	-5459
daşı	-5460
....	-5461
unc	-5462
▁cüml	-5463
Tube	-5464
▁şifr	-5465
irli	-5466
▁Kuzey	-5467
▁mümkündür	-5468
TÜ	-5469
▁yarım	-5470
▁dikkate	-5471
▁sitenin	-5472
var	-5473
▁Fu	-5474
ebe	-5475
▁cins	-5476
ARI	-5477
▁Hastanesi	-5478
▁değeri	-5479
▁katıldı	-5480
▁yenil	-5481
▁Yönetimi	-5482
ette	-5483
▁gur	-5484
▁bilir	-5485
▁saha	-5486
▁Abd	-5487
ice	-5488
▁Deneme	-5489
▁bilimsel	-5490
▁bilgiye	-5491
▁bilgilendirme	-5492
▁Değişik	-5493
evious	-5494
brahim	-5495
ected	-5496
▁faydalı	-5497
usunun	-5498
▁Marka	-5499
▁birlik	-5500
amaş	-5501
anlıur	-5502
▁giren	-5503
unuzla	-5504
▁tit	-5505
▁meslek	-5506
▁Etk	-5507
▁Emek	-5508
▁zih	-5509
▁Trans	-5510
▁çab	-5511
▁Yık	-5512
udi	-5513
▁amac	-5514
▁Networkdry	-5515
▁toz	-5516
▁yenilen	-5517
imden	-5518
▁sitesine	-5519
▁Doğum	-5520
okul	-5521
▁inanç	-5522
▁Fant	-5523
ID	-5524
▁hizmetler	-5525
▁Sayf	-5526
▁ikti	-5527
xy	-5528
emektedir	-5529
▁yerini	-5530
▁Çiçek	-5531
ýn	-5532
▁kısıt	-5533
ester	-5534
▁komp	-5535
türk	-5536
▁görülen	-5537
sör	-5538
▁tarım	-5539
▁rezerv	-5540
▁ediliyor	-5541
▁Play	-5542
▁Yangın	-5543
▁getiren	-5544
▁vergi	-5545
▁Yayınları	-5546
▁Sü	-5547
▁yalan	-5548
▁Hareket	-5549
ılabilir	-5550
▁etraf	-5551
▁saf	-5552
▁öğret	-5553
▁vücud	-5554
▁sebebi	-5555
▁yürüy	-5556
ates	-5557
▁kahv	-5558
▁uzat	-5559
ky	-5560
▁dolayısıyla	-5561
▁parti	-5562
▁Bes	-5563
▁Çeşit	-5564
▁memnuniyet	-5565
▁bilgilerini	-5566
sed	-5567
▁nesil	-5568
▁IP	-5569
▁Temel	-5570
ğur	-5571
aşehir	-5572
deri	-5573
ree	-5574
▁ülkenin	-5575
▁güvenliği	-5576
FT	-5577
yol	-5578
▁sergil	-5579
▁Bi	-5580
▁yangın	-5581
▁etki	-5582
yasal	-5583
▁Linked	-5584
▁Başbak	-5585
▁tanıtım	-5586
▁kalıcı	-5587
▁Parça	-5588
▁şartları	-5589
▁Kadınlar	-5590
lobal	-5591
▁bedel	-5592
▁idari	-5593
▁kriz	-5594
yaj	-5595
ıla	-5596
kent	-5597
▁tane	-5598
lardı	-5599
▁uygulamaları	-5600
laşık	-5601
▁Person	-5602
▁kök	-5603
▁demektir	-5604
zan	-5605
isyen	-5606
▁müdür	-5607
▁şub	-5608
YA	-5609
▁Özellikleri	-5610
▁Arab	-5611
▁Küt	-5612
▁ulaştır	-5613
ginç	-5614
▁zayıf	-5615
tıcı	-5616
lemeye	-5617
▁kullanıcıların	-5618
▁Ürünleri	-5619
▁Tesis	-5620
▁neredeyse	-5621
ish	-5622
▁görm	-5623
▁Hüs	-5624
▁tedarik	-5625
▁organizasyon	-5626
▁Olu	-5627
▁demir	-5628
▁aldığınız	-5629
▁Kadar	-5630
▁Detaylı	-5631
▁Gündem	-5632
▁çekme	-5633
▁Firmamız	-5634
okol	-5635
▁yola	-5636
eceğim	-5637
▁besin	-5638
▁Motor	-5639
ebi	-5640
▁tamir	-5641
onavirüs	-5642
unuzun	-5643
▁fazlası	-5644
terek	-5645
▁montaj	-5646
▁Samsung	-5647
▁çıkarı	-5648
▁görünüm	-5649
▁bildirim	-5650
▁Belediy	-5651
▁Rehberi	-5652
▁Şampiyon	-5653
▁Çözüm	-5654
▁edilebilir	-5655
car	-5656
▁yönerg	-5657
▁ihtiyacı	-5658
şembe	-5659
▁op	-5660
▁denet	-5661
▁Hayvan	-5662
▁Gec	-5663
ısına	-5664
incir	-5665
▁Piyas	-5666
▁Youtube	-5667
şamba	-5668
ulmuş	-5669
daroğlu	-5670
▁Yav	-5671
eğine	-5672
▁herkesin	-5673
▁Peygamber	-5674
▁sorunları	-5675
api	-5676
veren	-5677
SO	-5678
▁est	-5679
▁yorumlardan	-5680
▁şık	-5681
uğu	-5682
▁ihracat	-5683
▁İmam	-5684
▁serbest	-5685
▁Kurumsal	-5686
lerinize	-5687
eceğiniz	-5688
▁ten	-5689
▁açmak	-5690
lenmiştir	-5691
▁kilit	-5692
▁insanları	-5693
▁gözlem	-5694
▁Naz	-5695
▁İlanları	-5696
adir	-5697
▁almaya	-5698
▁süs	-5699
▁Halı	-5700
▁bünyesinde	-5701
▁Akdeniz	-5702
BB	-5703
▁uyan	-5704
lack	-5705
yaman	-5706
▁duyg	-5707
▁ülkede	-5708
▁kolaylaştır	-5709
▁Malat	-5710
▁itiraz	-5711
▁kusur	-5712
ure	-5713
▁Ulusal	-5714
▁kurulan	-5715
ayım	-5716
▁donan	-5717
▁Bl	-5718
▁Aşk	-5719
▁Savaş	-5720
▁kurulu	-5721
▁etkilen	-5722
nik	-5723
▁Previous	-5724
▁sürüm	-5725
▁Qu	-5726
▁Kons	-5727
▁gelişmeler	-5728
▁Tok	-5729
lor	-5730
▁takv	-5731
▁verici	-5732
▁çalışır	-5733
ketbol	-5734
lacaktır	-5735
▁savun	-5736
▁Rad	-5737
▁Cem	-5738
▁Siyas	-5739
▁diren	-5740
▁sel	-5741
ower	-5742
▁temizlik	-5743
▁küresel	-5744
▁Arama	-5745
▁kendilerine	-5746
▁Geliş	-5747
▁Dolay	-5748
▁yedek	-5749
kır	-5750
▁suy	-5751
▁uyumlu	-5752
RK	-5753
▁Giyim	-5754
▁havuz	-5755
FA	-5756
▁Gıda	-5757
▁vide	-5758
▁Çerezler	-5759
▁belgesi	-5760
▁birbirinden	-5761
▁Bodrum	-5762
▁bür	-5763
▁doğan	-5764
sar	-5765
▁Görev	-5766
▁ulaşım	-5767
lon	-5768
▁Kurumu	-5769
▁olmayı	-5770
▁atan	-5771
▁salon	-5772
leştirme	-5773
▁Bo	-5774
▁ederken	-5775
ilmez	-5776
▁Çay	-5777
▁esnasında	-5778
▁Çevre	-5779
linik	-5780
iğinde	-5781
▁eh	-5782
▁demokr	-5783
▁üstün	-5784
▁Şiş	-5785
▁Park	-5786
ansiyon	-5787
eral	-5788
▁söylüyor	-5789
▁pozisyon	-5790
▁Panel	-5791
urta	-5792
▁adını	-5793
▁Recep	-5794
▁Sitemize	-5795
lazığ	-5796
▁gereği	-5797
▁içindeki	-5798
▁tok	-5799
▁Yöntem	-5800
▁â	-5801
▁ordu	-5802
▁beb	-5803
▁belirlenen	-5804
▁tepki	-5805
▁televizyon	-5806
▁şer	-5807
▁alımı	-5808
emen	-5809
ısında	-5810
▁rast	-5811
afer	-5812
▁kayıtlı	-5813
▁Yazılan	-5814
eth	-5815
▁Finans	-5816
▁Siv	-5817
▁Takım	-5818
ail	-5819
▁Formu	-5820
▁{{	-5821
▁US	-5822
ilmesine	-5823
DA	-5824
▁düşünüyorum	-5825
▁keyifli	-5826
▁alakalı	-5827
▁muhteşem	-5828
adet	-5829
lanarak	-5830
▁ihal	-5831
▁zek	-5832
▁Pazartesi	-5833
▁=	-5834
ılmasını	-5835
▁Ömer	-5836
▁sürece	-5837
yip	-5838
vel	-5839
▁Sunu	-5840
▁başınıza	-5841
ınan	-5842
▁Oğ	-5843
▁çoğun	-5844
▁biy	-5845
▁halısı	-5846
maması	-5847
▁arkadaşlar	-5848
▁içerir	-5849
▁yardımı	-5850
▁Müslüman	-5851
▁Koltuk	-5852
ıköy	-5853
▁alındı	-5854
▁kulak	-5855
abilen	-5856
▁siyah	-5857
▁acil	-5858
▁hastalığ	-5859
liye	-5860
dığına	-5861
ender	-5862
▁kitabı	-5863
▁eksiksiz	-5864
▁Çanakkale	-5865
▁Kent	-5866
▁sam	-5867
▁maden	-5868
▁Karak	-5869
▁tıklayarak	-5870
▁Yal	-5871
age	-5872
▁Geliştir	-5873
▁sahn	-5874
▁dayanıklı	-5875
▁düğ	-5876
▁çelik	-5877
▁buz	-5878
▁yükselt	-5879
▁etmeniz	-5880
▁mahall	-5881
anlıurfa	-5882
▁Gam	-5883
anda	-5884
▁Doktor	-5885
▁lam	-5886
mes	-5887
ilde	-5888
çin	-5889
ash	-5890
▁yüzyıl	-5891
▁potans	-5892
▁had	-5893
▁Ateş	-5894
▁All	-5895
oter	-5896
▁ışı	-5897
idi	-5898
cık	-5899
amuk	-5900
▁Fayda	-5901
▁tören	-5902
avi	-5903
cma	-5904
sine	-5905
labilecek	-5906
▁Ofis	-5907
▁yayınlanacaktır	-5908
▁Topluluk	-5909
TV	-5910
▁alıcı	-5911
▁Önemli	-5912
▁Sitemizde	-5913
▁köpek	-5914
▁Devamını	-5915
▁çan	-5916
▁hissed	-5917
veç	-5918
▁fiziksel	-5919
▁hastalığı	-5920
▁Projesi	-5921
▁uğraş	-5922
▁İdar	-5923
▁vermeye	-5924
▁sunmak	-5925
EC	-5926
meyin	-5927
İHA	-5928
sini	-5929
▁ambalaj	-5930
ordin	-5931
▁işler	-5932
▁yaşat	-5933
▁Muhammed	-5934
▁Koruma	-5935
▁Mek	-5936
▁tazmin	-5937
▁nakliye	-5938
▁comment	-5939
▁Edeb	-5940
▁çekici	-5941
▁ziyaretç	-5942
▁şarkı	-5943
dınız	-5944
▁virüs	-5945
oper	-5946
▁pencerede	-5947
▁Asya	-5948
▁cookie	-5949
▁Kürt	-5950
▁dayalı	-5951
enkul	-5952
▁Sizin	-5953
▁verecek	-5954
▁işbu	-5955
▁Men	-5956
▁Selç	-5957
▁tasarımı	-5958
▁sorunlar	-5959
ory	-5960
▁zamanı	-5961
▁anlayış	-5962
Posta	-5963
▁orada	-5964
▁işlenm	-5965
▁gelenek	-5966
▁Biy	-5967
▁sigort	-5968
iper	-5969
▁haft	-5970
unca	-5971
▁sitesini	-5972
▁renkli	-5973
▁tarihinden	-5974
▁TR	-5975
tör	-5976
▁sağlığı	-5977
ting	-5978
▁üretic	-5979
alya	-5980
▁Ayar	-5981
▁Görüş	-5982
▁dünyaya	-5983
▁Rob	-5984
▁arşiv	-5985
▁soruştur	-5986
▁AN	-5987
▁belirtti	-5988
▁gereklidir	-5989
▁Soğ	-5990
▁yüzey	-5991
adığınız	-5992
▁Kaf	-5993
portaj	-5994
▁firmaları	-5995
lığının	-5996
▁Mo	-5997
▁kurs	-5998
▁Kaliteli	-5999
▁dönüşüm	-6000
▁lir	-6001
isindeki	-6002
OM	-6003
▁Arıza	-6004
öportaj	-6005
▁kaza	-6006
kur	-6007
▁ep	-6008
▁fer	-6009
▁Listesi	-6010
cess	-6011
▁başlama	-6012
▁günler	-6013
▁Kılıçdaroğlu	-6014
▁kara	-6015
▁alınacak	-6016
▁Açıklama	-6017
▁kendisini	-6018
ılıp	-6019
▁gem	-6020
ld	-6021
▁çekim	-6022
▁kanser	-6023
melik	-6024
▁İr	-6025
▁ekibi	-6026
▁aralık	-6027
▁panel	-6028
esti	-6029
▁belge	-6030
▁aldım	-6031
▁Havalim	-6032
▁yukarıda	-6033
▁verimli	-6034
bek	-6035
▁şekliyle	-6036
▁İbrahim	-6037
allah	-6038
▁Ege	-6039
andevu	-6040
rat	-6041
▁pratik	-6042
▁Kral	-6043
▁taksit	-6044
▁çaba	-6045
OT	-6046
▁Bildir	-6047
▁piyasa	-6048
▁bitk	-6049
press	-6050
▁büyü	-6051
▁birini	-6052
ebilm	-6053
▁hayatı	-6054
▁aktarılan	-6055
▁verme	-6056
▁güçlendir	-6057
▁sivil	-6058
▁telif	-6059
▁Perşembe	-6060
▁edilecek	-6061
▁kapsamlı	-6062
▁sağlayıcı	-6063
▁hızla	-6064
▁ob	-6065
▁Sol	-6066
▁ağaç	-6067
IL	-6068
▁İnşaat	-6069
▁kaş	-6070
▁firmalar	-6071
iyorlar	-6072
▁devre	-6073
▁YouTube	-6074
ookie	-6075
▁gücü	-6076
lamanın	-6077
▁akıl	-6078
esidir	-6079
▁hepsi	-6080
▁Feder	-6081
▁Far	-6082
▁unsur	-6083
▁herkese	-6084
▁kupon	-6085
lant	-6086
ileceğini	-6087
▁civ	-6088
otos	-6089
▁küt	-6090
▁iddaa	-6091
▁harit	-6092
lerimize	-6093
yeni	-6094
▁Gar	-6095
▁Denizli	-6096
▁ulaşmak	-6097
▁tez	-6098
ümr	-6099
▁Yarış	-6100
asay	-6101
amaşır	-6102
▁yerden	-6103
▁komut	-6104
▁üstleniyor	-6105
▁Pap	-6106
ayasa	-6107
▁bölümünde	-6108
▁Gelen	-6109
übü	-6110
▁baba	-6111
▁Dos	-6112
▁Ur	-6113
▁Basın	-6114
▁km	-6115
▁Ramazan	-6116
▁teslimat	-6117
▁Başka	-6118
▁çevre	-6119
labı	-6120
utin	-6121
▁merhaba	-6122
ick	-6123
▁sikiş	-6124
esir	-6125
▁Gençlik	-6126
abileceği	-6127
▁Java	-6128
▁adresinizi	-6129
▁metal	-6130
ence	-6131
▁askeri	-6132
tiler	-6133
▁işlemler	-6134
▁kullanır	-6135
▁varlık	-6136
▁ilgilen	-6137
dışı	-6138
stır	-6139
▁inc	-6140
▁Fazla	-6141
▁Siyah	-6142
▁diyet	-6143
leyman	-6144
İş	-6145
cunun	-6146
▁Kuş	-6147
▁kumar	-6148
▁bakımından	-6149
ife	-6150
▁kaşı	-6151
▁eğlenceli	-6152
▁tablo	-6153
▁kelime	-6154
tesi	-6155
▁tarihleri	-6156
lüğe	-6157
▁faktör	-6158
▁Politika	-6159
▁malzeme	-6160
sayı	-6161
▁bulmak	-6162
▁Ya	-6163
ug	-6164
▁kullandı	-6165
▁buton	-6166
anet	-6167
▁ex	-6168
▁Tuz	-6169
▁makam	-6170
▁Gala	-6171
▁kaçın	-6172
▁müdahalesi	-6173
▁büyüm	-6174
imd	-6175
antaj	-6176
▁cezası	-6177
▁Madde	-6178
▁görüntül	-6179
▁Çarşamba	-6180
▁yerler	-6181
▁tasarruf	-6182
▁;	-6183
▁Profesyonel	-6184
▁açma	-6185
▁oldukları	-6186
▁Azer	-6187
▁göndermek	-6188
edisi	-6189
▁kullanıyor	-6190
▁süredir	-6191
▁öy	-6192
▁Pay	-6193
▁ettiğini	-6194
▁ihlal	-6195
▁nefes	-6196
öly	-6197
▁bina	-6198
▁Bununla	-6199
▁dağıt	-6200
ebiliriz	-6201
▁Kartal	-6202
mesinin	-6203
▁etkileş	-6204
▁mm	-6205
▁Kanal	-6206
▁kanallarından	-6207
demir	-6208
YT	-6209
elp	-6210
▁Cinsel	-6211
▁Tayyip	-6212
▁Öncelikle	-6213
▁taşıyan	-6214
▁artan	-6215
legal	-6216
▁tarifi	-6217
▁kesim	-6218
▁oynay	-6219
landırıcı	-6220
▁diyerek	-6221
▁düşman	-6222
▁maçı	-6223
▁sunuyoruz	-6224
▁Olarak	-6225
▁milli	-6226
▁yorumları	-6227
mu	-6228
masıyla	-6229
▁Ka	-6230
▁homeop	-6231
mis	-6232
▁Eb	-6233
▁tamiri	-6234
acağınız	-6235
ich	-6236
▁kısım	-6237
▁ajan	-6238
▁tarihli	-6239
▁İhlas	-6240
▁orijinal	-6241
adeniz	-6242
muştu	-6243
▁Mag	-6244
▁Hikayeleri	-6245
▁TB	-6246
▁üretimi	-6247
▁UY	-6248
▁Sıcak	-6249
▁Henüz	-6250
mr	-6251
▁Evde	-6252
▁formu	-6253
▁deprem	-6254
▁Dol	-6255
▁yakından	-6256
biy	-6257
▁ır	-6258
▁Tamiri	-6259
▁kurallarına	-6260
▁hır	-6261
▁Çor	-6262
ınd	-6263
▁Kitapları	-6264
▁Hattı	-6265
▁Aslında	-6266
▁AR	-6267
▁hazırlık	-6268
lanmak	-6269
▁Malatya	-6270
▁yıllar	-6271
▁yapısı	-6272
ibr	-6273
ebet	-6274
▁vad	-6275
▁kalma	-6276
▁sigorta	-6277
▁set	-6278
▁Vi	-6279
▁vize	-6280
▁Yıldır	-6281
▁gecik	-6282
▁harca	-6283
▁sorunsuz	-6284
▁Klima	-6285
▁Muht	-6286
baycan	-6287
▁abone	-6288
▁korumak	-6289
▁makinesi	-6290
▁kıya	-6291
▁İspan	-6292
▁öğrenmek	-6293
gn	-6294
▁geçici	-6295
leki	-6296
▁ces	-6297
▁Örnek	-6298
▁dilek	-6299
▁II	-6300
▁Vüc	-6301
▁Hoca	-6302
▁sonuna	-6303
▁günümüz	-6304
IK	-6305
ave	-6306
enn	-6307
enize	-6308
tül	-6309
▁website	-6310
▁duyurdu	-6311
▁sizleri	-6312
stra	-6313
ena	-6314
▁şaşır	-6315
▁mutfak	-6316
laya	-6317
dıklarını	-6318
▁Birçok	-6319
▁Teşekkür	-6320
isiz	-6321
):	-6322
ibe	-6323
▁üstleniyorsunuz	-6324
▁kutu	-6325
▁hakim	-6326
ılmamış	-6327
ICI	-6328
▁giderek	-6329
azz	-6330
▁dokun	-6331
▁hakkını	-6332
▁modeli	-6333
▁maaş	-6334
▁İsrail	-6335
▁Boya	-6336
undaki	-6337
abilmektedir	-6338
▁hük	-6339
▁Tags	-6340
öğretim	-6341
bahar	-6342
▁Sanal	-6343
▁hatalı	-6344
ağın	-6345
ileş	-6346
acağını	-6347
▁istedik	-6348
▁istey	-6349
üzdan	-6350
▁info	-6351
lanmaz	-6352
▁olacağını	-6353
ebelik	-6354
▁listesi	-6355
aport	-6356
dağı	-6357
▁Özgür	-6358
▁Suç	-6359
▁gösteriyor	-6360
▁mün	-6361
▁kiralama	-6362
yaz	-6363
▁Yüksel	-6364
▁kaplama	-6365
▁Popüler	-6366
▁rahatlıkla	-6367
ükle	-6368
eck	-6369
▁pi	-6370
▁Çevrim	-6371
acık	-6372
▁Gr	-6373
mraniye	-6374
▁maddesi	-6375
leşti	-6376
▁itibariyle	-6377
▁ust	-6378
▁Ceza	-6379
▁Festivali	-6380
▁muhatabı	-6381
▁Vakfı	-6382
▁yöntemleri	-6383
▁mesel	-6384
▁Def	-6385
▁yazma	-6386
▁yükümlülük	-6387
▁suretiyle	-6388
▁akadem	-6389
esef	-6390
▁Yum	-6391
▁adlandır	-6392
▁arab	-6393
▁Öner	-6394
asız	-6395
▁Tor	-6396
▁belirterek	-6397
eceksiniz	-6398
▁barındır	-6399
kel	-6400
lanamaz	-6401
▁Pinterest	-6402
▁gök	-6403
▁Ortak	-6404
▁sağlamaktadır	-6405
▁zir	-6406
▁Pi	-6407
▁hesabı	-6408
ediğim	-6409
▁Anka	-6410
▁Gümüş	-6411
▁mahkem	-6412
▁Hafta	-6413
▁Dolayısıyla	-6414
ğla	-6415
▁Kış	-6416
▁Tercih	-6417
▁kadınların	-6418
üks	-6419
▁hoca	-6420
▁verileriniz	-6421
▁referans	-6422
▁SS	-6423
yel	-6424
▁Sup	-6425
▁ülkemizde	-6426
▁VE	-6427
ebilmesi	-6428
▁ref	-6429
MS	-6430
▁Sorulan	-6431
▁incelen	-6432
itif	-6433
▁ideal	-6434
▁Makinesi	-6435
▁sığ	-6436
urken	-6437
has	-6438
▁grubu	-6439
amızda	-6440
▁köş	-6441
▁şehit	-6442
▁okudum	-6443
ani	-6444
▁Slot	-6445
▁Toplam	-6446
▁İzin	-6447
▁seviye	-6448
irler	-6449
▁girdi	-6450
▁ölçüde	-6451
▁Müzik	-6452
▁email	-6453
▁Akadem	-6454
üminyum	-6455
▁maddi	-6456
▁Mik	-6457
▁yetenek	-6458
▁uyku	-6459
ema	-6460
▁oynan	-6461
▁Demirören	-6462
iew	-6463
▁İtalya	-6464
▁Koşulları	-6465
atch	-6466
▁projesi	-6467
▁sıvı	-6468
▁Fransız	-6469
▁gelmektedir	-6470
▁olduğunda	-6471
▁anket	-6472
▁yaşlı	-6473
▁tv	-6474
▁icin	-6475
arıyla	-6476
▁uçuş	-6477
▁Oldu	-6478
▁limit	-6479
Script	-6480
▁Yunanistan	-6481
▁Model	-6482
▁girin	-6483
▁Hasta	-6484
ğüs	-6485
İstanbul	-6486
▁kaşığı	-6487
▁beslenme	-6488
▁Mücad	-6489
▁tutan	-6490
▁fonksiyon	-6491
▁edilmiştir	-6492
▁Önce	-6493
▁düzgün	-6494
DHA	-6495
▁şiir	-6496
kim	-6497
▁masaj	-6498
▁müt	-6499
▁Ağr	-6500
otel	-6501
ilmelidir	-6502
olik	-6503
▁Dok	-6504
▁zeytin	-6505
▁Mutfak	-6506
▁klima	-6507
▁Süleyman	-6508
▁husus	-6509
▁Oper	-6510
▁Apache	-6511
▁amaçlarla	-6512
▁ilişkiler	-6513
indistan	-6514
▁görünüyor	-6515
▁Tarifi	-6516
▁Caddesi	-6517
dığından	-6518
▁Yatırma	-6519
tacak	-6520
▁Temizlik	-6521
▁kullanın	-6522
lusu	-6523
▁satışı	-6524
▁Gazi	-6525
▁yorumunuzla	-6526
▁acaba	-6527
▁ajanslar	-6528
▁mali	-6529
▁ves	-6530
▁şunları	-6531
ors	-6532
▁bilinç	-6533
ino	-6534
▁yaka	-6535
▁Vatan	-6536
▁bakımı	-6537
▁açılış	-6538
▁birleştir	-6539
ym	-6540
▁Boş	-6541
▁tavsiy	-6542
▁sanatçı	-6543
▁Ünlü	-6544
▁Tamir	-6545
▁üyeleri	-6546
▁ec	-6547
▁moda	-6548
fed	-6549
ulet	-6550
yiz	-6551
▁Kuv	-6552
▁Dar	-6553
▁seksi	-6554
▁Hakkı	-6555
▁niyet	-6556
▁tutul	-6557
▁kızı	-6558
▁noktada	-6559
▁açılan	-6560
AV	-6561
simum	-6562
▁otobüs	-6563
iyorsanız	-6564
▁olursunuz	-6565
▁kurulum	-6566
▁Dig	-6567
▁Del	-6568
▁muhaf	-6569
▁vasıt	-6570
ebilmektedir	-6571
▁Karab	-6572
▁abon	-6573
▁deng	-6574
ux	-6575
umhur	-6576
lex	-6577
makla	-6578
▁Elazığ	-6579
▁öğretim	-6580
▁Üyesi	-6581
▁insanlara	-6582
ets	-6583
ikây	-6584
▁editörlerinin	-6585
▁siyaset	-6586
▁çıkart	-6587
▁üniversite	-6588
top	-6589
dun	-6590
▁düzeyde	-6591
▁mini	-6592
▁stok	-6593
▁Kişi	-6594
▁Detaylar	-6595
▁günün	-6596
▁güncellem	-6597
▁üyeler	-6598
▁Ulaş	-6599
▁hocam	-6600
endirme	-6601
▁arıyor	-6602
▁modül	-6603
İŞ	-6604
▁fık	-6605
▁Hatta	-6606
▁bayram	-6607
▁kamera	-6608
▁no	-6609
▁boyu	-6610
▁teşvik	-6611
▁Test	-6612
df	-6613
nün	-6614
▁günümüzde	-6615
▁şarj	-6616
▁mağaz	-6617
▁Uç	-6618
box	-6619
▁HD	-6620
▁Ucuz	-6621
▁medyum	-6622
▁çocukların	-6623
▁düştü	-6624
▁kapan	-6625
▁Tanıt	-6626
▁Tüket	-6627
ph	-6628
▁şampiyon	-6629
▁yargı	-6630
▁Paşa	-6631
ışlı	-6632
▁İşbu	-6633
▁bileş	-6634
▁bom	-6635
▁korunması	-6636
▁miktarda	-6637
▁Şen	-6638
▁güne	-6639
▁Adet	-6640
▁Şanlıurfa	-6641
▁getirdi	-6642
▁yiyecek	-6643
▁endüstr	-6644
▁Pek	-6645
▁teşkil	-6646
▁avukat	-6647
des	-6648
▁fırsatı	-6649
imum	-6650
ebil	-6651
▁This	-6652
▁kaybetti	-6653
▁bence	-6654
▁yaşamak	-6655
▁becer	-6656
▁Edebiyat	-6657
con	-6658
▁telefonu	-6659
▁Beylikdüzü	-6660
EY	-6661
▁sunduğu	-6662
larımı	-6663
iğin	-6664
▁beklem	-6665
!!	-6666
▁Vol	-6667
▁Konuş	-6668
▁Öğrenci	-6669
▁değerlendirme	-6670
▁restor	-6671
▁Mı	-6672
▁öğrenme	-6673
▁günden	-6674
▁kullanılarak	-6675
▁oyunlar	-6676
▁seven	-6677
▁Amerikan	-6678
▁etmez	-6679
▁rekabet	-6680
▁Anahtar	-6681
▁Bundan	-6682
▁Öğren	-6683
elegram	-6684
▁Metal	-6685
▁eklem	-6686
sp	-6687
▁içerikleri	-6688
▁kaçak	-6689
▁İşleri	-6690
tiğiniz	-6691
:)	-6692
▁göstermektedir	-6693
▁birliği	-6694
öş	-6695
▁diyen	-6696
▁muay	-6697
▁Bilgileri	-6698
mini	-6699
▁Euro	-6700
▁hazırla	-6701
▁Trabzon	-6702
▁mühendis	-6703
cusu	-6704
mada	-6705
▁Duvar	-6706
▁odaklı	-6707
▁aley	-6708
▁Covid	-6709
▁Kanunun	-6710
▁Ekran	-6711
orld	-6712
▁Col	-6713
html	-6714
▁Akıllı	-6715
arında	-6716
▁Di	-6717
bl	-6718
ach	-6719
fik	-6720
▁finansal	-6721
▁Beni	-6722
▁bedava	-6723
▁Yasal	-6724
▁sağlayacak	-6725
▁kimdir	-6726
▁kullanılamaz	-6727
▁ilginç	-6728
▁JavaScript	-6729
▁sanayi	-6730
▁getirmek	-6731
▁dek	-6732
▁fiyatlar	-6733
şu	-6734
▁Değiştir	-6735
▁tutk	-6736
▁üzeri	-6737
▁Ekip	-6738
usuf	-6739
üldü	-6740
▁Demokr	-6741
▁alana	-6742
ANKA	-6743
▁Bağlantı	-6744
▁verilmesi	-6745
▁Ken	-6746
dış	-6747
▁Başkanımız	-6748
patika	-6749
▁usta	-6750
▁ilçe	-6751
▁dip	-6752
▁Herhangi	-6753
▁edildiği	-6754
▁maruz	-6755
emizi	-6756
▁işleri	-6757
▁insanı	-6758
▁kullanabilir	-6759
▁Uzmanı	-6760
▁Adım	-6761
▁Bakanlığ	-6762
▁lok	-6763
iste	-6764
▁katılan	-6765
▁Kahraman	-6766
▁oranında	-6767
▁pil	-6768
▁Prot	-6769
lıca	-6770
▁Air	-6771
▁masraf	-6772
▁şahıs	-6773
▁kapsamda	-6774
elle	-6775
▁vek	-6776
▁posta	-6777
▁bahç	-6778
▁Forex	-6779
▁mağdur	-6780
▁Düzce	-6781
enpatika	-6782
▁Kesin	-6783
İTE	-6784
▁Dağ	-6785
▁Şartları	-6786
ecik	-6787
▁Cumartesi	-6788
▁çeş	-6789
▁ajanstır	-6790
▁demiş	-6791
dukları	-6792
▁iken	-6793
▁Yıldırım	-6794
▁önde	-6795
▁birinin	-6796
▁ı	-6797
▁yıkama	-6798
▁Birleşik	-6799
▁Teklif	-6800
▁editöryel	-6801
.,	-6802
▁Afrika	-6803
erin	-6804
▁Masa	-6805
▁terk	-6806
▁bizlere	-6807
▁Kartı	-6808
▁Hey	-6809
▁sos	-6810
▁Onay	-6811
▁bölgede	-6812
▁Taksit	-6813
▁işin	-6814
▁çim	-6815
able	-6816
▁bölge	-6817
▁muhtem	-6818
▁edec	-6819
▁Bölümü	-6820
▁bahsed	-6821
▁üretilen	-6822
▁geçirilip	-6823
▁mutluluk	-6824
▁sakin	-6825
▁bı	-6826
ınma	-6827
▁Düşük	-6828
▁dönemi	-6829
▁satışa	-6830
▁kullanıyoruz	-6831
▁süren	-6832
▁Yakası	-6833
▁dikkatli	-6834
▁icra	-6835
▁dünyas	-6836
MA	-6837
▁Proje	-6838
▁üm	-6839
▁toplumsal	-6840
▁nas	-6841
inizden	-6842
▁Sıkça	-6843
▁Metin	-6844
dol	-6845
urdu	-6846
▁öncelik	-6847
▁taban	-6848
▁alanlarda	-6849
▁sevk	-6850
▁açıdan	-6851
▁kıymet	-6852
ole	-6853
▁Orman	-6854
▁Nev	-6855
▁hali	-6856
▁Azerbaycan	-6857
dün	-6858
▁hayırlı	-6859
edia	-6860
▁traf	-6861
▁tamamı	-6862
ced	-6863
üye	-6864
▁elbette	-6865
▁hekim	-6866
▁uygulanan	-6867
mişti	-6868
▁hapis	-6869
▁Aşağıdaki	-6870
.’	-6871
▁Hüseyin	-6872
▁buluştur	-6873
▁değişimi	-6874
utu	-6875
▁içerikler	-6876
▁TC	-6877
▁yapıyoruz	-6878
▁unutmayın	-6879
▁rehber	-6880
ümüzdeki	-6881
▁Temsil	-6882
''	-6883
▁Ordu	-6884
asayfa	-6885
▁istik	-6886
▁Sigorta	-6887
pro	-6888
▁Enstit	-6889
inç	-6890
▁klasik	-6891
▁işçi	-6892
▁Göl	-6893
▁Tatlı	-6894
▁sorunun	-6895
▁Havalimanı	-6896
isin	-6897
▁İlaç	-6898
▁kamer	-6899
kanlığı	-6900
▁Lond	-6901
▁düşüş	-6902
▁Bayramı	-6903
▁Üz	-6904
▁orman	-6905
ahalı	-6906
▁sevgil	-6907
▁enfeksiyon	-6908
Kİ	-6909
▁Dönüş	-6910
▁anlamak	-6911
ilmeden	-6912
▁Başvur	-6913
geldin	-6914
▁Moda	-6915
ebilirim	-6916
fli	-6917
▁sebeple	-6918
diven	-6919
▁yorumu	-6920
Ay	-6921
▁olduğum	-6922
▁tablet	-6923
▁hatt	-6924
▁muhal	-6925
▁kahve	-6926
▁seçin	-6927
▁AP	-6928
▁sizinle	-6929
onsor	-6930
LAN	-6931
ights	-6932
▁Adam	-6933
▁kargoya	-6934
▁fatura	-6935
▁gitti	-6936
▁Kaymak	-6937
▁Anne	-6938
▁ekipman	-6939
sedür	-6940
▁mülk	-6941
▁verim	-6942
▁hâl	-6943
▁geleceğ	-6944
▁Cihaz	-6945
▁kadının	-6946
▁konularda	-6947
▁Hüküm	-6948
▁başlangıç	-6949
▁etmeyi	-6950
▁ayrıntılı	-6951
▁Karadeniz	-6952
DF	-6953
▁Tavs	-6954
▁numaralı	-6955
▁send	-6956
▁bütç	-6957
▁Ölç	-6958
▁ente	-6959
▁Pen	-6960
▁ALI	-6961
▁karbon	-6962
▁öncesinde	-6963
▁Medyum	-6964
▁Sch	-6965
▁çağır	-6966
▁sembol	-6967
▁kere	-6968
▁iklim	-6969
▁gelişmiş	-6970
▁keyf	-6971
▁İddaa	-6972
▁hikaye	-6973
▁Günümüzde	-6974
ood	-6975
ebileceğiniz	-6976
▁bilgilere	-6977
▁yıllardır	-6978
▁Yapan	-6979
gor	-6980
▁Hatay	-6981
▁Paket	-6982
▁metre	-6983
tiğini	-6984
▁Şahin	-6985
▁bireysel	-6986
eciler	-6987
lendiği	-6988
▁mac	-6989
umuzu	-6990
▁görür	-6991
▁Oturum	-6992
▁mater	-6993
orat	-6994
âhil	-6995
tre	-6996
▁şehr	-6997
▁Şefimiz	-6998
▁Sivas	-6999
▁Zeytin	-7000
menize	-7001
▁ilanları	-7002
▁kalır	-7003
led	-7004
▁Teb	-7005
▁istif	-7006
oot	-7007
▁fant	-7008
▁böylece	-7009
▁mevzuata	-7010
▁Lev	-7011
▁mekt	-7012
▁Roman	-7013
▁mobilya	-7014
imizle	-7015
▁Pazarlama	-7016
▁sürecinde	-7017
illeri	-7018
▁hanım	-7019
▁duruş	-7020
▁tuş	-7021
▁Ligi	-7022
ferans	-7023
▁Salı	-7024
▁iktidar	-7025
▁Yah	-7026
▁karşıya	-7027
▁değişken	-7028
▁açın	-7029
ıldığında	-7030
IZ	-7031
▁sizlerle	-7032
▁bez	-7033
▁yapılab	-7034
mus	-7035
▁hattı	-7036
sk	-7037
▁Süt	-7038
▁tescil	-7039
▁geliştirmek	-7040
çılık	-7041
▁Villa	-7042
▁Yerel	-7043
▁Mısır	-7044
leyecek	-7045
larımızda	-7046
culuk	-7047
▁Araba	-7048
▁arayan	-7049
▁Mimar	-7050
▁Muğla	-7051
▁Alanya	-7052
▁sağlama	-7053
acağım	-7054
▁Kategori	-7055
set	-7056
çu	-7057
▁Comment	-7058
▁Hedef	-7059
▁Bize	-7060
▁materyal	-7061
▁Kimdir	-7062
▁istediği	-7063
▁elb	-7064
lâm	-7065
▁Kum	-7066
▁kalab	-7067
DPR	-7068
teri	-7069
▁umut	-7070
▁sorgu	-7071
uşturucu	-7072
▁açıklandı	-7073
▁Baz	-7074
▁kamp	-7075
▁Sıra	-7076
▁yüks	-7077
andar	-7078
▁Hollanda	-7079
▁ağz	-7080
▁isteyenler	-7081
▁temas	-7082
▁bakın	-7083
gılan	-7084
iyeli	-7085
cin	-7086
▁Ph	-7087
▁kendilerini	-7088
▁Erzurum	-7089
▁dua	-7090
altına	-7091
olat	-7092
larımızdan	-7093
▁istiyoruz	-7094
▁mesajı	-7095
▁kağıt	-7096
▁dan	-7097
▁çatı	-7098
▁Kurban	-7099
▁hücr	-7100
▁rız	-7101
eğiyle	-7102
▁yazılımı	-7103
▁Burcu	-7104
▁hükümet	-7105
gah	-7106
ikola	-7107
şet	-7108
uyum	-7109
▁bugüne	-7110
▁gerektiği	-7111
▁konfor	-7112
▁açıldı	-7113
ınızdan	-7114
▁kullanımına	-7115
ayacak	-7116
▁yasaktır	-7117
▁sağlan	-7118
▁Hayır	-7119
▁Düşün	-7120
çın	-7121
okulu	-7122
ilendir	-7123
▁engelli	-7124
▁alınarak	-7125
nuv	-7126
osk	-7127
▁Bölge	-7128
astik	-7129
▁yaşıyor	-7130
▁Sağlıklı	-7131
▁markası	-7132
▁müdahale	-7133
▁alacağ	-7134
▁dedim	-7135
▁Kore	-7136
▁Kadıköy	-7137
▁Takımı	-7138
▁zorluk	-7139
▁Emniyet	-7140
▁akış	-7141
▁atık	-7142
▁Fin	-7143
▁kazanmak	-7144
üman	-7145
▁çıkma	-7146
▁yaklaşım	-7147
▁geçerlidir	-7148
▁Anasayfa	-7149
▁Faydaları	-7150
lacağı	-7151
▁Seyahat	-7152
Gün	-7153
▁MHP	-7154
▁dizin	-7155
lap	-7156
▁Modern	-7157
▁sayılır	-7158
▁Dergisi	-7159
▁selam	-7160
▁Polis	-7161
▁Harit	-7162
▁paylaştı	-7163
sey	-7164
ılmak	-7165
▁koşulları	-7166
▁Trend	-7167
▁ziyaretçiler	-7168
TL	-7169
ğa	-7170
▁turizm	-7171
▁yapılabilir	-7172
sav	-7173
▁Lens	-7174
ohn	-7175
ilem	-7176
▁vir	-7177
▁yaşadığı	-7178
▁format	-7179
rice	-7180
stil	-7181
▁Yalnız	-7182
landırma	-7183
▁ihtiyacınız	-7184
▁Asan	-7185
▁yolcu	-7186
▁Mor	-7187
lerken	-7188
low	-7189
▁His	-7190
▁ulaştı	-7191
▁Üniversite	-7192
ear	-7193
ebilen	-7194
peri	-7195
ünye	-7196
▁kendinizi	-7197
▁UYARI	-7198
hare	-7199
▁çalışmak	-7200
▁etiket	-7201
ülür	-7202
▁Eg	-7203
▁sıkı	-7204
▁Sorun	-7205
▁Mir	-7206
Kar	-7207
▁ilave	-7208
▁derecede	-7209
▁istis	-7210
▁Market	-7211
ance	-7212
▁GDPR	-7213
▁Çak	-7214
rosoft	-7215
▁Barış	-7216
▁Telegram	-7217
soy	-7218
▁Işık	-7219
▁Savunma	-7220
▁sonuçlar	-7221
▁tor	-7222
▁protected	-7223
▁Saf	-7224
▁kimyasal	-7225
▁Boğaz	-7226
▁Bedava	-7227
▁raporu	-7228
onun	-7229
▁Tun	-7230
▁Komut	-7231
▁veriyoruz	-7232
akende	-7233
AC	-7234
Lİ	-7235
▁genişlet	-7236
▁kalitesi	-7237
yeri	-7238
▁Log	-7239
▁inceleme	-7240
▁Doğan	-7241
▁kişiselleştir	-7242
▁Manisa	-7243
▁yapmayı	-7244
▁İzle	-7245
htt	-7246
▁Key	-7247
▁our	-7248
▁ölü	-7249
▁temsilc	-7250
▁Tep	-7251
itir	-7252
▁prens	-7253
▁Görüntü	-7254
▁Kampanya	-7255
▁Yay	-7256
usuz	-7257
▁petrol	-7258
izesi	-7259
▁Seo	-7260
▁market	-7261
▁roman	-7262
email	-7263
▁Şehit	-7264
▁dâhil	-7265
▁Yakın	-7266
▁yaptım	-7267
▁Amaç	-7268
▁konuk	-7269
TTP	-7270
▁tl	-7271
▁eskort	-7272
▁Ağır	-7273
▁ağırlık	-7274
▁tartışma	-7275
▁sorular	-7276
leyip	-7277
mekten	-7278
▁Cilt	-7279
▁Koz	-7280
▁Buz	-7281
inizle	-7282
▁Rapor	-7283
▁La	-7284
▁istatistik	-7285
▁seçimi	-7286
▁çey	-7287
▁etkiler	-7288
imat	-7289
▁Dayan	-7290
ümrük	-7291
▁TBMM	-7292
▁malzemeleri	-7293
ding	-7294
▁ömr	-7295
▁Bölgesi	-7296
▁Söy	-7297
alesef	-7298
▁Est	-7299
▁etkiley	-7300
▁Ayr	-7301
▁değin	-7302
▁başkanı	-7303
▁Kelim	-7304
▁pen	-7305
cıları	-7306
ılacaktır	-7307
▁kâ	-7308
▁evlilik	-7309
duğum	-7310
▁Kulübü	-7311
▁ettim	-7312
ımızdan	-7313
▁Üretim	-7314
▁Sertif	-7315
▁bulunmamaktadır	-7316
▁Olay	-7317
▁Bilişim	-7318
▁belediye	-7319
▁Irak	-7320
▁saatleri	-7321
▁geçtiğimiz	-7322
▁amaçla	-7323
elç	-7324
amıyor	-7325
liy	-7326
rimenkul	-7327
oma	-7328
faf	-7329
kap	-7330
▁Dağı	-7331
▁düşünce	-7332
▁Balıkesir	-7333
▁Rabb	-7334
▁eğit	-7335
▁Zar	-7336
▁miktarı	-7337
▁Pendik	-7338
urk	-7339
errahi	-7340
▁Personel	-7341
eor	-7342
jen	-7343
,...	-7344
▁Şirketi	-7345
▁vererek	-7346
▁potansiyel	-7347
maye	-7348
▁gür	-7349
cıların	-7350
▁tamamlan	-7351
▁verilmektedir	-7352
▁kaybı	-7353
▁Onun	-7354
▁ker	-7355
▁mir	-7356
▁Unut	-7357
Er	-7358
das	-7359
▁kavuş	-7360
▁aksesuar	-7361
gazi	-7362
▁ALICI	-7363
▁geçin	-7364
▁Mobilya	-7365
vesi	-7366
tih	-7367
▁Sigort	-7368
giz	-7369
lish	-7370
▁işbirliği	-7371
yaspor	-7372
imle	-7373
▁izlem	-7374
▁işt	-7375
▁sız	-7376
▁oynamak	-7377
▁pişir	-7378
▁düğün	-7379
▁Düğün	-7380
urma	-7381
▁Acil	-7382
▁kişiyi	-7383
▁kariyer	-7384
lini	-7385
▁trend	-7386
▁Kapısı	-7387
▁Sağlığı	-7388
GS	-7389
▁Sokak	-7390
▁süper	-7391
▁başlıklı	-7392
IS	-7393
mayacaktır	-7394
gül	-7395
▁Nes	-7396
▁geleneksel	-7397
▁cons	-7398
▁uygulamalar	-7399
▁bulama	-7400
lamaları	-7401
▁karma	-7402
ojistik	-7403
▁Başak	-7404
▁şartı	-7405
▁Kem	-7406
▁egzersiz	-7407
▁Trav	-7408
▁PC	-7409
▁Fen	-7410
▁Fi	-7411
▁olmanız	-7412
▁yapmaktadır	-7413
▁Özet	-7414
lic	-7415
abilmesi	-7416
▁alıntı	-7417
▁edebiyat	-7418
▁idi	-7419
▁Keş	-7420
▁çök	-7421
▁gönderilen	-7422
lerindeki	-7423
▁Esen	-7424
▁şeyin	-7425
▁ayrıc	-7426
ağını	-7427
ulma	-7428
▁ch	-7429
▁Borsa	-7430
Dev	-7431
▁bazıları	-7432
artman	-7433
▁biçim	-7434
▁Gay	-7435
▁eşi	-7436
▁yaptığımız	-7437
▁Ruh	-7438
tılan	-7439
▁rüya	-7440
▁hakkındaki	-7441
▁pol	-7442
▁anlamı	-7443
tın	-7444
▁olmaması	-7445
▁rakip	-7446
▁kilomet	-7447
ox	-7448
▁yaptıkları	-7449
▁Sim	-7450
▁HTTP	-7451
▁Nerede	-7452
gur	-7453
lukla	-7454
▁Kabul	-7455
▁makale	-7456
tığımız	-7457
elal	-7458
▁Diyet	-7459
ulmaz	-7460
▁Gerç	-7461
▁görevi	-7462
▁memur	-7463
gini	-7464
durma	-7465
▁mimar	-7466
▁plastik	-7467
pas	-7468
▁Nit	-7469
igo	-7470
▁Uçak	-7471
▁Künye	-7472
▁hariç	-7473
iğe	-7474
ektörü	-7475
duktan	-7476
▁yumuşak	-7477
▁köp	-7478
▁özgü	-7479
▁yapıldığı	-7480
lediğiniz	-7481
▁Selam	-7482
▁denem	-7483
▁üstü	-7484
▁bursa	-7485
je	-7486
▁Dam	-7487
▁Bahçeli	-7488
lası	-7489
şi	-7490
lanta	-7491
gul	-7492
DV	-7493
▁Black	-7494
▁bilen	-7495
▁Belg	-7496
▁yarın	-7497
▁istihdam	-7498
rist	-7499
▁Geçen	-7500
▁oranları	-7501
▁Yönetmel	-7502
▁ömür	-7503
▁Hac	-7504
▁ayn	-7505
ue	-7506
ilesi	-7507
araj	-7508
üzgar	-7509
çısı	-7510
▁yağı	-7511
Biz	-7512
lıyorum	-7513
ann	-7514
▁şefimiz	-7515
tren	-7516
▁ırk	-7517
▁panosu	-7518
adışı	-7519
▁Savaşı	-7520
▁talebi	-7521
▁öneriler	-7522
▁testi	-7523
ump	-7524
▁yakala	-7525
▁bask	-7526
▁araçları	-7527
endim	-7528
▁Yargı	-7529
tein	-7530
▁zamanında	-7531
▁haklarına	-7532
tive	-7533
▁savunma	-7534
▁irtib	-7535
yat	-7536
▁Geçmiş	-7537
▁gündeme	-7538
▁deneyimli	-7539
▁karşılaştır	-7540
▁İsim	-7541
larken	-7542
▁Dönem	-7543
▁sürüyor	-7544
▁Hindistan	-7545
▁çözümler	-7546
işan	-7547
▁koc	-7548
reat	-7549
▁evet	-7550
▁bedeli	-7551
ildiğini	-7552
▁göl	-7553
▁MAD	-7554
▁yolunda	-7555
Yİ	-7556
▁kons	-7557
▁fazlasını	-7558
ben	-7559
▁coğraf	-7560
▁süreli	-7561
▁güzellik	-7562
▁versiyon	-7563
▁bağış	-7564
▁yapılandır	-7565
udak	-7566
▁verilerinizin	-7567
▁yaratıcı	-7568
▁Gelir	-7569
▁Set	-7570
▁nem	-7571
▁Ata	-7572
▁co	-7573
▁Komisyonu	-7574
▁erkekler	-7575
▁Fuarı	-7576
lass	-7577
own	-7578
▁adalet	-7579
OB	-7580
▁dür	-7581
▁Nokta	-7582
ünnet	-7583
▁vermekteyiz	-7584
▁mikro	-7585
▁Bulun	-7586
▁etkinleştir	-7587
▁deri	-7588
ilelik	-7589
▁Tik	-7590
▁aran	-7591
▁konular	-7592
▁olmuyor	-7593
▁beyin	-7594
▁şekli	-7595
Or	-7596
▁görebilirsiniz	-7597
val	-7598
ft	-7599
tisiz	-7600
larımızla	-7601
▁Hır	-7602
▁PKK	-7603
▁Geniş	-7604
▁Meslek	-7605
▁Galaxy	-7606
▁zincir	-7607
▁Nak	-7608
▁gizlilik	-7609
▁okumak	-7610
istin	-7611
▁Kitabı	-7612
ota	-7613
▁rezervasyon	-7614
zat	-7615
▁müs	-7616
▁may	-7617
▁depolama	-7618
▁ufak	-7619
▁gidiyor	-7620
▁Ep	-7621
▁tıkla	-7622
▁Oyuncu	-7623
▁bırakın	-7624
adım	-7625
▁Bür	-7626
▁grafik	-7627
tifak	-7628
erse	-7629
▁Çocuklar	-7630
ijyen	-7631
▁Alınır	-7632
omi	-7633
▁birbirine	-7634
▁gereksin	-7635
▁kültürel	-7636
anık	-7637
▁konser	-7638
▁göm	-7639
▁ayda	-7640
▁öt	-7641
alog	-7642
ational	-7643
▁siteyi	-7644
▁yürüyüş	-7645
▁İc	-7646
▁bitki	-7647
▁düşündüğ	-7648
▁kaydetti	-7649
▁Neler	-7650
▁musunuz	-7651
▁Mis	-7652
▁porn	-7653
▁Yusuf	-7654
▁İlç	-7655
▁Şifr	-7656
▁tıbbi	-7657
▁zahmet	-7658
▁Aksi	-7659
Allah	-7660
tent	-7661
▁seyir	-7662
▁tabii	-7663
endiğ	-7664
▁sizden	-7665
▁Fikir	-7666
▁yazık	-7667
otoru	-7668
▁görüşmeler	-7669
▁Üzerine	-7670
obi	-7671
▁Zaten	-7672
▁Uğur	-7673
▁Yetk	-7674
▁Kork	-7675
▁Analiz	-7676
▁tüketic	-7677
▁çeşitleri	-7678
üğü	-7679
ji	-7680
▁yaralı	-7681
▁sisteminin	-7682
▁Oluşt	-7683
▁Yıkama	-7684
▁duruma	-7685
▁Edir	-7686
▁katkıda	-7687
▁Nef	-7688
▁anı	-7689
▁kolaylıkla	-7690
▁kurmak	-7691
▁rahmet	-7692
▁aktivit	-7693
▁döviz	-7694
▁Bakır	-7695
elek	-7696
melerin	-7697
PA	-7698
▁Kaya	-7699
▁keşfet	-7700
gmail	-7701
▁protokol	-7702
▁barış	-7703
ostan	-7704
▁yüzünden	-7705
yet	-7706
▁Doç	-7707
▁süreçte	-7708
▁ağız	-7709
▁sub	-7710
acılık	-7711
▁yerlerde	-7712
OV	-7713
▁Dışişleri	-7714
dere	-7715
▁Nec	-7716
KS	-7717
▁Adalet	-7718
▁oluşur	-7719
▁Güvenli	-7720
▁Max	-7721
▁kullanımını	-7722
RL	-7723
El	-7724
▁meyve	-7725
▁bulunması	-7726
▁kuzey	-7727
▁bilet	-7728
▁eseri	-7729
▁yolda	-7730
▁Güvenliği	-7731
▁göstermek	-7732
▁uydu	-7733
▁saati	-7734
▁Edin	-7735
ESİ	-7736
PSS	-7737
▁mür	-7738
▁BM	-7739
▁olgun	-7740
▁Emre	-7741
▁John	-7742
▁Fiyata	-7743
▁düşen	-7744
▁gelip	-7745
ikolata	-7746
▁açıkça	-7747
▁Bayanlar	-7748
▁kullanıcılara	-7749
▁evrak	-7750
▁ihtimal	-7751
▁Belgesi	-7752
▁hayatına	-7753
ezen	-7754
▁mevsim	-7755
▁ekonomi	-7756
▁çekti	-7757
▁oldum	-7758
mara	-7759
▁asans	-7760
▁bilgilerinizi	-7761
▁geçebilirsiniz	-7762
ula	-7763
▁oluşturan	-7764
masın	-7765
▁farkı	-7766
▁olabilecek	-7767
▁Hediye	-7768
▁lezzet	-7769
▁Ardından	-7770
▁İnstagram	-7771
▁Çiz	-7772
▁işgal	-7773
Baş	-7774
▁özet	-7775
▁Vit	-7776
▁işlen	-7777
▁başvurusu	-7778
▁izleme	-7779
▁kalem	-7780
iski	-7781
▁SAT	-7782
ısının	-7783
▁tüketim	-7784
▁yapabilmek	-7785
▁Ulu	-7786
ildiğ	-7787
▁üstünde	-7788
▁pozitif	-7789
▁Ameliyat	-7790
▁gözaltına	-7791
▁İhtiy	-7792
▁düzenleme	-7793
iplin	-7794
▁istedi	-7795
▁yumurta	-7796
▁saklı	-7797
▁duyuru	-7798
▁gurur	-7799
▁kısmında	-7800
▁Ataşehir	-7801
▁kazandı	-7802
▁birer	-7803
LU	-7804
▁öğrencilerin	-7805
ohum	-7806
aze	-7807
Tüm	-7808
",	-7809
prü	-7810
uncu	-7811
▁Star	-7812
laştık	-7813
▁Gol	-7814
▁Yolu	-7815
▁Kardeş	-7816
▁bağır	-7817
omotiv	-7818
diy	-7819
▁anti	-7820
▁tipi	-7821
▁söyleyen	-7822
▁hayran	-7823
▁sitemizi	-7824
GB	-7825
▁algı	-7826
▁Uzak	-7827
▁Dosya	-7828
laşması	-7829
▁sürücü	-7830
▁Performan	-7831
▁elektrikli	-7832
▁değişikliği	-7833
▁yah	-7834
▁Seçenek	-7835
ırnak	-7836
▁Otomatik	-7837
▁izmir	-7838
▁asgari	-7839
▁Köpek	-7840
▁alırken	-7841
▁sinema	-7842
amin	-7843
▁Hanım	-7844
▁bekleniyor	-7845
▁kira	-7846
İTRA	-7847
▁arzu	-7848
TK	-7849
▁noktası	-7850
▁Kamp	-7851
▁isteme	-7852
▁Me	-7853
▁üstüne	-7854
▁Sözleşme	-7855
▁çekir	-7856
mesiyle	-7857
▁ekipleri	-7858
▁sitesidir	-7859
▁sorumluluğ	-7860
▁Değerlendir	-7861
II	-7862
▁Otelleri	-7863
▁AS	-7864
▁Poker	-7865
üphan	-7866
kal	-7867
▁korku	-7868
▁Tv	-7869
▁suni	-7870
ebileceği	-7871
▁zemin	-7872
▁MADDE	-7873
elerinizi	-7874
lıyoruz	-7875
▁AD	-7876
▁Hoşgeldin	-7877
▁lek	-7878
▁Gece	-7879
▁kaynaklanan	-7880
▁dey	-7881
▁Meclisi	-7882
▁çalışmalarını	-7883
isit	-7884
td	-7885
▁protest	-7886
▁final	-7887
▁görüşme	-7888
vin	-7889
weet	-7890
▁yöner	-7891
▁Afyon	-7892
▁kek	-7893
▁Stratej	-7894
▁Tedavisi	-7895
▁kaynaklı	-7896
otok	-7897
▁Danışmanlık	-7898
flix	-7899
kas	-7900
▁sektörü	-7901
elli	-7902
▁Oyuncak	-7903
▁nakit	-7904
▁maksimum	-7905
▁steroid	-7906
▁Tez	-7907
itasyon	-7908
▁danış	-7909
▁İsmail	-7910
▁edilerek	-7911
▁Dolar	-7912
eld	-7913
unacak	-7914
▁Öğretim	-7915
anızı	-7916
▁netic	-7917
▁Baba	-7918
▁estetik	-7919
mesinde	-7920
mos	-7921
▁Elb	-7922
▁Mücadele	-7923
▁Uyarı	-7924
oşk	-7925
aması	-7926
▁hayatta	-7927
▁sınırsız	-7928
▁gitmek	-7929
müyor	-7930
elendir	-7931
Pro	-7932
▁Maltepe	-7933
lit	-7934
▁hoc	-7935
▁izni	-7936
▁açtı	-7937
ysanız	-7938
▁sertifik	-7939
▁CN	-7940
tions	-7941
▁attı	-7942
▁sinir	-7943
ışıklık	-7944
▁Kuran	-7945
▁Kurt	-7946
▁zamanlar	-7947
▁parlak	-7948
▁muk	-7949
▁Hakan	-7950
slan	-7951
▁dili	-7952
▁kalb	-7953
▁harek	-7954
▁Sayılı	-7955
▁Fantezi	-7956
âm	-7957
▁Yun	-7958
▁ısıtma	-7959
▁randevu	-7960
▁temizliği	-7961
cük	-7962
▁onwin	-7963
▁Kod	-7964
▁yürürlüğe	-7965
▁Lin	-7966
ýr	-7967
▁kayde	-7968
▁''	-7969
▁bulab	-7970
İD	-7971
▁genelde	-7972
tuğ	-7973
ader	-7974
▁iyice	-7975
▁gösterdi	-7976
▁yakası	-7977
▁sağlanması	-7978
▁Beğen	-7979
▁türleri	-7980
▁mavi	-7981
mamak	-7982
▁dahilinde	-7983
▁harekete	-7984
abilmeniz	-7985
isim	-7986
▁kullanıcının	-7987
ical	-7988
sohbet	-7989
▁çıkacak	-7990
▁Avukat	-7991
▁yukarıdaki	-7992
▁Bana	-7993
▁Katılım	-7994
▁manz	-7995
▁vizyon	-7996
▁izinsiz	-7997
▁Aksesuar	-7998
▁yüzlerce	-7999
▁Edirne	-8000
▁delil	-8001
ırlanta	-8002
▁kullandığı	-8003
▁cezai	-8004
▁cümleler	-8005
▁çekin	-8006
▁Bos	-8007
▁kombi	-8008
▁Dekorasyon	-8009
▁kıv	-8010
▁tarayıc	-8011
lk	-8012
▁Alev	-8013
izma	-8014
▁Mavi	-8015
▁Puro	-8016
tılı	-8017
▁Microsoft	-8018
▁yansıt	-8019
▁sektörde	-8020
▁puro	-8021
so	-8022
mazlık	-8023
▁işletme	-8024
▁arttı	-8025
▁gerçekleşen	-8026
▁mantık	-8027
IP	-8028
▁eşsiz	-8029
▁çö	-8030
▁Fab	-8031
▁ekledi	-8032
▁anlaşma	-8033
▁İslâm	-8034
▁yolculuk	-8035
▁yapılıyor	-8036
▁dedik	-8037
▁adresini	-8038
ilerde	-8039
▁Tanrı	-8040
▁Otomobil	-8041
tuğu	-8042
gut	-8043
▁medyada	-8044
▁Kuruluş	-8045
iyorsunuz	-8046
▁halka	-8047
▁takımı	-8048
▁Konut	-8049
▁kazanan	-8050
▁nitelikli	-8051
omp	-8052
rand	-8053
▁Lab	-8054
▁şun	-8055
ilerden	-8056
▁Bizi	-8057
▁prosedür	-8058
▁kablo	-8059
▁değiştirme	-8060
▁makine	-8061
▁Hu	-8062
liğiyle	-8063
▁uygulanır	-8064
▁Özlem	-8065
▁York	-8066
öbet	-8067
▁Şar	-8068
ındalık	-8069
ang	-8070
▁Bayrak	-8071
jinal	-8072
▁bulut	-8073
▁LinkedIn	-8074
▁İt	-8075
▁beklenen	-8076
▁rob	-8077
lâh	-8078
▁İşlemleri	-8079
web	-8080
▁that	-8081
▁inanıyor	-8082
▁alkol	-8083
▁doz	-8084
▁durumlar	-8085
▁Müzesi	-8086
▁verebilir	-8087
▁yapıp	-8088
▁Sitemizdeki	-8089
▁Köyü	-8090
▁soruları	-8091
▁ES	-8092
▁blok	-8093
casino	-8094
ruk	-8095
▁Için	-8096
▁sözleri	-8097
Her	-8098
anma	-8099
▁Sahip	-8100
▁Anayasa	-8101
▁bulunmak	-8102
▁Sep	-8103
▁felse	-8104
▁Sabah	-8105
▁Oran	-8106
▁şark	-8107
▁beğeni	-8108
üce	-8109
▁denk	-8110
▁Hocam	-8111
▁alanına	-8112
▁ekmek	-8113
▁sevgi	-8114
▁End	-8115
uvalet	-8116
▁yazılmış	-8117
▁girişi	-8118
elisiniz	-8119
▁lig	-8120
▁anonim	-8121
▁birleş	-8122
▁gelmesi	-8123
▁gayet	-8124
sus	-8125
ılarak	-8126
▁Baskı	-8127
▁Yatak	-8128
▁duyar	-8129
▁esnaf	-8130
▁koruyucu	-8131
▁Açma	-8132
▁sayfası	-8133
▁Kalp	-8134
iyordu	-8135
maraş	-8136
▁oğlu	-8137
ıldığını	-8138
▁Çalışan	-8139
▁galib	-8140
ünüzü	-8141
▁Girişim	-8142
▁tazminat	-8143
ükleer	-8144
▁vade	-8145
▁Milyon	-8146
▁Shop	-8147
▁ahşap	-8148
▁Londra	-8149
▁geliştirme	-8150
▁altındaki	-8151
▁yağmur	-8152
▁güz	-8153
▁lik	-8154
uff	-8155
melisiniz	-8156
▁Veriler	-8157
▁oynat	-8158
▁siteniz	-8159
▁Zek	-8160
▁iman	-8161
▁etkileri	-8162
▁Cor	-8163
▁sahipleri	-8164
▁Devamı	-8165
▁Mate	-8166
▁paketi	-8167
▁ikram	-8168
isti	-8169
melidir	-8170
▁buldu	-8171
▁kullanıcıları	-8172
▁Git	-8173
dılar	-8174
▁Mini	-8175
▁Dost	-8176
irinç	-8177
metik	-8178
▁Isı	-8179
▁Müşteriler	-8180
▁Çekme	-8181
▁parmak	-8182
▁büyüme	-8183
▁alb	-8184
▁farklılık	-8185
▁ani	-8186
▁çalışmaya	-8187
▁val	-8188
▁altyapı	-8189
ografi	-8190
▁devrim	-8191
▁Telif	-8192
▁gözük	-8193
abilirler	-8194
▁Yeniden	-8195
▁yazıları	-8196
▁vasıtasıyla	-8197
▁Rehber	-8198
▁fabrika	-8199
▁mıs	-8200
▁Vergi	-8201
▁satır	-8202
kor	-8203
▁olacağı	-8204
cy	-8205
▁yoğ	-8206
▁konumlandır	-8207
iriz	-8208
▁Abdullah	-8209
▁Olur	-8210
▁Fiyatı	-8211
▁aşkın	-8212
▁yur	-8213
▁vaka	-8214
▁periy	-8215
▁konuşan	-8216
larıdır	-8217
meyecek	-8218
▁Belirt	-8219
▁Rum	-8220
▁İptal	-8221
▁Dub	-8222
▁yaşadık	-8223
▁daima	-8224
▁verdiğiniz	-8225
▁sec	-8226
▁Tiyatro	-8227
madığı	-8228
OK	-8229
▁anlar	-8230
▁imkân	-8231
▁onarım	-8232
▁Ümraniye	-8233
▁Tim	-8234
▁bardağı	-8235
▁Kurs	-8236
▁rengi	-8237
▁gidip	-8238
▁denir	-8239
▁Galeri	-8240
▁yazılar	-8241
▁haric	-8242
BA	-8243
▁Mail	-8244
▁işletim	-8245
mon	-8246
▁kitl	-8247
lenerek	-8248
▁yaşadığ	-8249
▁Mahkemesi	-8250
▁alması	-8251
▁dini	-8252
▁ekle	-8253
▁kaps	-8254
zi	-8255
▁sa	-8256
▁koca	-8257
▁almayı	-8258
▁işlemlerini	-8259
▁ÜR	-8260
priz	-8261
▁Merhabalar	-8262
▁..	-8263
▁far	-8264
otosiklet	-8265
▁niteliğ	-8266
▁etmiştir	-8267
epenk	-8268
▁makyaj	-8269
▁sizlerin	-8270
▁imalat	-8271
▁mens	-8272
Kon	-8273
Hay	-8274
▁Komp	-8275
▁Çevr	-8276
▁iyileş	-8277
▁yör	-8278
▁Asansör	-8279
▁Aut	-8280
▁Kızıl	-8281
▁Alternatif	-8282
larınızda	-8283
▁arasından	-8284
▁sıklıkla	-8285
▁vitamini	-8286
▁fırın	-8287
▁Yerli	-8288
▁isterim	-8289
▁olağan	-8290
▁iadesi	-8291
▁vermeden	-8292
▁kafa	-8293
▁danışmanlık	-8294
giliz	-8295
▁hesabınıza	-8296
TR	-8297
▁Emir	-8298
▁dekorasyon	-8299
▁Kodu	-8300
▁yaptığınız	-8301
▁Gibi	-8302
▁İstik	-8303
lamalar	-8304
parator	-8305
▁kıyas	-8306
▁sonsuz	-8307
▁yitir	-8308
yu	-8309
▁eklent	-8310
▁kendimi	-8311
iğine	-8312
lease	-8313
▁komisyon	-8314
▁br	-8315
urun	-8316
▁teknolojik	-8317
▁hitap	-8318
▁Enstitüsü	-8319
▁ayakkabı	-8320
▁Tıklayınız	-8321
▁lideri	-8322
▁sevdiğiniz	-8323
▁muhab	-8324
▁AV	-8325
avor	-8326
▁saniye	-8327
eysel	-8328
▁Bunların	-8329
▁tarihine	-8330
sever	-8331
▁kalmış	-8332
▁olamaz	-8333
elerimiz	-8334
örek	-8335
tics	-8336
▁fuar	-8337
▁Mağaza	-8338
onspor	-8339
▁det	-8340
▁itib	-8341
▁harc	-8342
▁istenen	-8343
▁başlayacak	-8344
▁Daire	-8345
sizin	-8346
▁Yeri	-8347
EP	-8348
erif	-8349
▁hayatın	-8350
...”	-8351
ilemez	-8352
▁Kısaca	-8353
▁Yor	-8354
imini	-8355
▁arız	-8356
▁Bilgil	-8357
▁direkt	-8358
▁anlayışı	-8359
▁hatırlat	-8360
▁Üstelik	-8361
.[	-8362
▁Kutu	-8363
▁yazan	-8364
▁farkında	-8365
ılmalıdır	-8366
▁İb	-8367
▁tamamla	-8368
afe	-8369
tral	-8370
▁işlenmesi	-8371
▁müşterilerimize	-8372
▁tey	-8373
▁Server	-8374
▁aşamasında	-8375
ât	-8376
▁listesine	-8377
koz	-8378
bas	-8379
banlı	-8380
▁pahalı	-8381
▁kimi	-8382
▁Tamam	-8383
▁Başbakan	-8384
▁Bank	-8385
▁Bilin	-8386
▁dizisi	-8387
▁karşımıza	-8388
danı	-8389
▁tanesi	-8390
emey	-8391
▁detayları	-8392
▁buluştu	-8393
▁İspanya	-8394
▁arkadaşı	-8395
▁kullanıcıya	-8396
▁stat	-8397
▁tanın	-8398
▁politikamızı	-8399
▁Kağıt	-8400
ledim	-8401
▁hediy	-8402
▁Öte	-8403
ektaş	-8404
▁şirketleri	-8405
ATO	-8406
▁uzay	-8407
▁sağlay	-8408
azarı	-8409
▁şirketin	-8410
▁hizmetlerini	-8411
’’	-8412
▁me	-8413
espor	-8414
▁sanırım	-8415
▁Ust	-8416
▁muhafaza	-8417
▁Alımı	-8418
▁satıcı	-8419
▁kahvaltı	-8420
▁Vali	-8421
▁ekstra	-8422
yken	-8423
▁dekor	-8424
▁Ekonomik	-8425
tası	-8426
▁başı	-8427
▁Tec	-8428
▁Fizik	-8429
IT	-8430
▁Hastalıkları	-8431
eğinin	-8432
▁Sezon	-8433
▁şimd	-8434
▁Sm	-8435
forma	-8436
icisi	-8437
▁uzan	-8438
▁anlattı	-8439
▁arasına	-8440
zle	-8441
▁reklamlar	-8442
ezil	-8443
lıkta	-8444
▁Puan	-8445
▁Bilimleri	-8446
OC	-8447
▁gerekse	-8448
▁yakalandı	-8449
ope	-8450
▁Kalite	-8451
▁gram	-8452
▁Şiddet	-8453
▁Alanlar	-8454
▁İma	-8455
▁Kans	-8456
▁Sert	-8457
hine	-8458
brek	-8459
▁gerekç	-8460
ial	-8461
▁dışındaki	-8462
▁yetişkin	-8463
▁yazısı	-8464
▁adeta	-8465
atlı	-8466
ETÖ	-8467
▁özgün	-8468
▁adresinden	-8469
▁tap	-8470
▁olmay	-8471
▁Eh	-8472
▁tavuk	-8473
emeyen	-8474
▁Malzemeleri	-8475
▁zorun	-8476
▁olmadı	-8477
▁müh	-8478
▁Örgüt	-8479
▁PDF	-8480
ys	-8481
yayı	-8482
▁miyim	-8483
get	-8484
▁Küresel	-8485
▁edilmesini	-8486
▁kriter	-8487
ebir	-8488
yolu	-8489
▁mor	-8490
▁ediniz	-8491
▁Uygulaması	-8492
▁sanki	-8493
▁vefat	-8494
▁Tanıtım	-8495
▁giriniz	-8496
müştür	-8497
▁dışına	-8498
▁yapması	-8499
▁ülkeler	-8500
▁Bakımı	-8501
▁yıla	-8502
▁Çevrimsiz	-8503
▁kaybol	-8504
İs	-8505
çileri	-8506
▁girerek	-8507
▁Garanti	-8508
▁wh	-8509
▁Çilingir	-8510
▁ödey	-8511
▁çocuğun	-8512
veni	-8513
▁Tedavi	-8514
Gen	-8515
▁Coin	-8516
▁AY	-8517
ouse	-8518
▁sürdürülebilir	-8519
last	-8520
çelik	-8521
▁sinyal	-8522
olama	-8523
▁tesisat	-8524
▁Fas	-8525
▁Takipçi	-8526
turk	-8527
▁Selçuk	-8528
▁kazanma	-8529
▁faaliyetleri	-8530
▁sön	-8531
▁gerçekleşti	-8532
Com	-8533
▁Sonrası	-8534
▁Bö	-8535
liyoruz	-8536
▁kullanıma	-8537
▁bağlam	-8538
▁işyer	-8539
▁borsa	-8540
▁kontrolü	-8541
▁data	-8542
akal	-8543
▁kılı	-8544
▁Kimlik	-8545
▁mıdır	-8546
▁HDP	-8547
▁Kong	-8548
▁göğüs	-8549
▁teklifi	-8550
▁odası	-8551
▁Sinema	-8552
▁izlemek	-8553
ysa	-8554
▁sabır	-8555
▁anlatan	-8556
▁devreye	-8557
▁arayüz	-8558
▁Bonuslar	-8559
▁seri	-8560
▁hizmete	-8561
mediği	-8562
▁bisiklet	-8563
▁Konak	-8564
▁dostu	-8565
▁bağımlı	-8566
▁Genellikle	-8567
▁yapay	-8568
▁Fuar	-8569
tığınız	-8570
maktır	-8571
▁Getir	-8572
▁Sevgil	-8573
lavuz	-8574
▁ut	-8575
raft	-8576
▁İYİ	-8577
▁önemi	-8578
▁politikası	-8579
Tİ	-8580
▁yalı	-8581
▁Anlam	-8582
yaya	-8583
lerdeki	-8584
▁yedi	-8585
▁rekor	-8586
▁bayanlar	-8587
▁şifre	-8588
▁adıyla	-8589
▁haftalık	-8590
▁çapında	-8591
over	-8592
SİTE	-8593
▁yöneticisi	-8594
uyucu	-8595
▁Netflix	-8596
▁gibidir	-8597
▁yolları	-8598
▁Ob	-8599
▁Whatsapp	-8600
▁İnan	-8601
▁sunum	-8602
▁Yukarıda	-8603
▁Sonuçları	-8604
▁Kel	-8605
▁fin	-8606
antası	-8607
▁sayfada	-8608
▁Federasyonu	-8609
tra	-8610
▁seviş	-8611
▁emekli	-8612
▁Des	-8613
amadı	-8614
▁Gelin	-8615
ike	-8616
latan	-8617
▁Birinci	-8618
▁Japonya	-8619
▁Steroid	-8620
▁Oyunu	-8621
▁Değişim	-8622
lî	-8623
▁özgürlük	-8624
▁Soylu	-8625
▁Etkinlik	-8626
erleri	-8627
▁olduklarını	-8628
▁Üs	-8629
▁Uygu	-8630
ilerle	-8631
▁Kaş	-8632
▁esnek	-8633
▁Putin	-8634
viç	-8635
▁Bazen	-8636
▁doku	-8637
promo	-8638
▁kalıyor	-8639
esun	-8640
▁evr	-8641
▁Çatı	-8642
izasyonu	-8643
▁yeten	-8644
▁Yapımı	-8645
▁uyuşturucu	-8646
▁kalıp	-8647
▁belediy	-8648
▁hükümleri	-8649
▁fak	-8650
▁krem	-8651
elerek	-8652
ME	-8653
dunuz	-8654
oogle	-8655
▁Belki	-8656
▁tac	-8657
ste	-8658
▁yanına	-8659
mece	-8660
▁bacak	-8661
▁Musa	-8662
▁olmasa	-8663
irdağ	-8664
amanın	-8665
▁partner	-8666
sü	-8667
count	-8668
lub	-8669
▁cüzdan	-8670
itler	-8671
▁mate	-8672
▁aydınlatma	-8673
▁Tespit	-8674
nav	-8675
raz	-8676
▁Alın	-8677
main	-8678
▁sevgili	-8679
▁kahraman	-8680
▁Antik	-8681
▁dilediğiniz	-8682
ibet	-8683
stri	-8684
▁donanım	-8685
▁kısaca	-8686
▁Seçim	-8687
rağı	-8688
▁gayret	-8689
ecilik	-8690
▁Endüstr	-8691
▁birine	-8692
▁Yüzük	-8693
▁Sevgili	-8694
▁sırt	-8695
uluğu	-8696
▁nüfus	-8697
▁raf	-8698
▁boğ	-8699
mates	-8700
▁yapılmamış	-8701
▁pop	-8702
▁açan	-8703
▁satılan	-8704
▁Show	-8705
▁hikayeleri	-8706
▁yaprak	-8707
▁Yarat	-8708
▁zararlı	-8709
▁büyüy	-8710
sion	-8711
ocuğu	-8712
▁sitelerinde	-8713
▁haklı	-8714
▁kemik	-8715
▁yılının	-8716
ürr	-8717
▁rej	-8718
▁Paris	-8719
▁şartlar	-8720
▁ondan	-8721
talyan	-8722
▁Sitede	-8723
▁özellikler	-8724
▁peyn	-8725
▁Mutlu	-8726
▁İster	-8727
ukur	-8728
▁Ülke	-8729
▁oranda	-8730
oo	-8731
▁aylarında	-8732
▁Ağrı	-8733
▁yazarı	-8734
▁Çat	-8735
▁sorgulama	-8736
eğinde	-8737
▁Değil	-8738
▁Dekor	-8739
▁ayet	-8740
▁istedim	-8741
ülasyon	-8742
kale	-8743
ongul	-8744
andarma	-8745
▁Gid	-8746
▁bakalım	-8747
▁vitamin	-8748
▁Emlak	-8749
▁Şube	-8750
▁Trafik	-8751
▁ifadelerini	-8752
ebze	-8753
▁aralarında	-8754
▁Digit	-8755
onguldak	-8756
▁Pamuk	-8757
▁sessiz	-8758
▁Usta	-8759
▁salg	-8760
▁Sınırsız	-8761
que	-8762
▁olmanın	-8763
onomi	-8764
ategory	-8765
▁Günün	-8766
▁Onlar	-8767
▁İçeriğ	-8768
▁Hizmetler	-8769
tam	-8770
ılgın	-8771
▁plana	-8772
▁psikolojik	-8773
▁yerleri	-8774
▁önlemek	-8775
▁akr	-8776
▁yönde	-8777
▁döndür	-8778
▁verilecek	-8779
çisi	-8780
▁konuyu	-8781
▁yetersiz	-8782
lamayı	-8783
▁slog	-8784
▁belgeler	-8785
▁oyuncak	-8786
▁Platformu	-8787
▁Tum	-8788
▁yolculuğ	-8789
sohbetci	-8790
▁İnsanlar	-8791
▁vadeli	-8792
▁günah	-8793
▁babası	-8794
▁dolandırıcı	-8795
▁stres	-8796
iliş	-8797
ındık	-8798
▁sahte	-8799
po	-8800
▁günleri	-8801
TS	-8802
▁İcra	-8803
lanmasını	-8804
▁İstatistik	-8805
▁falan	-8806
▁shop	-8807
ürken	-8808
GK	-8809
▁maddeleri	-8810
▁değişiklikler	-8811
▁Evlilik	-8812
▁şeye	-8813
▁Sekret	-8814
▁Avantaj	-8815
▁Trabzonspor	-8816
▁ye	-8817
▁bahar	-8818
▁KK	-8819
▁httpd	-8820
▁kurban	-8821
▁Beton	-8822
▁Ayakkabı	-8823
▁sahipliği	-8824
ahil	-8825
▁yapıştır	-8826
▁Ero	-8827
▁user	-8828
▁pasaport	-8829
PN	-8830
▁ba	-8831
irt	-8832
▁edilemez	-8833
▁memnuniyeti	-8834
çası	-8835
▁yükseliş	-8836
▁rica	-8837
▁Iş	-8838
ung	-8839
mali	-8840
▁gördük	-8841
▁bilgiyi	-8842
ayma	-8843
▁hakkına	-8844
dıran	-8845
▁lab	-8846
kınma	-8847
▁gerektiren	-8848
lý	-8849
▁sayfasında	-8850
▁ith	-8851
▁Kalı	-8852
▁len	-8853
▁gelişmeleri	-8854
▁küfür	-8855
▁ikamet	-8856
▁müşterilerine	-8857
ndeki	-8858
▁damar	-8859
▁maddeler	-8860
▁cihazı	-8861
▁İklim	-8862
▁evinde	-8863
▁nih	-8864
▁kişileri	-8865
▁rahatsızlık	-8866
▁Plastik	-8867
sage	-8868
▁sayısını	-8869
▁kapasit	-8870
▁Yıllık	-8871
▁MS	-8872
▁adresinize	-8873
imet	-8874
ucusu	-8875
▁dalg	-8876
▁Öyle	-8877
▁Marmara	-8878
▁sez	-8879
eleme	-8880
▁Ayak	-8881
lerimi	-8882
▁gelmiştir	-8883
afak	-8884
▁tespiti	-8885
▁yönel	-8886
▁elinde	-8887
gim	-8888
▁Yılı	-8889
▁prim	-8890
lüğüne	-8891
▁geçerek	-8892
▁Yazarlar	-8893
▁URL	-8894
küdar	-8895
▁görevl	-8896
▁We	-8897
Son	-8898
cim	-8899
eveyn	-8900
▁Hotel	-8901
melerini	-8902
▁mat	-8903
▁fabrik	-8904
▁gazete	-8905
▁Seksi	-8906
▁Kapat	-8907
▁Sayısı	-8908
▁mide	-8909
dıkça	-8910
▁şeyleri	-8911
ahya	-8912
▁dinamik	-8913
▁hurdası	-8914
▁başlamış	-8915
TA	-8916
▁filmleri	-8917
▁Satı	-8918
düğünü	-8919
▁gününde	-8920
▁arayın	-8921
▁lezzetli	-8922
▁Yavuz	-8923
▁fe	-8924
▁yapılmıştır	-8925
▁gelec	-8926
▁Power	-8927
▁Bulgar	-8928
▁sağlanan	-8929
▁Siyaset	-8930
▁‘’	-8931
▁kesintisiz	-8932
▁Firmaları	-8933
▁Basketbol	-8934
▁kısmını	-8935
▁Beslenme	-8936
▁Fon	-8937
▁kimsenin	-8938
▁Televizyon	-8939
▁Yönetmelik	-8940
▁büyüt	-8941
▁Sürekli	-8942
▁Elem	-8943
▁kararlı	-8944
vat	-8945
▁Ast	-8946
▁örneği	-8947
▁azından	-8948
▁By	-8949
▁ziy	-8950
▁Sir	-8951
▁karşılığında	-8952
▁başlığı	-8953
umuzda	-8954
▁Nakliye	-8955
▁özelliklerini	-8956
▁Buluş	-8957
▁Normal	-8958
yn	-8959
▁ört	-8960
▁toplantısı	-8961
Ne	-8962
▁bakır	-8963
▁Dairesi	-8964
▁sözü	-8965
unction	-8966
▁alanlarında	-8967
▁festiv	-8968
▁Super	-8969
▁Lid	-8970
▁ÖZ	-8971
▁piyasaya	-8972
▁Alım	-8973
▁sektörünün	-8974
▁İçişleri	-8975
▁lan	-8976
▁GÜ	-8977
▁anlık	-8978
▁mesleğ	-8979
▁çekmek	-8980
▁inanılmaz	-8981
▁World	-8982
▁kurulumu	-8983
ose	-8984
▁planı	-8985
▁Yerler	-8986
▁yazımızda	-8987
tikten	-8988
▁asansör	-8989
asebe	-8990
▁ücretleri	-8991
▁vah	-8992
rib	-8993
▁Hesab	-8994
▁horm	-8995
▁stan	-8996
▁İzmit	-8997
uel	-8998
▁Değerli	-8999
ıtır	-9000
Sınıf	-9001
▁Döv	-9002
epe	-9003
▁kırık	-9004
▁İlişk	-9005
▁yayımlanan	-9006
▁Pa	-9007
olan	-9008
▁My	-9009
berg	-9010
▁kalmak	-9011
▁Lez	-9012
▁TÜRK	-9013
▁Deney	-9014
ebilirsin	-9015
▁terc	-9016
dön	-9017
uvarlak	-9018
▁Çağrı	-9019
▁geçiyor	-9020
▁etken	-9021
▁İsveç	-9022
▁üyeliğ	-9023
▁bahigo	-9024
▁Kursu	-9025
ekom	-9026
▁Sait	-9027
▁maalesef	-9028
▁teor	-9029
▁meşru	-9030
▁Kurtul	-9031
▁Bunları	-9032
▁aklı	-9033
▁darbe	-9034
▁cumhur	-9035
▁İlişkin	-9036
steri	-9037
▁seçerek	-9038
▁kenar	-9039
▁lambası	-9040
umuzun	-9041
▁tarzı	-9042
▁meyv	-9043
▁EN	-9044
izli	-9045
lenmek	-9046
▁Poli	-9047
IY	-9048
ostancı	-9049
▁yazılan	-9050
▁taze	-9051
▁Toy	-9052
▁sep	-9053
▁Küfür	-9054
lerinizin	-9055
▁KAR	-9056
▁Sikiş	-9057
▁Kör	-9058
▁misin	-9059
▁içinden	-9060
okoloji	-9061
ila	-9062
▁müj	-9063
▁sahibinin	-9064
▁trav	-9065
▁Faaliyet	-9066
▁Yorumlar	-9067
▁Ahşap	-9068
▁Sez	-9069
▁yapacağınız	-9070
fir	-9071
losu	-9072
▁Dal	-9073
▁delik	-9074
▁yarışma	-9075
▁edilmelidir	-9076
▁seviyede	-9077
▁Dan	-9078
▁krizi	-9079
▁bileti	-9080
▁darb	-9081
▁cevab	-9082
▁kullanılab	-9083
▁tüy	-9084
▁Sport	-9085
▁meydan	-9086
▁sitemizden	-9087
▁Vad	-9088
▁kamyon	-9089
Sen	-9090
▁keyfini	-9091
imp	-9092
▁asit	-9093
▁Fatur	-9094
▁emniyet	-9095
▁bilmiyorum	-9096
▁doy	-9097
▁bulunduğunuz	-9098
▁Tas	-9099
ülüyor	-9100
▁Global	-9101
▁Havale	-9102
king	-9103
ikmet	-9104
▁cinsiyet	-9105
▁söylemek	-9106
▁Havuz	-9107
▁çamaşır	-9108
▁Vize	-9109
▁bulma	-9110
▁verin	-9111
▁SATICI	-9112
▁civarında	-9113
▁Lisesi	-9114
▁sistemini	-9115
▁Saray	-9116
▁Bakanlık	-9117
mik	-9118
▁projeler	-9119
▁topluluk	-9120
▁koleksiyon	-9121
avuş	-9122
gov	-9123
mayınız	-9124
elin	-9125
▁Sahibi	-9126
▁işlenmiş	-9127
ağına	-9128
▁olanı	-9129
▁İy	-9130
▁içecek	-9131
ildiğinde	-9132
▁eleman	-9133
▁merkezli	-9134
Bil	-9135
▁Kulak	-9136
kilat	-9137
▁Hast	-9138
▁önümüzdeki	-9139
▁tiyatro	-9140
▁giyim	-9141
▁araçlar	-9142
▁sağladığı	-9143
▁kullanılma	-9144
▁değişen	-9145
▁TS	-9146
amış	-9147
▁zamanlı	-9148
▁Had	-9149
iews	-9150
▁arayınız	-9151
▁War	-9152
▁sandal	-9153
▁kala	-9154
▁Talep	-9155
▁Teh	-9156
mad	-9157
▁Acı	-9158
cesi	-9159
▁severler	-9160
roup	-9161
▁programları	-9162
DS	-9163
unum	-9164
▁dakikada	-9165
▁Yem	-9166
▁NATO	-9167
bit	-9168
▁KPSS	-9169
▁Yanlış	-9170
▁lüks	-9171
▁sevilen	-9172
▁Başkanlığ	-9173
ras	-9174
▁talimat	-9175
▁geldiğinde	-9176
odu	-9177
At	-9178
▁tepk	-9179
▁hızı	-9180
resyon	-9181
▁sözler	-9182
▁Milliyet	-9183
▁]	-9184
▁zamandır	-9185
oks	-9186
▁nez	-9187
▁Ticari	-9188
▁hazırlanmış	-9189
leket	-9190
eydi	-9191
▁kapak	-9192
▁sitelerinin	-9193
Bur	-9194
▁Standart	-9195
▁Kızı	-9196
▁belirtt	-9197
▁olmaları	-9198
▁Bol	-9199
▁Kanada	-9200
▁nereden	-9201
▁cennet	-9202
içi	-9203
ınıyor	-9204
▁kısmen	-9205
Dün	-9206
ılab	-9207
▁ölçüm	-9208
▁anlamlı	-9209
▁sözleşmesi	-9210
▁anlatıyor	-9211
▁yapılacaktır	-9212
losuz	-9213
▁adamı	-9214
eğince	-9215
▁Kullanımı	-9216
▁Enf	-9217
omuz	-9218
▁malzemeler	-9219
▁Mük	-9220
abiliriz	-9221
▁Ziraat	-9222
▁çocukları	-9223
Eğ	-9224
▁evren	-9225
▁konuları	-9226
▁diplo	-9227
▁Vatandaş	-9228
▁Aday	-9229
▁Rep	-9230
▁sevg	-9231
▁İlg	-9232
ırlar	-9233
▁Emin	-9234
▁eşliğinde	-9235
türü	-9236
▁CEO	-9237
uçları	-9238
▁geçmek	-9239
▁gösterilmeden	-9240
ics	-9241
▁geril	-9242
▁gelince	-9243
▁Masaj	-9244
▁Klasik	-9245
▁tarafında	-9246
??	-9247
▁çevrim	-9248
cal	-9249
▁Çocuğ	-9250
▁olmaktan	-9251
▁eşlik	-9252
▁Tabii	-9253
akip	-9254
▁Ltd	-9255
▁yayınlandı	-9256
PS	-9257
blr	-9258
▁RSS	-9259
▁sir	-9260
yazılı	-9261
▁kadını	-9262
▁Konseyi	-9263
▁Durumu	-9264
▁Deri	-9265
▁biber	-9266
büs	-9267
▁Ail	-9268
▁işlemini	-9269
▁kör	-9270
▁bahisleri	-9271
▁soruşturma	-9272
▁uzaktan	-9273
▁çekiyor	-9274
▁dolarlık	-9275
▁sistemine	-9276
▁Nor	-9277
▁Ras	-9278
▁ederler	-9279
▁Mekan	-9280
▁Karaman	-9281
▁çıkmış	-9282
▁düzenlediği	-9283
▁Şikayet	-9284
ms	-9285
ustr	-9286
▁teknolojisi	-9287
yak	-9288
▁ER	-9289
▁dernek	-9290
▁koronavirüs	-9291
▁Aşı	-9292
▁Kahve	-9293
tıkları	-9294
▁boyutu	-9295
▁Fırsat	-9296
▁beton	-9297
▁güney	-9298
inda	-9299
▁Gezi	-9300
▁Sky	-9301
▁from	-9302
▁çıkarmak	-9303
▁Tatil	-9304
ASI	-9305
▁hijyen	-9306
▁Çankaya	-9307
esince	-9308
▁Cey	-9309
lup	-9310
▁Comments	-9311
stat	-9312
ağının	-9313
▁Kapsam	-9314
▁Eng	-9315
▁dosyası	-9316
▁Laz	-9317
▁Aylık	-9318
lerimizden	-9319
SA	-9320
▁Zam	-9321
▁boru	-9322
▁ışığ	-9323
istler	-9324
▁Zira	-9325
▁silmek	-9326
▁Jo	-9327
▁Adıyaman	-9328
▁ettiler	-9329
▁sitesinden	-9330
lüğünü	-9331
▁mutf	-9332
▁katılımcı	-9333
şek	-9334
mektir	-9335
▁görülür	-9336
ized	-9337
kılı	-9338
▁fen	-9339
▁Merak	-9340
▁olmakla	-9341
▁sitelerine	-9342
EX	-9343
▁söyley	-9344
▁tutmak	-9345
▁Abon	-9346
▁geçirmek	-9347
▁Resim	-9348
▁doğa	-9349
encere	-9350
▁Hiçbir	-9351
ura	-9352
▁tehlikeli	-9353
▁Ven	-9354
ney	-9355
▁belirtmek	-9356
▁taşıy	-9357
tikleri	-9358
▁Herkes	-9359
rit	-9360
▁Sigortası	-9361
▁yoktu	-9362
▁Gerçekten	-9363
▁kızlar	-9364
alandır	-9365
▁Büyüsü	-9366
▁Mari	-9367
▁bıçak	-9368
▁add	-9369
▁Sınavı	-9370
▁yakıt	-9371
▁Elbette	-9372
▁titiz	-9373
▁Öy	-9374
▁Elektrikli	-9375
PG	-9376
lip	-9377
▁Blu	-9378
▁my	-9379
▁som	-9380
memesi	-9381
▁’	-9382
denin	-9383
▁Mühendisliği	-9384
ype	-9385
▁akademik	-9386
▁şikay	-9387
▁ago	-9388
▁metrek	-9389
▁oluşum	-9390
▁di	-9391
▁birşey	-9392
▁ülkeye	-9393
▁eğlence	-9394
▁gereğince	-9395
ited	-9396
▁altını	-9397
▁Almak	-9398
▁banyo	-9399
▁Filmleri	-9400
▁HAB	-9401
lacağ	-9402
▁Satışı	-9403
▁FETÖ	-9404
▁uygula	-9405
alıyor	-9406
lamıyor	-9407
öylelikle	-9408
edat	-9409
▁edinmek	-9410
▁Gereken	-9411
▁firmaların	-9412
▁Orhan	-9413
duct	-9414
▁müst	-9415
▁sıralama	-9416
▁avantajlı	-9417
▁oluşturul	-9418
▁Öğretmenler	-9419
▁Lam	-9420
▁Çam	-9421
▁imzalan	-9422
▁sunulmaktadır	-9423
lec	-9424
şak	-9425
▁uğ	-9426
MAN	-9427
▁çizgi	-9428
▁verdim	-9429
oley	-9430
▁yazmak	-9431
▁haklarını	-9432
dolabı	-9433
▁Görmek	-9434
▁Sub	-9435
▁vol	-9436
▁Trump	-9437
▁birimi	-9438
▁kritik	-9439
ayas	-9440
▁tüzel	-9441
▁konaklama	-9442
▁Seçenekleri	-9443
menistan	-9444
▁Sorumluluk	-9445
amayan	-9446
▁kullanıcılarına	-9447
▁edeceğiz	-9448
▁Raporu	-9449
▁Premi	-9450
act	-9451
▁benzersiz	-9452
▁olurken	-9453
▁Eur	-9454
Bet	-9455
▁Kahramanmaraş	-9456
▁TEK	-9457
▁ürünlerini	-9458
▁oluşturulan	-9459
saydı	-9460
▁İf	-9461
▁midir	-9462
▁Usul	-9463
▁uzmanı	-9464
▁olunca	-9465
▁sürüc	-9466
▁düzenlendi	-9467
▁mol	-9468
abilirsin	-9469
▁Bizimle	-9470
▁Olmak	-9471
tas	-9472
▁Ölüm	-9473
tıktan	-9474
▁amaçlar	-9475
yağ	-9476
▁hizmetlerin	-9477
▁işletmeler	-9478
▁sisteme	-9479
▁İçi	-9480
▁Felse	-9481
▁puff	-9482
▁Full	-9483
▁Sizlere	-9484
OD	-9485
▁kurulmuş	-9486
otu	-9487
▁Şeker	-9488
▁küç	-9489
▁Ba	-9490
▁riski	-9491
▁BB	-9492
faat	-9493
öreni	-9494
▁çözümü	-9495
lerimizde	-9496
▁haftada	-9497
▁sistemler	-9498
▁Lat	-9499
▁filtr	-9500
▁matematik	-9501
▁Bus	-9502
▁İtalyan	-9503
▁başlayın	-9504
▁Bilgisi	-9505
▁belgeleri	-9506
▁Roma	-9507
▁zirv	-9508
ikip	-9509
▁HABER	-9510
▁isimleri	-9511
▁milyonlarca	-9512
▁fıkr	-9513
▁kaba	-9514
▁Numara	-9515
▁noktasında	-9516
uzzle	-9517
▁sağlanır	-9518
▁OS	-9519
▁yorgun	-9520
▁lit	-9521
▁hükm	-9522
▁Kerim	-9523
▁Çeşitleri	-9524
▁bozul	-9525
▁Geçtiğimiz	-9526
▁Akademi	-9527
UT	-9528
▁Başvurusu	-9529
▁Bilgilendirme	-9530
▁seviyorum	-9531
▁ortamında	-9532
olon	-9533
▁Acar	-9534
▁Feth	-9535
▁kendinize	-9536
sayılan	-9537
matör	-9538
▁Yaptır	-9539
▁getirir	-9540
▁kaydıyla	-9541
▁Promosyon	-9542
▁çağr	-9543
osting	-9544
▁yapılandırma	-9545
▁Çıkış	-9546
▁geldiğini	-9547
▁Casin	-9548
Fi	-9549
▁zehir	-9550
▁akla	-9551
ılmaya	-9552
▁döndü	-9553
▁kombin	-9554
vetleri	-9555
▁beyler	-9556
▁getiriyor	-9557
▁Erotik	-9558
▁İşe	-9559
ımdan	-9560
▁bekliyoruz	-9561
▁Kumaş	-9562
▁inançlara	-9563
▁GÜN	-9564
▁Efend	-9565
▁ettikleri	-9566
▁pu	-9567
▁Siteler	-9568
▁gelişen	-9569
▁Mahkem	-9570
▁Master	-9571
▁Matematik	-9572
diklerini	-9573
▁desen	-9574
icileri	-9575
▁Teslim	-9576
▁arayış	-9577
▁taşımacılık	-9578
▁zihin	-9579
▁aksine	-9580
rowser	-9581
".	-9582
▁Gönül	-9583
oratuvar	-9584
▁Dünyası	-9585
▁Yazılar	-9586
▁sesi	-9587
▁ağrısı	-9588
▁merkezinde	-9589
ranı	-9590
▁Turları	-9591
Tek	-9592
Kur	-9593
▁Montaj	-9594
▁Onur	-9595
▁kov	-9596
▁verdiğimiz	-9597
▁döş	-9598
▁kabil	-9599
ems	-9600
▁şük	-9601
▁alüminyum	-9602
lukları	-9603
antin	-9604
▁zamanla	-9605
ımlar	-9606
▁Çoğu	-9607
▁karmaşık	-9608
▁amaçlıdır	-9609
▁faydaları	-9610
esign	-9611
▁alama	-9612
▁yoruma	-9613
encide	-9614
▁DE	-9615
▁KDV	-9616
ule	-9617
▁Arşiv	-9618
dığınızda	-9619
▁tüketici	-9620
dy	-9621
▁Homeop	-9622
▁röportaj	-9623
▁Zeyn	-9624
▁Hiper	-9625
▁up	-9626
lidir	-9627
▁karanlık	-9628
▁etkinliği	-9629
âl	-9630
▁öğrencileri	-9631
▁rencide	-9632
▁Ref	-9633
▁alınmış	-9634
cüsü	-9635
▁edebileceğiniz	-9636
▁Seri	-9637
▁Yoksa	-9638
▁durumun	-9639
▁sınırları	-9640
liliğini	-9641
▁yönünde	-9642
▁gücünü	-9643
ünür	-9644
IC	-9645
üsünü	-9646
cuk	-9647
kay	-9648
▁okuyucu	-9649
St	-9650
ılışı	-9651
ning	-9652
ndaki	-9653
▁Hukuku	-9654
▁Satılık	-9655
▁sök	-9656
▁hukuka	-9657
price	-9658
▁Organizasyon	-9659
▁sayısının	-9660
▁baştan	-9661
luyor	-9662
ustur	-9663
▁sürpriz	-9664
▁tabanlı	-9665
▁şirketler	-9666
▁evi	-9667
▁koz	-9668
▁Amaz	-9669
▁Eğlen	-9670
▁Tama	-9671
▁kulüp	-9672
▁balkon	-9673
▁koku	-9674
▁Türkç	-9675
▁ahlak	-9676
▁Kaymakam	-9677
▁Nil	-9678
▁ilham	-9679
▁kaynakları	-9680
▁gümüş	-9681
▁May	-9682
▁Adak	-9683
▁dürüst	-9684
▁Edilen	-9685
▁TRT	-9686
▁Mevcut	-9687
▁girmek	-9688
▁Teknolojileri	-9689
▁zorundadır	-9690
▁Takv	-9691
▁Koc	-9692
▁imla	-9693
▁göçmen	-9694
▁tadını	-9695
▁başladım	-9696
cam	-9697
shop	-9698
▁gördüm	-9699
▁nesn	-9700
▁ilişkileri	-9701
UK	-9702
▁itibarıyla	-9703
atın	-9704
▁gelerek	-9705
luğa	-9706
▁new	-9707
▁Anlat	-9708
▁Tanı	-9709
▁çanta	-9710
artın	-9711
çık	-9712
▁enter	-9713
▁yelp	-9714
abileceğini	-9715
▁Kullanıcılar	-9716
▁obj	-9717
VİTRA	-9718
▁benimle	-9719
erkes	-9720
▁mesajları	-9721
▁dans	-9722
▁olmayacak	-9723
siyet	-9724
▁Sinan	-9725
▁tarihte	-9726
▁kurulmuştur	-9727
▁araz	-9728
▁DN	-9729
▁şok	-9730
▁Sizi	-9731
▁dolara	-9732
▁yılına	-9733
▁yararlı	-9734
▁fiyata	-9735
▁Yönelik	-9736
▁koordin	-9737
erved	-9738
▁imalar	-9739
▁şehrin	-9740
▁geride	-9741
mil	-9742
çilerin	-9743
▁Editör	-9744
▁kaybeden	-9745
Twitter	-9746
▁Veg	-9747
▁planda	-9748
▁Rize	-9749
▁hadis	-9750
▁Tumblr	-9751
▁bölgedeki	-9752
▁iht	-9753
▁Radyo	-9754
▁isteriz	-9755
▁Değerlendirme	-9756
▁Tuzla	-9757
▁butonuna	-9758
▁güncelleme	-9759
▁Zafer	-9760
bal	-9761
▁Toprak	-9762
mesinden	-9763
▁çalışmalarına	-9764
▁Bisiklet	-9765
▁Bırak	-9766
▁manevi	-9767
▁Fet	-9768
▁sıcaklık	-9769
üğe	-9770
▁görme	-9771
▁almıştır	-9772
Ek	-9773
amıza	-9774
▁Musk	-9775
▁halen	-9776
▁beklet	-9777
▁çıkması	-9778
▁Yukarıdaki	-9779
▁halkı	-9780
▁Salonu	-9781
▁gelişme	-9782
▁sertifika	-9783
ling	-9784
navut	-9785
▁Doğa	-9786
masi	-9787
▁garantisi	-9788
▁kalitesini	-9789
▁SMS	-9790
▁kurumlar	-9791
▁yükseldi	-9792
arda	-9793
Av	-9794
avüz	-9795
İB	-9796
▁Burç	-9797
▁taraftar	-9798
emiyorum	-9799
▁tecrübeli	-9800
▁Katar	-9801
raç	-9802
▁üs	-9803
▁yapmadan	-9804
▁yürütülmesi	-9805
▁cad	-9806
üpür	-9807
▁sof	-9808
TML	-9809
▁Yur	-9810
▁Kalem	-9811
▁Gem	-9812
▁çilingir	-9813
▁peygamber	-9814
Çocuk	-9815
▁bağlan	-9816
ülmüş	-9817
▁çabuk	-9818
▁hazırlan	-9819
▁bunlara	-9820
▁örn	-9821
▁işini	-9822
▁çorbası	-9823
▁halkın	-9824
▁Bolu	-9825
▁tatmin	-9826
▁Ülkemizde	-9827
cın	-9828
▁tarihten	-9829
▁Bulut	-9830
▁buyur	-9831
amızdan	-9832
▁AT	-9833
▁ihmal	-9834
ladım	-9835
▁Başakşehir	-9836
omen	-9837
▁şehri	-9838
▁gördüğü	-9839
▁tebrik	-9840
▁Sitemizi	-9841
▁tarihe	-9842
dil	-9843
odik	-9844
▁minimum	-9845
▁efsan	-9846
▁konuya	-9847
▁hâlinde	-9848
▁garantili	-9849
▁hesabınızı	-9850
▁yayı	-9851
▁yazılmamış	-9852
izin	-9853
tikçe	-9854
▁Esas	-9855
▁fikri	-9856
▁serisi	-9857
ilerinden	-9858
▁biliyoruz	-9859
ged	-9860
ekti	-9861
▁çocuğu	-9862
▁değilim	-9863
▁fı	-9864
▁yardımıyla	-9865
ürriyet	-9866
çılar	-9867
▁kalacak	-9868
▁maçında	-9869
▁Performans	-9870
▁aracın	-9871
yapı	-9872
▁kedi	-9873
▁belirlem	-9874
▁detaylar	-9875
ilikon	-9876
▁istenilen	-9877
▁temizleme	-9878
kâr	-9879
iyeler	-9880
pınar	-9881
▁alışkan	-9882
▁tamamlandı	-9883
mark	-9884
▁Afgan	-9885
▁öldü	-9886
▁dük	-9887
▁edenler	-9888
▁sürdürüyor	-9889
adın	-9890
▁naz	-9891
▁oyuncular	-9892
OP	-9893
▁Please	-9894
usundaki	-9895
▁ekleyin	-9896
▁iOS	-9897
▁keşfed	-9898
▁Çanta	-9899
zaman	-9900
▁Yarı	-9901
olojisi	-9902
▁bölgesi	-9903
▁uygundur	-9904
▁Ez	-9905
olos	-9906
▁ha	-9907
▁dönemlerde	-9908
▁Nih	-9909
çilik	-9910
▁Ste	-9911
▁Herkese	-9912
▁poli	-9913
abi	-9914
▁görünür	-9915
▁used	-9916
▁saatlerinde	-9917
sinin	-9918
▁saatte	-9919
▁gerekirse	-9920
▁boşal	-9921
▁Sunucu	-9922
ading	-9923
▁kendileri	-9924
▁bölümünden	-9925
Ak	-9926
▁Üsküdar	-9927
▁bağlantısı	-9928
▁Toplantısı	-9929
ath	-9930
icil	-9931
▁teker	-9932
▁Ediyor	-9933
▁kutusu	-9934
▁turnuv	-9935
▁Ted	-9936
▁Yarar	-9937
▁Vücut	-9938
▁yazdı	-9939
ırt	-9940
▁Rahat	-9941
▁ziyaretçi	-9942
▁sözleşmenin	-9943
▁YAZ	-9944
esiniz	-9945
▁işaretleyin	-9946
laf	-9947
kenti	-9948
▁sayfasına	-9949
OG	-9950
▁anlaşılır	-9951
▁sahne	-9952
▁twitter	-9953
▁kağı	-9954
▁hizmetini	-9955
▁gösterdiği	-9956
▁Ant	-9957
▁Seti	-9958
▁tamamını	-9959
▁Da	-9960
▁reklamsız	-9961
▁isteği	-9962
▁Şer	-9963
▁evvel	-9964
▁Çorum	-9965
▁belirtildi	-9966
▁kısmına	-9967
▁duygusal	-9968
▁getirdiği	-9969
eratör	-9970
lıktan	-9971
▁ekibimiz	-9972
▁çub	-9973
▁Free	-9974
▁Üçüncü	-9975
▁Kariyer	-9976
▁yükümlü	-9977
▁Analizi	-9978
▁tanımlama	-9979
asın	-9980
▁çeşidi	-9981
yağı	-9982
▁organik	-9983
▁İlişkiler	-9984
fte	-9985
▁Kahv	-9986
▁Keç	-9987
▁have	-9988
▁görmüş	-9989
LIK	-9990
▁Magaz	-9991
▁Soğuk	-9992
▁poker	-9993
▁İhal	-9994
ahisar	-9995
▁ücretli	-9996
▁çalışıyoruz	-9997
sis	-9998
feri	-9999
▁KKTC	-10000
STAN	-10001
▁yatırımcı	-10002
xbet	-10003
▁MP	-10004
▁bağlantılar	-10005
eyse	-10006
▁işareti	-10007
▁Halil	-10008
▁konse	-10009
▁yorumda	-10010
oul	-10011
▁nefret	-10012
▁Geliştirme	-10013
▁lin	-10014
▁belirtileri	-10015
▁Home	-10016
▁lastik	-10017
▁Ustası	-10018
jack	-10019
vense	-10020
▁Uzay	-10021
ove	-10022
▁girer	-10023
▁videoları	-10024
ayol	-10025
lacağını	-10026
duğunda	-10027
ayolu	-10028
▁Gelişim	-10029
▁Sos	-10030
yeler	-10031
▁Amazon	-10032
▁ailesi	-10033
▁Tarayı	-10034
▁içeriğin	-10035
▁yapmalı	-10036
▁Yardımcı	-10037
▁muhtemelen	-10038
▁bakan	-10039
mıyorum	-10040
▁Oğuz	-10041
▁verilmiştir	-10042
▁Papara	-10043
On	-10044
▁ayarları	-10045
▁Profil	-10046
▁insana	-10047
▁tasarlanmış	-10048
yim	-10049
▁kapısı	-10050
▁söyleyebilir	-10051
▁koyun	-10052
▁Yaklaşık	-10053
▁yelpaz	-10054
▁uc	-10055
▁vatandaşlar	-10056
ERİ	-10057
▁oluşturur	-10058
▁Bets	-10059
▁seyr	-10060
▁düzenlenecek	-10061
abilirim	-10062
▁Dünyada	-10063
operatif	-10064
▁kg	-10065
▁Ten	-10066
▁derg	-10067
▁yararlanmak	-10068
▁YÖ	-10069
▁gördü	-10070
▁tev	-10071
lenmesine	-10072
▁tansiyon	-10073
bı	-10074
▁Kuru	-10075
San	-10076
▁performansı	-10077
▁sayılan	-10078
▁caz	-10079
▁burun	-10080
▁dağıtım	-10081
▁uyuş	-10082
▁Leave	-10083
▁onunla	-10084
▁karşılıklı	-10085
▁neticesinde	-10086
ıcının	-10087
▁Fah	-10088
▁ET	-10089
▁sad	-10090
ağında	-10091
ason	-10092
▁opt	-10093
örd	-10094
▁OL	-10095
▁Reddit	-10096
▁Mahmut	-10097
▁bizzat	-10098
▁ikin	-10099
▁Birbir	-10100
▁Holding	-10101
üel	-10102
▁Share	-10103
▁Aslan	-10104
▁lev	-10105
▁hurdacı	-10106
▁müsab	-10107
▁takson	-10108
▁sporcu	-10109
oss	-10110
▁mahkeme	-10111
▁hastalıkları	-10112
▁içeriğini	-10113
▁Şampiyonası	-10114
▁bekleyen	-10115
▁yönetici	-10116
▁görüyoruz	-10117
tığım	-10118
▁Silah	-10119
▁onur	-10120
Ür	-10121
▁zul	-10122
▁Oysa	-10123
);	-10124
gilizce	-10125
▁okuyun	-10126
▁Kazak	-10127
▁ailen	-10128
amıyorum	-10129
▁menfaat	-10130
▁Kayn	-10131
oleybol	-10132
▁cevabı	-10133
NET	-10134
▁canım	-10135
▁mantar	-10136
▁gor	-10137
▁inter	-10138
▁Dernek	-10139
▁Ödem	-10140
▁Ödülü	-10141
▁hızlandır	-10142
wal	-10143
▁Lider	-10144
▁Ki	-10145
▁haricinde	-10146
▁Şişli	-10147
▁zeka	-10148
▁vermesi	-10149
▁gelmez	-10150
yasını	-10151
▁uygulanması	-10152
aryo	-10153
▁Eth	-10154
▁Tarafından	-10155
dirim	-10156
Tok	-10157
▁Gu	-10158
▁hızlıca	-10159
▁ayrıcalık	-10160
emiştir	-10161
▁verilmiş	-10162
▁Ta	-10163
hisar	-10164
▁içeri	-10165
▁göt	-10166
▁türkiye	-10167
▁ortasında	-10168
ülent	-10169
▁Biraz	-10170
▁sanay	-10171
▁yerleşim	-10172
▁SP	-10173
▁hid	-10174
ral	-10175
▁eks	-10176
gorit	-10177
▁adayı	-10178
▁Tesisat	-10179
▁degil	-10180
▁tutarı	-10181
▁üyelerine	-10182
▁Kapalı	-10183
▁artırmak	-10184
arn	-10185
egen	-10186
iğit	-10187
▁Yazdır	-10188
▁oynanan	-10189
▁dalga	-10190
▁Japon	-10191
▁pilav	-10192
▁inç	-10193
▁bölgeye	-10194
▁yapmalısınız	-10195
▁Olgun	-10196
▁Anlaş	-10197
▁maddesinde	-10198
anılan	-10199
▁maliyeti	-10200
▁PR	-10201
▁NFT	-10202
▁Sec	-10203
▁Yedek	-10204
▁Sıralama	-10205
▁hayatında	-10206
▁salgın	-10207
▁bası	-10208
▁Teşekkürler	-10209
▁antren	-10210
▁tecrübe	-10211
▁To	-10212
▁edersiniz	-10213
edeniyet	-10214
saray	-10215
▁Memur	-10216
ebileceğini	-10217
▁Eskort	-10218
▁olmaksızın	-10219
▁oluşmaktadır	-10220
▁futbolcu	-10221
▁Yarışması	-10222
▁haksız	-10223
▁getirilmesi	-10224
▁İsk	-10225
▁Kaynakları	-10226
▁tef	-10227
▁Olun	-10228
▁kıyafet	-10229
▁organize	-10230
▁kusursuz	-10231
▁olayı	-10232
liğinden	-10233
▁Numarası	-10234
zir	-10235
▁Gelecek	-10236
▁Göç	-10237
lağ	-10238
▁yürürlük	-10239
tiçi	-10240
▁öğrencilere	-10241
▁Temizliği	-10242
▁reklamları	-10243
▁villa	-10244
▁üstteki	-10245
ware	-10246
umuza	-10247
ode	-10248
▁konulu	-10249
▁protein	-10250
▁dünyasında	-10251
▁gerçekleştirmek	-10252
ozgat	-10253
▁değildi	-10254
▁iğ	-10255
▁artıyor	-10256
▁Yetiş	-10257
▁Çetin	-10258
imari	-10259
▁onlarca	-10260
▁duyarlı	-10261
▁bildirdi	-10262
▁Yöntemleri	-10263
▁devir	-10264
▁yürütülen	-10265
ternational	-10266
▁çevresinde	-10267
duy	-10268
▁edilecektir	-10269
▁gerçekleştirdi	-10270
▁Dönüşüm	-10271
▁Okulu	-10272
▁olacaksınız	-10273
▁limon	-10274
▁bağlıdır	-10275
lerinizde	-10276
▁Tekirdağ	-10277
atlar	-10278
▁Dizi	-10279
▁dudak	-10280
▁Görsel	-10281
▁protesto	-10282
▁iştir	-10283
YE	-10284
▁sö	-10285
▁göv	-10286
LA	-10287
▁bulan	-10288
▁oluştu	-10289
▁arkadaşım	-10290
lerimizle	-10291
▁Filistin	-10292
▁aldık	-10293
▁devletin	-10294
suzluk	-10295
▁Giresun	-10296
▁kilometre	-10297
▁fotoğraflar	-10298
akar	-10299
▁Sıfır	-10300
▁Giy	-10301
▁ikisi	-10302
▁Poz	-10303
▁Malt	-10304
▁görüle	-10305
▁süz	-10306
▁Terc	-10307
lasman	-10308
▁hangisi	-10309
▁sitemize	-10310
▁Nik	-10311
▁soya	-10312
▁İllegal	-10313
▁değiştirmek	-10314
lerdi	-10315
▁Kapak	-10316
▁durumunu	-10317
ıtma	-10318
▁mesleki	-10319
▁yapılarak	-10320
▁yeterlidir	-10321
▁çalıştığı	-10322
gon	-10323
▁Plus	-10324
▁hisse	-10325
▁numaran	-10326
Ticaret	-10327
Özel	-10328
▁Evren	-10329
▁bilinir	-10330
▁Yazıcı	-10331
▁Belç	-10332
▁benden	-10333
▁etkileşim	-10334
▁he	-10335
▁İN	-10336
imer	-10337
▁mezar	-10338
▁Aşağıda	-10339
▁muayene	-10340
▁Arası	-10341
üyü	-10342
ement	-10343
▁tohum	-10344
ettür	-10345
▁direnç	-10346
▁örneğin	-10347
▁siparişi	-10348
endiği	-10349
reen	-10350
▁edecektir	-10351
▁ret	-10352
▁işit	-10353
▁Erkekler	-10354
▁yaralandı	-10355
▁inf	-10356
▁mensup	-10357
▁tutuklandı	-10358
▁sevinirim	-10359
BUL	-10360
▁gun	-10361
▁Koordin	-10362
▁biliyorum	-10363
oin	-10364
▁Danış	-10365
▁sizde	-10366
▁gebelik	-10367
▁söyl	-10368
▁şair	-10369
load	-10370
▁payı	-10371
▁antalya	-10372
ğday	-10373
▁akım	-10374
▁Tıbbi	-10375
▁bulaş	-10376
cell	-10377
leşen	-10378
▁ötürü	-10379
▁aktarıldığı	-10380
▁Kiralık	-10381
▁tay	-10382
formation	-10383
▁atın	-10384
▁bizden	-10385
▁gönderen	-10386
lüğünde	-10387
▁Hazırlık	-10388
▁uygulamaya	-10389
unç	-10390
▁personeli	-10391
alel	-10392
liniğ	-10393
▁İşçi	-10394
▁açıklanan	-10395
▁Fit	-10396
ness	-10397
▁Xia	-10398
▁kürtaj	-10399
düstri	-10400
burg	-10401
▁yetki	-10402
▁muhalef	-10403
▁başarıyla	-10404
▁sermaye	-10405
▁sitelerin	-10406
▁kesint	-10407
▁şüpheli	-10408
▁will	-10409
▁Serisi	-10410
ezenf	-10411
▁Ayşe	-10412
▁Çıkar	-10413
▁öncü	-10414
▁LED	-10415
▁Hazret	-10416
parta	-10417
▁Makine	-10418
iller	-10419
▁kurtulun	-10420
▁çoğunlukla	-10421
▁Je	-10422
ölüm	-10423
sw	-10424
▁erotik	-10425
▁ortamı	-10426
▁açığ	-10427
▁PS	-10428
▁ilçesi	-10429
▁sitemizin	-10430
▁öneri	-10431
▁Rulet	-10432
▁nazar	-10433
▁Avcılar	-10434
▁Marmar	-10435
ARA	-10436
▁doğur	-10437
çekmece	-10438
nü	-10439
▁Store	-10440
▁maddesinin	-10441
▁Endüstriyel	-10442
aracak	-10443
▁verebilirsiniz	-10444
▁dünyasının	-10445
osunu	-10446
▁Tom	-10447
▁Avustr	-10448
Ad	-10449
mec	-10450
▁mekaniz	-10451
▁faturası	-10452
▁görevlendir	-10453
▁Os	-10454
▁yaşa	-10455
▁yolunu	-10456
▁reç	-10457
▁Risk	-10458
▁kuruluşu	-10459
▁seçenekler	-10460
▁neg	-10461
ytics	-10462
▁Benzer	-10463
▁ihtiyaçları	-10464
UB	-10465
▁istifa	-10466
▁Vivense	-10467
▁yenilikçi	-10468
▁merkezine	-10469
▁Beyin	-10470
▁sesli	-10471
▁Batman	-10472
▁almanız	-10473
▁Bitk	-10474
▁oluşturma	-10475
way	-10476
▁hek	-10477
▁Burak	-10478
▁yıldan	-10479
▁olama	-10480
▁satan	-10481
▁ateşli	-10482
eten	-10483
▁Tekrar	-10484
▁Çekmek	-10485
LARI	-10486
▁nik	-10487
▁derken	-10488
teb	-10489
▁şeyden	-10490
▁Zonguldak	-10491
▁bilinmektedir	-10492
▁Oyn	-10493
As	-10494
▁Bakış	-10495
▁salat	-10496
ördüncü	-10497
▁üreten	-10498
▁varlığı	-10499
▁Tasarımı	-10500
▁elit	-10501
rene	-10502
luğunu	-10503
▁antik	-10504
▁hesabına	-10505
asus	-10506
▁kuy	-10507
emaat	-10508
▁mit	-10509
▁yıkan	-10510
▁Başladı	-10511
▁üyelerinin	-10512
▁hemş	-10513
▁forma	-10514
▁silahlı	-10515
lamaktadır	-10516
!..	-10517
lawin	-10518
▁sevdik	-10519
▁cihazlar	-10520
▁şunlardır	-10521
▁Taban	-10522
ediyesi	-10523
içeği	-10524
lawinfo	-10525
▁öngörülen	-10526
▁Bahar	-10527
▁Salon	-10528
▁açıklamalarda	-10529
▁cookielawinfo	-10530
▁fit	-10531
▁Klinik	-10532
▁bütçe	-10533
antolon	-10534
▁geldiğ	-10535
▁gelebilir	-10536
ium	-10537
esk	-10538
▁bilmek	-10539
▁motoru	-10540
▁Tablo	-10541
▁şeffaf	-10542
▁alınmıştır	-10543
cedes	-10544
▁işley	-10545
dızı	-10546
▁ayrım	-10547
▁pasta	-10548
▁Sarıyer	-10549
▁yönetmen	-10550
▁olmazsa	-10551
▁kaldığı	-10552
▁talebinde	-10553
ilirken	-10554
▁büyüsü	-10555
▁örgütü	-10556
▁başlamıştır	-10557
oga	-10558
▁toplamda	-10559
▁semt	-10560
▁hesabından	-10561
▁muc	-10562
▁ahlaka	-10563
▁Diyanet	-10564
▁listelen	-10565
▁duruyor	-10566
▁etmem	-10567
olasyon	-10568
▁Raf	-10569
▁ispat	-10570
▁City	-10571
▁yeterince	-10572
▁Mesaf	-10573
▁analizi	-10574
▁Hamilelik	-10575
▁Terör	-10576
▁defter	-10577
▁şehirler	-10578
şun	-10579
▁ertel	-10580
▁Biden	-10581
▁Makal	-10582
▁Send	-10583
▁şansı	-10584
leşi	-10585
▁nin	-10586
▁başladığı	-10587
▁etkileyen	-10588
ıplak	-10589
▁kül	-10590
▁varsay	-10591
▁yönergesi	-10592
▁Ha	-10593
▁Hayal	-10594
▁Kırım	-10595
▁bulacak	-10596
▁değerleri	-10597
▁almadan	-10598
▁Kilit	-10599
oterapi	-10600
▁bekliyorum	-10601
▁istemez	-10602
▁annesi	-10603
▁firmanın	-10604
▁Ren	-10605
▁Şiir	-10606
iğinin	-10607
▁istasyon	-10608
▁dediler	-10609
▁toplumun	-10610
unuzdan	-10611
▁Erişim	-10612
▁isimler	-10613
▁çalışanları	-10614
▁gib	-10615
kesi	-10616
▁Röportaj	-10617
ths	-10618
▁yahut	-10619
▁yemeği	-10620
▁ülkelerin	-10621
▁şimdiden	-10622
▁yasadışı	-10623
ideki	-10624
▁komb	-10625
▁Ge	-10626
ida	-10627
▁başlamak	-10628
▁durumuna	-10629
▁dünyayı	-10630
▁ilerlem	-10631
▁Mardin	-10632
▁çocuklara	-10633
▁taşıyor	-10634
▁ihtiyaçlarını	-10635
FF	-10636
chain	-10637
itle	-10638
▁yüzük	-10639
eşme	-10640
▁Büt	-10641
▁tarafı	-10642
▁özelliğini	-10643
▁Telekom	-10644
hay	-10645
▁vel	-10646
▁köken	-10647
anların	-10648
▁erişimi	-10649
▁yönlü	-10650
▁negatif	-10651
▁ülkelerde	-10652
▁Sc	-10653
▁Teslimat	-10654
hak	-10655
yacağız	-10656
▁gönüllü	-10657
▁müc	-10658
▁suya	-10659
▁semin	-10660
▁olmasının	-10661
▁tutun	-10662
▁olduğunun	-10663
▁ÜREK	-10664
▁More	-10665
▁gerekenler	-10666
▁nadir	-10667
▁politikasındaki	-10668
sitesi	-10669
▁Güçlü	-10670
▁deneyin	-10671
▁hassasiyet	-10672
▁ayrıl	-10673
▁bulur	-10674
şetleri	-10675
▁evine	-10676
="	-10677
▁yurtdış	-10678
▁içerisindeki	-10679
▁Tic	-10680
▁adamın	-10681
▁üyelerin	-10682
▁işbir	-10683
▁ziyareti	-10684
▁oynamaya	-10685
▁çel	-10686
▁sıkça	-10687
▁Pırlanta	-10688
▁hallerde	-10689
▁operasyonu	-10690
io	-10691
▁Anket	-10692
▁topr	-10693
▁Okuma	-10694
▁cesaret	-10695
▁güvenle	-10696
▁Alıcı	-10697
▁koyu	-10698
ânı	-10699
▁yaşamını	-10700
otokop	-10701
▁yapıyorum	-10702
▁teşhis	-10703
▁İşletme	-10704
▁doktora	-10705
▁öv	-10706
▁Kullanılır	-10707
tum	-10708
▁içerisine	-10709
▁hatun	-10710
▁özenle	-10711
▁İddi	-10712
▁Beykoz	-10713
▁Tarifleri	-10714
▁terörist	-10715
▁Brezil	-10716
lanmasına	-10717
▁Şirketimiz	-10718
▁van	-10719
▁zorunludur	-10720
ubu	-10721
▁İmamoğlu	-10722
▁uygulamasını	-10723
▁mesajlar	-10724
▁kitapları	-10725
▁Amas	-10726
▁taraftan	-10727
▁Resimleri	-10728
şa	-10729
▁geriye	-10730
▁hepsini	-10731
▁Başarılı	-10732
seokoloji	-10733
layalım	-10734
▁karşılığı	-10735
elaket	-10736
▁Wh	-10737
▁mektup	-10738
onal	-10739
▁Transfer	-10740
▁geleceği	-10741
▁gönderelim	-10742
mod	-10743
tılar	-10744
▁Kaçak	-10745
STANBUL	-10746
▁Arnavut	-10747
▁devamlı	-10748
▁entegre	-10749
OVID	-10750
▁Bülent	-10751
▁Evi	-10752
İz	-10753
iti	-10754
▁gazetec	-10755
dukça	-10756
▁Namaz	-10757
▁keşif	-10758
▁teknolojileri	-10759
▁yal	-10760
▁hikayesi	-10761
tor	-10762
▁Senin	-10763
back	-10764
▁İndirim	-10765
▁Vakıf	-10766
▁robot	-10767
eleriyle	-10768
▁bölümüne	-10769
▁dünyası	-10770
EZ	-10771
▁tema	-10772
bilirsiniz	-10773
▁kullanmaktadır	-10774
mun	-10775
▁Tipi	-10776
▁Sertifik	-10777
▁dosyaları	-10778
DK	-10779
▁Cengiz	-10780
▁sözleşmeler	-10781
Dr	-10782
▁ded	-10783
▁fan	-10784
▁konferans	-10785
▁Sens	-10786
▁sent	-10787
▁düşünür	-10788
▁çekebilir	-10789
▁baktığ	-10790
▁prov	-10791
▁beceriler	-10792
▁müsa	-10793
▁zorlu	-10794
▁aldığımız	-10795
▁toplantısında	-10796
▁içindir	-10797
▁Dilek	-10798
▁Öztürk	-10799
▁yapılmalıdır	-10800
▁sorumludur	-10801
▁Birlik	-10802
bat	-10803
▁Erken	-10804
hid	-10805
▁Cur	-10806
▁News	-10807
▁Akr	-10808
▁emir	-10809
▁seviyesi	-10810
▁şiddetli	-10811
▁Gerekenler	-10812
▁alet	-10813
lenmesini	-10814
▁ilişkili	-10815
▁mülkiyet	-10816
▁Alanı	-10817
▁gev	-10818
▁Elif	-10819
▁onayı	-10820
▁ây	-10821
▁doğrulama	-10822
▁ulaşabilir	-10823
▁Denetim	-10824
▁direk	-10825
▁dert	-10826
▁Theme	-10827
▁ismini	-10828
▁Mit	-10829
▁Yaşlı	-10830
SY	-10831
▁Jet	-10832
▁fes	-10833
▁kartal	-10834
▁idrar	-10835
▁Sürdür	-10836
▁örgü	-10837
mamızı	-10838
ilmeli	-10839
▁tetik	-10840
▁davası	-10841
▁Yurtdışı	-10842
▁oluşturduğu	-10843
▁atama	-10844
▁Makina	-10845
▁Yönetmen	-10846
▁farkındalık	-10847
uda	-10848
▁Prens	-10849
▁İpek	-10850
poz	-10851
▁Sw	-10852
▁kurallar	-10853
▁how	-10854
▁kurt	-10855
▁abonelik	-10856
▁takibi	-10857
▁lise	-10858
▁kaybed	-10859
▁olmasıdır	-10860
taç	-10861
rome	-10862
▁Ekrem	-10863
▁sınıfı	-10864
play	-10865
ayn	-10866
oğa	-10867
▁Parkı	-10868
▁adresinde	-10869
▁ocak	-10870
▁bulunmayan	-10871
▁neş	-10872
wei	-10873
▁GÖ	-10874
▁kadros	-10875
▁Char	-10876
▁imzala	-10877
▁Dört	-10878
▁işten	-10879
▁sürük	-10880
▁Sigara	-10881
▁özür	-10882
▁yoksul	-10883
▁İŞ	-10884
▁meclis	-10885
▁bunlardan	-10886
▁konularında	-10887
▁araştırmalar	-10888
alata	-10889
▁Bileti	-10890
▁tırnak	-10891
gir	-10892
eğiniz	-10893
▁Mahal	-10894
▁fırsatları	-10895
▁cik	-10896
omb	-10897
▁tüp	-10898
▁Maliye	-10899
▁Sonrasında	-10900
▁kullanılacak	-10901
▁suyun	-10902
▁Duyuru	-10903
klar	-10904
▁taciz	-10905
ıştırma	-10906
LERİ	-10907
▁Devleti	-10908
▁festival	-10909
sev	-10910
▁Polonya	-10911
▁pap	-10912
▁nereye	-10913
▁birlikt	-10914
▁SA	-10915
abilme	-10916
▁time	-10917
▁Çavuş	-10918
▁Ahmed	-10919
▁Ekipman	-10920
graf	-10921
▁sıralan	-10922
▁Hil	-10923
▁patlama	-10924
▁kalabalık	-10925
fan	-10926
▁Kayıp	-10927
ake	-10928
hiş	-10929
amanız	-10930
▁sunmaya	-10931
▁dog	-10932
Ön	-10933
▁cerrahi	-10934
▁hizmetin	-10935
▁gündüz	-10936
▁yuv	-10937
▁Beb	-10938
▁Hayatı	-10939
▁cümle	-10940
▁gönderim	-10941
▁Balkan	-10942
▁yılları	-10943
check	-10944
▁dilerim	-10945
▁koşullar	-10946
▁fotoğrafları	-10947
▁kategorisinde	-10948
▁memnuniyetini	-10949
▁ibadet	-10950
▁cinayet	-10951
▁girildi	-10952
▁adresleri	-10953
göz	-10954
▁Öğ	-10955
▁Atak	-10956
gele	-10957
▁askı	-10958
▁denen	-10959
▁Şuan	-10960
▁Tavuk	-10961
▁Çekmeköy	-10962
▁problemi	-10963
▁sürecini	-10964
▁bulunduğunu	-10965
▁alerj	-10966
▁hd	-10967
▁Kitab	-10968
▁iyileştirmek	-10969
▁months	-10970
▁getirilen	-10971
▁Lok	-10972
▁Tuğ	-10973
ition	-10974
▁meşhur	-10975
▁yoluna	-10976
▁seçeneğini	-10977
CR	-10978
▁değilse	-10979
▁çıktığı	-10980
Ch	-10981
▁Ayı	-10982
▁disiplin	-10983
▁radyo	-10984
▁fiz	-10985
▁Süresi	-10986
▁etkinlikleri	-10987
mayacağ	-10988
▁çak	-10989
▁Kek	-10990
▁Tavsiye	-10991
▁erkeklerin	-10992
▁verip	-10993
▁Önerileri	-10994
▁kampanyası	-10995
unuzda	-10996
masıdır	-10997
▁Anonim	-10998
▁geliştirilen	-10999
EG	-11000
ikal	-11001
▁Kilis	-11002
▁peşin	-11003
▁bardak	-11004
▁zahmetinden	-11005
▁Gelenek	-11006
▁patates	-11007
tok	-11008
▁yakış	-11009
▁Camii	-11010
▁ilaçlar	-11011
▁Kötü	-11012
▁Alma	-11013
▁Borç	-11014
▁daim	-11015
▁yaşından	-11016
▁fiyatlarla	-11017
▁Diler	-11018
▁Çalışmaları	-11019
▁BUR	-11020
▁açar	-11021
▁Hurdacı	-11022
▁yöntemler	-11023
▁Hakkımızda	-11024
Fil	-11025
▁Tahmin	-11026
ebilirler	-11027
▁yapıyorsunuz	-11028
▁BİL	-11029
incan	-11030
▁Uydu	-11031
▁arkasında	-11032
işe	-11033
pert	-11034
▁Yazıları	-11035
▁Yunus	-11036
▁atöly	-11037
▁ettiğimiz	-11038
▁evin	-11039
▁düzel	-11040
averse	-11041
▁yapılma	-11042
▁basketbol	-11043
▁Harek	-11044
▁Engelli	-11045
▁Mali	-11046
▁katılmak	-11047
▁Davet	-11048
▁HTML	-11049
▁eyalet	-11050
▁kurucusu	-11051
▁Öğrenciler	-11052
▁sağlayacaktır	-11053
awei	-11054
▁Aktif	-11055
▁omuz	-11056
isteme	-11057
lağan	-11058
▁katıldığı	-11059
▁çözümleri	-11060
aktif	-11061
▁resimleri	-11062
▁Vek	-11063
▁Hekim	-11064
▁Türkler	-11065
▁Umut	-11066
▁Altı	-11067
▁artışı	-11068
▁etkisini	-11069
▁Avustralya	-11070
▁sitelerinden	-11071
igür	-11072
fk	-11073
▁Danışmanlığı	-11074
IŞ	-11075
efab	-11076
▁atıf	-11077
▁bant	-11078
▁bölün	-11079
▁ihale	-11080
Devlet	-11081
▁Esn	-11082
▁kesi	-11083
▁One	-11084
▁sakın	-11085
▁rüzgar	-11086
▁işlemin	-11087
▁karışık	-11088
ikler	-11089
▁Beden	-11090
▁Güzellik	-11091
▁İstiklal	-11092
▁etrafında	-11093
▁Akşam	-11094
▁düşünü	-11095
zet	-11096
▁sup	-11097
▁karşılamak	-11098
▁Arabistan	-11099
▁hissettir	-11100
▁we	-11101
masız	-11102
▁Melek	-11103
▁adrese	-11104
▁diliyorum	-11105
▁Etti	-11106
▁vazgeçilmez	-11107
▁PTT	-11108
▁turist	-11109
▁Belçika	-11110
▁Email	-11111
▁Meg	-11112
▁harcama	-11113
▁kazanır	-11114
izmi	-11115
föy	-11116
▁haş	-11117
▁Kars	-11118
▁görünen	-11119
ext	-11120
iver	-11121
rada	-11122
▁gelsin	-11123
ptom	-11124
▁adli	-11125
ımları	-11126
larınızla	-11127
mağ	-11128
▁boyunda	-11129
▁Kaplama	-11130
▁filmler	-11131
▁Krem	-11132
peryal	-11133
uluyor	-11134
▁düzeltip	-11135
▁kuvvetli	-11136
▁Satıcı	-11137
▁İnceleme	-11138
▁İsviç	-11139
▁kutuyu	-11140
▁oyunun	-11141
▁karşın	-11142
▁görüntüleme	-11143
▁Yoğun	-11144
▁Hacı	-11145
▁kanalı	-11146
▁köt	-11147
▁Salih	-11148
pen	-11149
▁inşallah	-11150
▁yanınızda	-11151
▁pür	-11152
ff	-11153
epyeni	-11154
▁taraflı	-11155
▁Kedi	-11156
▁nükleer	-11157
▁şunu	-11158
▁Mikro	-11159
▁Big	-11160
▁Etiket	-11161
▁yerinden	-11162
▁burç	-11163
▁köşe	-11164
▁Derin	-11165
▁Gizli	-11166
abiye	-11167
▁ilgilendir	-11168
Ürün	-11169
iyorsa	-11170
▁kanseri	-11171
▁yargılan	-11172
▁çıkmaktadır	-11173
memek	-11174
iğimiz	-11175
▁nam	-11176
▁katk	-11177
▁toplama	-11178
▁Bunlardan	-11179
▁metn	-11180
▁oyununu	-11181
▁görülmektedir	-11182
▁borc	-11183
yester	-11184
▁Örgütü	-11185
▁sınıflandır	-11186
▁magaz	-11187
uşu	-11188
▁başarısız	-11189
▁hatası	-11190
▁Amatör	-11191
cen	-11192
▁zamana	-11193
▁Magazin	-11194
message	-11195
▁Milletler	-11196
▁Real	-11197
▁kıyaf	-11198
▁Lap	-11199
▁Çeşitli	-11200
▁alıyoruz	-11201
▁bag	-11202
dığın	-11203
▁sine	-11204
▁Özdemir	-11205
ivri	-11206
▁Xiaomi	-11207
don	-11208
ozit	-11209
▁sayfaları	-11210
tiy	-11211
atörü	-11212
tihar	-11213
▁kred	-11214
▁düşünen	-11215
barek	-11216
▁uyarısı	-11217
▁dolduralım	-11218
▁Ret	-11219
▁Yolları	-11220
▁kendiniz	-11221
▁ustası	-11222
▁Olsun	-11223
▁olmasından	-11224
▁menü	-11225
▁Mars	-11226
opark	-11227
▁Yalçın	-11228
▁Akş	-11229
▁Komisyon	-11230
uzel	-11231
▁Sayfası	-11232
▁anladım	-11233
▁görevini	-11234
▁Koronavirüs	-11235
▁Suudi	-11236
▁Testi	-11237
▁mahalle	-11238
▁işlemlerin	-11239
▁store	-11240
▁Firması	-11241
zı	-11242
▁Şehirler	-11243
▁bulabilir	-11244
▁Bing	-11245
▁tabidir	-11246
▁Jandarma	-11247
▁Programları	-11248
▁(“	-11249
▁Ajans	-11250
▁Kütahya	-11251
tına	-11252
avv	-11253
eterin	-11254
▁Sizler	-11255
▁yılların	-11256
▁gösteri	-11257
▁aksi	-11258
▁Semih	-11259
▁Lojistik	-11260
▁vaj	-11261
yaş	-11262
iğde	-11263
▁Çap	-11264
▁fikr	-11265
▁sistemin	-11266
▁yayınlan	-11267
▁Oyuncular	-11268
▁illegal	-11269
▁olanların	-11270
▁üretici	-11271
▁miras	-11272
▁tavan	-11273
Detay	-11274
▁başa	-11275
▁tanık	-11276
leştirilmiş	-11277
▁Harika	-11278
▁müd	-11279
▁saatlik	-11280
▁terap	-11281
▁gösterilen	-11282
▁vatandaşların	-11283
▁ağı	-11284
▁yerlere	-11285
▁Yapım	-11286
▁Devletleri	-11287
▁kullanıldığı	-11288
▁çıkardı	-11289
▁Ecz	-11290
▁Tüp	-11291
ladık	-11292
▁başkenti	-11293
izler	-11294
▁But	-11295
▁Bulgaristan	-11296
▁işlemlerinde	-11297
▁Mükemmel	-11298
▁parçaları	-11299
amil	-11300
memiz	-11301
▁ehliyet	-11302
)’	-11303
dis	-11304
▁yağış	-11305
▁belirgin	-11306
▁Vir	-11307
▁esen	-11308
▁ayakta	-11309
ings	-11310
amızın	-11311
▁samimi	-11312
▁Mercedes	-11313
ilmeye	-11314
ockchain	-11315
enizde	-11316
▁Esenyurt	-11317
aciğer	-11318
▁domates	-11319
▁Mesafeli	-11320
▁İmparator	-11321
?"	-11322
▁komün	-11323
▁Şüph	-11324
udu	-11325
▁yüzü	-11326
▁Yargıtay	-11327
ound	-11328
▁Rah	-11329
▁açıl	-11330
yst	-11331
▁Grafik	-11332
,”	-11333
▁pik	-11334
Dir	-11335
▁karın	-11336
eceğine	-11337
▁unutma	-11338
malıyız	-11339
▁Lir	-11340
▁istikrar	-11341
▁yaptıktan	-11342
▁indirme	-11343
▁spam	-11344
▁süresince	-11345
▁Asgari	-11346
Sİ	-11347
▁hareketli	-11348
▁etmeyin	-11349
mî	-11350
che	-11351
Ankara	-11352
▁heyet	-11353
▁haftanın	-11354
▁ülkemizin	-11355
▁Sivil	-11356
▁Mesela	-11357
lop	-11358
▁Dışı	-11359
▁Rıza	-11360
▁Tart	-11361
▁İçinde	-11362
▁başından	-11363
oları	-11364
▁güvenliğini	-11365
▁FI	-11366
▁sayg	-11367
▁dilim	-11368
▁beraberinde	-11369
▁bilgileriniz	-11370
▁razı	-11371
▁çıkmak	-11372
▁deneyimini	-11373
âlâ	-11374
ereum	-11375
▁hesaplama	-11376
fon	-11377
▁Süs	-11378
▁USD	-11379
▁tarafınıza	-11380
▁girip	-11381
▁Alb	-11382
▁Ris	-11383
▁klinik	-11384
karahisar	-11385
▁kimin	-11386
▁olaylar	-11387
lenti	-11388
▁Arda	-11389
▁Lazer	-11390
▁gözet	-11391
baba	-11392
yorum	-11393
▁sekiz	-11394
▁Başlan	-11395
İH	-11396
▁UN	-11397
▁Tekstil	-11398
▁Makyaj	-11399
checkbox	-11400
cid	-11401
▁yanlı	-11402
▁Hesaplama	-11403
▁ölçek	-11404
▁yazıyor	-11405
▁Bilm	-11406
▁kolaydır	-11407
▁destekleyen	-11408
▁Rev	-11409
period	-11410
▁sağlayarak	-11411
▁takib	-11412
▁elbis	-11413
▁izlen	-11414
▁faaliyetlerini	-11415
▁ph	-11416
▁Özer	-11417
▁İnsanların	-11418
▁bakar	-11419
▁gönderildi	-11420
▁Semin	-11421
▁bizleri	-11422
▁dönemin	-11423
▁aşamada	-11424
ladığımız	-11425
▁sektörün	-11426
▁çikolata	-11427
▁Kalkınma	-11428
atay	-11429
Haber	-11430
▁Yapay	-11431
▁veriliyor	-11432
iyete	-11433
▁sünnet	-11434
▁kardeşim	-11435
▁Anti	-11436
▁etmeden	-11437
▁Kök	-11438
bih	-11439
▁disk	-11440
iva	-11441
sası	-11442
ştır	-11443
▁Bahçe	-11444
▁Selim	-11445
▁google	-11446
ds	-11447
▁çorba	-11448
▁mezunu	-11449
▁savaşı	-11450
▁Mesleki	-11451
▁ked	-11452
▁gidin	-11453
▁çöp	-11454
ağından	-11455
▁tuvalet	-11456
del	-11457
▁Mide	-11458
▁projeleri	-11459
ution	-11460
▁Bakırköy	-11461
▁bağlantılı	-11462
▁Kırık	-11463
▁çalışmaların	-11464
▁lay	-11465
▁Astr	-11466
▁Türbanlı	-11467
▁belirlenir	-11468
▁Yönetmeliği	-11469
▁denilen	-11470
▁consent	-11471
▁bölümünü	-11472
▁hastanın	-11473
▁Boyut	-11474
Net	-11475
ediğin	-11476
▁sorunların	-11477
▁arasındadır	-11478
eyt	-11479
▁Valisi	-11480
▁tabak	-11481
▁mahallesi	-11482
▁Bozuk	-11483
▁Rezerv	-11484
▁Ödülleri	-11485
▁yayınları	-11486
Ey	-11487
▁mısınız	-11488
▁Inc	-11489
▁sorumlusu	-11490
▁açıklamalar	-11491
▁toplanan	-11492
▁destekçiler	-11493
pir	-11494
oför	-11495
▁gemi	-11496
alp	-11497
▁resmen	-11498
▁duv	-11499
▁Tatar	-11500
▁paketleri	-11501
▁Kıy	-11502
▁Lav	-11503
ografik	-11504
itleri	-11505
▁İhracat	-11506
▁bran	-11507
▁budur	-11508
▁pdf	-11509
▁devamı	-11510
▁GB	-11511
▁tamamladı	-11512
▁kendisinin	-11513
Re	-11514
▁hazırlanıyor	-11515
▁app	-11516
İnsan	-11517
▁severlerin	-11518
mekle	-11519
▁Oyna	-11520
▁pres	-11521
▁yazmış	-11522
▁işlemlerinin	-11523
▁basınç	-11524
enizin	-11525
▁İlginizi	-11526
itab	-11527
tivasyon	-11528
▁Zirvesi	-11529
▁amaçları	-11530
▁irtibata	-11531
▁kullanılmış	-11532
▁şirketlerin	-11533
ski	-11534
▁Mağaz	-11535
edikleri	-11536
▁gerçeği	-11537
▁belirler	-11538
ganda	-11539
▁hayli	-11540
▁adımlar	-11541
▁vermez	-11542
▁yazıyı	-11543
▁değerini	-11544
önü	-11545
▁Bed	-11546
▁anlamında	-11547
▁rep	-11548
▁sus	-11549
▁SGK	-11550
▁oluşturun	-11551
▁uğra	-11552
▁Group	-11553
▁hazırlanmıştır	-11554
Ev	-11555
baz	-11556
▁USB	-11557
inciri	-11558
▁başkanlığ	-11559
▁kadına	-11560
▁Sitenin	-11561
▁Enerj	-11562
▁Günümüz	-11563
▁perakende	-11564
gue	-11565
rettin	-11566
▁Lib	-11567
▁pandemi	-11568
indedir	-11569
▁boşluk	-11570
▁yazdığı	-11571
▁karşısına	-11572
▁sensör	-11573
nel	-11574
cileri	-11575
iğeri	-11576
▁Urfa	-11577
▁Arslan	-11578
CE	-11579
▁SSL	-11580
▁Altay	-11581
▁seçilen	-11582
▁Mevzu	-11583
▁alınmadan	-11584
▁deneyimler	-11585
laşmış	-11586
▁keyfi	-11587
abahis	-11588
▁Huawei	-11589
arch	-11590
▁canlandır	-11591
▁Avustur	-11592
▁Cons	-11593
ix	-11594
▁izn	-11595
Dünya	-11596
▁Kesme	-11597
▁birebir	-11598
tac	-11599
categor	-11600
lanmamaktadır	-11601
▁dünyadaki	-11602
▁ceph	-11603
▁Müşter	-11604
CO	-11605
▁sag	-11606
▁Uyku	-11607
▁Zeynep	-11608
▁Tema	-11609
ekiz	-11610
▁yüze	-11611
▁Atlan	-11612
▁komşu	-11613
▁reddet	-11614
▁gidecek	-11615
▁sponsor	-11616
Tar	-11617
▁kıyı	-11618
▁hakem	-11619
▁ihtimali	-11620
▁listel	-11621
▁kuruluşları	-11622
▁istediğini	-11623
tv	-11624
ehenn	-11625
▁Deprem	-11626
▁yazıda	-11627
▁Koruyucu	-11628
mekteyiz	-11629
▁karn	-11630
▁COVID	-11631
ersen	-11632
▁Blok	-11633
▁MEB	-11634
lıklı	-11635
▁tıpkı	-11636
▁Ortalama	-11637
▁AM	-11638
▁global	-11639
▁kral	-11640
lığıyla	-11641
▁derhal	-11642
▁zarf	-11643
▁önemlisi	-11644
▁olağanüstü	-11645
▁göze	-11646
▁metr	-11647
▁Garant	-11648
▁Isparta	-11649
▁çeşitliliği	-11650
enleri	-11651
▁Marmaris	-11652
▁ikna	-11653
amaya	-11654
▁başlıca	-11655
▁olmasın	-11656
▁işlevsel	-11657
▁eserin	-11658
Con	-11659
▁markaları	-11660
▁sigortalı	-11661
▁istedikleri	-11662
luğun	-11663
▁Intel	-11664
▁Arçelik	-11665
▁Mekt	-11666
▁bizler	-11667
▁ithalat	-11668
▁kendime	-11669
ilerinde	-11670
ody	-11671
▁Mezar	-11672
▁verilerinizi	-11673
ým	-11674
▁ilişkisi	-11675
TX	-11676
▁ilanı	-11677
▁sermay	-11678
▁olmuştu	-11679
▁arkadaşları	-11680
▁arıyorsanız	-11681
▁facebook	-11682
▁siparişler	-11683
err	-11684
ersek	-11685
▁hissede	-11686
▁beylikdüzü	-11687
▁sürü	-11688
▁topar	-11689
▁Engin	-11690
▁öp	-11691
▁Belli	-11692
▁çeyrek	-11693
▁Şubesi	-11694
tiğim	-11695
▁yakında	-11696
▁mesafe	-11697
▁grupları	-11698
amda	-11699
▁aza	-11700
▁Aziz	-11701
iyeleri	-11702
▁yaratan	-11703
dex	-11704
▁cal	-11705
edikal	-11706
▁günümüze	-11707
limi	-11708
▁evli	-11709
▁pendik	-11710
▁bonusları	-11711
index	-11712
▁Hazine	-11713
rest	-11714
iyenin	-11715
▁azgın	-11716
▁üyenin	-11717
Ah	-11718
▁Kamera	-11719
▁takılan	-11720
▁Burun	-11721
▁Sözler	-11722
anak	-11723
ciğer	-11724
▁Kongresi	-11725
▁yaşamış	-11726
▁onar	-11727
▁türkçe	-11728
Facebook	-11729
emde	-11730
▁Sef	-11731
▁bülten	-11732
ico	-11733
▁güler	-11734
▁Hi	-11735
▁kurma	-11736
▁kullandığınız	-11737
▁deneyiminizi	-11738
AYIN	-11739
▁albüm	-11740
inizdeki	-11741
▁konforlu	-11742
▁ilerleyen	-11743
▁muy	-11744
▁sebze	-11745
▁Sincan	-11746
▁oturma	-11747
▁Sponsor	-11748
▁ürünlerde	-11749
emem	-11750
▁etmekte	-11751
▁egemen	-11752
▁Selçuklu	-11753
https	-11754
▁Aracı	-11755
▁tahr	-11756
▁zev	-11757
▁Parçaları	-11758
▁İnce	-11759
▁Pil	-11760
▁Efendi	-11761
▁verilerini	-11762
▁Akar	-11763
▁Akademik	-11764
▁manşetleri	-11765
▁Stan	-11766
▁başlattı	-11767
ely	-11768
▁EK	-11769
▁simg	-11770
renewal	-11771
▁Malzeme	-11772
▁ışığı	-11773
▁İsviçre	-11774
▁arayarak	-11775
▁Kül	-11776
▁ilginizi	-11777
▁browser	-11778
▁Yalova	-11779
▁sağlanmaktadır	-11780
ames	-11781
danın	-11782
▁chat	-11783
▁aralığ	-11784
▁Il	-11785
▁çağrısı	-11786
▁gereksiz	-11787
▁Çel	-11788
aydın	-11789
▁girmiş	-11790
▁yaptığını	-11791
▁Cas	-11792
▁batı	-11793
▁ortada	-11794
▁Çamaşır	-11795
▁geldik	-11796
▁Chat	-11797
▁konuyla	-11798
▁etkinlikler	-11799
▁kel	-11800
▁verilere	-11801
▁Artvin	-11802
lanıp	-11803
aci	-11804
▁tutum	-11805
▁mecbur	-11806
cast	-11807
▁TH	-11808
▁ibaret	-11809
osman	-11810
ument	-11811
▁fet	-11812
▁Saldır	-11813
yazı	-11814
▁isyan	-11815
book	-11816
▁sonlandır	-11817
ahtarı	-11818
▁olursanız	-11819
irse	-11820
▁Neb	-11821
▁Tech	-11822
▁İleri	-11823
▁ilgisi	-11824
▁Verileri	-11825
▁İslami	-11826
▁atak	-11827
▁Birimi	-11828
▁Tehlik	-11829
adiş	-11830
üğünü	-11831
▁çiğ	-11832
landığını	-11833
ellef	-11834
takım	-11835
▁içeriklerden	-11836
”)	-11837
▁memleket	-11838
▁hastalıklar	-11839
▁düşünüyorsanız	-11840
ANLI	-11841
▁tabir	-11842
ildiğince	-11843
aseb	-11844
eşim	-11845
▁gelişimi	-11846
ipp	-11847
▁plak	-11848
▁redded	-11849
▁BİR	-11850
▁maz	-11851
▁Most	-11852
▁kelimeler	-11853
luğunda	-11854
▁Akın	-11855
▁kredisi	-11856
▁olabiliyor	-11857
▁atmos	-11858
ýz	-11859
postayla	-11860
▁adımları	-11861
▁gidiş	-11862
▁visit	-11863
▁izleyen	-11864
▁mineral	-11865
kusuz	-11866
▁dediği	-11867
▁Dök	-11868
▁col	-11869
▁yemin	-11870
▁bonuslar	-11871
▁Toplu	-11872
▁bununla	-11873
▁Lastik	-11874
▁--	-11875
▁yapış	-11876
▁burcu	-11877
▁habere	-11878
▁bölümleri	-11879
irmi	-11880
▁Taksim	-11881
▁Altyapı	-11882
▁kurucu	-11883
▁eklemek	-11884
YK	-11885
yetik	-11886
▁geçiren	-11887
▁Depolama	-11888
▁yaptırmak	-11889
▁saatler	-11890
▁kurallara	-11891
▁çalışırken	-11892
▁Duası	-11893
üsünde	-11894
▁eserleri	-11895
▁getirerek	-11896
▁ebeveyn	-11897
▁noktaya	-11898
▁Cap	-11899
▁pirinç	-11900
▁tercihi	-11901
▁ülkemiz	-11902
▁kanı	-11903
ıyorlar	-11904
▁Olağan	-11905
▁Aksaray	-11906
eğinden	-11907
▁tıkanık	-11908
istal	-11909
tacağ	-11910
▁Çevir	-11911
▁müddet	-11912
▁indirimli	-11913
▁Beyoğlu	-11914
▁International	-11915
erkan	-11916
▁etmey	-11917
▁Çorbası	-11918
▁Avantajları	-11919
▁Onu	-11920
ÜR	-11921
▁restoran	-11922
▁Gerçekleştir	-11923
lahi	-11924
ocket	-11925
▁gösterebilir	-11926
sağ	-11927
▁havalim	-11928
▁Çerezleri	-11929
yalım	-11930
ank	-11931
▁Elon	-11932
▁kaldım	-11933
▁aldığını	-11934
▁açılması	-11935
▁çif	-11936
▁çatış	-11937
ecekler	-11938
▁paralel	-11939
▁stratejik	-11940
▁olurdu	-11941
▁Pe	-11942
▁Banyo	-11943
▁Tamamen	-11944
late	-11945
▁belirlemek	-11946
▁ikili	-11947
▁Makale	-11948
▁kiralık	-11949
Tr	-11950
▁veda	-11951
▁kişiden	-11952
categorized	-11953
une	-11954
▁tedavisinde	-11955
yaka	-11956
▁Yaşar	-11957
▁çalışmaktadır	-11958
▁CD	-11959
▁Milliyetçi	-11960
▁Çiğ	-11961
izmin	-11962
▁sarf	-11963
▁Bilgin	-11964
▁TikTok	-11965
melerine	-11966
▁düşürücü	-11967
▁getirildi	-11968
cül	-11969
▁address	-11970
essary	-11971
▁İşaret	-11972
▁sıradan	-11973
▁Ethereum	-11974
▁günlerinde	-11975
▁çür	-11976
▁Hediy	-11977
▁parayı	-11978
oksi	-11979
▁görülüyor	-11980
▁iseniz	-11981
▁cezaları	-11982
▁harflerle	-11983
füm	-11984
osistem	-11985
▁Afganistan	-11986
▁Asker	-11987
▁planlama	-11988
▁nöbet	-11989
İYE	-11990
.(	-11991
▁Sorumlusu	-11992
▁paylaşımı	-11993
ano	-11994
http	-11995
▁yang	-11996
▁yolla	-11997
▁Nevşehir	-11998
▁aldıktan	-11999
▁Eden	-12000
▁videolar	-12001
▁ameliyatı	-12002
▁değerinde	-12003
▁veriyorum	-12004
▁içeriklerin	-12005
▁Kilo	-12006
▁Turgut	-12007
▁Mün	-12008
▁çizg	-12009
▁kaygı	-12010
▁gözlük	-12011
▁felaket	-12012
▁perde	-12013
ragmanı	-12014
▁Tüketici	-12015
▁yaptığım	-12016
Blog	-12017
▁istediğim	-12018
▁merkezleri	-12019
GE	-12020
▁Yürüt	-12021
▁Tipobet	-12022
▁edilmez	-12023
▁Geleneksel	-12024
▁olduğunuzu	-12025
▁Afyonkarahisar	-12026
astr	-12027
▁dövme	-12028
lilerin	-12029
▁Ümit	-12030
gs	-12031
▁yapıya	-12032
▁Öncesi	-12033
▁daire	-12034
▁çılgın	-12035
▁Rek	-12036
▁rady	-12037
▁şahit	-12038
eya	-12039
ınızla	-12040
▁Planı	-12041
▁Taksi	-12042
etiği	-12043
▁Gebze	-12044
▁Yozgat	-12045
▁Otomotiv	-12046
▁kullanışlı	-12047
▁Nas	-12048
▁iyisi	-12049
▁but	-12050
▁Bilimsel	-12051
leks	-12052
artma	-12053
▁gönderilir	-12054
siy	-12055
▁dondur	-12056
▁kadınlara	-12057
▁Mr	-12058
▁dileriz	-12059
▁yükselen	-12060
▁Çevrimiçi	-12061
▁NAS	-12062
off	-12063
ikatür	-12064
▁kopyalanamaz	-12065
sün	-12066
▁rev	-12067
▁taktir	-12068
▁Kişilik	-12069
▁olduktan	-12070
bulan	-12071
TO	-12072
ydi	-12073
▁Ala	-12074
Deniz	-12075
▁bakmak	-12076
▁diyorum	-12077
▁Yetişkin	-12078
sub	-12079
▁AF	-12080
tain	-12081
▁Hukuki	-12082
▁uygulamayı	-12083
▁Filmi	-12084
▁şikây	-12085
irinevler	-12086
▁hareketi	-12087
ERS	-12088
lılar	-12089
▁Bina	-12090
▁kurtu	-12091
▁Mühendislik	-12092
▁ayrıntıları	-12093
▁Renkli	-12094
▁sağlayabilir	-12095
-)	-12096
▁elden	-12097
▁aldığım	-12098
▁Karşılaştırma	-12099
▁geldiniz	-12100
wn	-12101
incisi	-12102
▁Sözleri	-12103
▁TEKN	-12104
▁fas	-12105
▁kâr	-12106
▁kont	-12107
▁Geçir	-12108
▁örnekleri	-12109
php	-12110
▁veril	-12111
▁yazmaktan	-12112
fice	-12113
▁maçta	-12114
▁Cookie	-12115
▁söylemiş	-12116
rid	-12117
▁böbrek	-12118
▁Bartın	-12119
▁oyuncuların	-12120
▁Uygulamaları	-12121
aça	-12122
adok	-12123
amın	-12124
▁Böylelikle	-12125
▁hormon	-12126
▁semptom	-12127
doğu	-12128
▁bomba	-12129
▁elbise	-12130
arka	-12131
▁ihla	-12132
▁inci	-12133
▁İstek	-12134
▁Lik	-12135
▁Görüntül	-12136
▁Fethiye	-12137
▁bitkisel	-12138
▁Birleşmiş	-12139
âb	-12140
▁bayrak	-12141
▁Hikaye	-12142
▁anlaşmalı	-12143
ray	-12144
▁satım	-12145
urada	-12146
▁bugünkü	-12147
▁kılavuz	-12148
▁gençler	-12149
▁tedbirleri	-12150
▁Temizleme	-12151
için	-12152
▁Birlikte	-12153
UZ	-12154
ora	-12155
▁Mol	-12156
▁Meteor	-12157
▁hesapları	-12158
▁erdi	-12159
efabrik	-12160
▁açılmış	-12161
▁verilerine	-12162
▁Sap	-12163
▁Stu	-12164
▁Güler	-12165
▁amacına	-12166
▁Pınar	-12167
layı	-12168
▁fazlasıyla	-12169
▁Tev	-12170
eteriner	-12171
▁kıymetli	-12172
▁Mc	-12173
▁kaleme	-12174
▁Fol	-12175
▁vakti	-12176
aut	-12177
gara	-12178
▁rulet	-12179
▁Sof	-12180
▁Hatır	-12181
▁Kadir	-12182
▁dolaşımı	-12183
▁Brezilya	-12184
▁demokratik	-12185
▁göreceksiniz	-12186
üven	-12187
▁gezin	-12188
▁itiraf	-12189
▁Binance	-12190
▁tarihinin	-12191
▁düşünül	-12192
▁alev	-12193
işisel	-12194
lig	-12195
lash	-12196
▁okum	-12197
▁İzni	-12198
▁işveren	-12199
ünce	-12200
lavuzu	-12201
▁zorla	-12202
▁Arapça	-12203
▁sonuçlarını	-12204
▁kullanılıyor	-12205
adoğu	-12206
Çok	-12207
▁Reg	-12208
▁doğrul	-12209
▁Basit	-12210
▁Olacak	-12211
▁gerektirir	-12212
▁Taşın	-12213
els	-12214
▁Patent	-12215
emiyor	-12216
▁Sinop	-12217
▁öncül	-12218
▁sunuc	-12219
▁Pratik	-12220
▁hesaba	-12221
▁görevli	-12222
şan	-12223
▁kayıtları	-12224
▁programında	-12225
▁Ayrıntı	-12226
▁Bireysel	-12227
▁öncelikli	-12228
▁bireylerin	-12229
▁opsiyon	-12230
GI	-12231
▁oyuncuları	-12232
▁Um	-12233
▁Ağız	-12234
▁formunu	-12235
▁müşteriye	-12236
▁sade	-12237
▁hedefi	-12238
▁ayarlanır	-12239
kul	-12240
▁kalitede	-12241
oç	-12242
▁Dönemi	-12243
▁tarama	-12244
▁meme	-12245
▁atmak	-12246
pot	-12247
▁duyduğu	-12248
▁gezi	-12249
▁verdik	-12250
▁kullanılmayan	-12251
Pinterest	-12252
▁azaltmak	-12253
▁içerikli	-12254
▁endüstriyel	-12255
işimi	-12256
▁çeyr	-12257
yumu	-12258
▁çır	-12259
▁nakl	-12260
▁Uzaktan	-12261
aryak	-12262
▁here	-12263
ectory	-12264
lanmaya	-12265
▁Otobüs	-12266
▁Oyunlar	-12267
▁yaşındayım	-12268
▁Çerkes	-12269
ges	-12270
lığından	-12271
dığının	-12272
▁yoğurt	-12273
ragman	-12274
ılırken	-12275
▁Yılbaşı	-12276
▁Engelliler	-12277
ersp	-12278
▁Devrim	-12279
icinin	-12280
▁yüklü	-12281
▁merdiven	-12282
mede	-12283
▁Serbest	-12284
.'	-12285
▁bilgilerinin	-12286
roş	-12287
opar	-12288
yasının	-12289
▁Filmler	-12290
▁öncel	-12291
▁makinası	-12292
▁olabilmektedir	-12293
▁VPN	-12294
▁Girişi	-12295
▁bitti	-12296
▁Arkadaşlar	-12297
▁insanlarla	-12298
hasır	-12299
▁Tümü	-12300
acaksınız	-12301
▁bölgesel	-12302
▁Sürdürülebilir	-12303
▁Üvey	-12304
uyorlar	-12305
▁bakınız	-12306
▁aydınlat	-12307
▁IQ	-12308
▁kültürü	-12309
▁bot	-12310
▁ederseniz	-12311
▁Atık	-12312
adilat	-12313
▁aynen	-12314
▁olurlar	-12315
▁Belirtileri	-12316
▁Restor	-12317
▁Yalı	-12318
▁döner	-12319
▁Hesabı	-12320
▁söyler	-12321
▁BAŞ	-12322
▁Gold	-12323
▁ekim	-12324
▁Toptan	-12325
iliğinden	-12326
▁Macar	-12327
▁ziyade	-12328
vanı	-12329
▁Mümkün	-12330
▁bilinc	-12331
▁çıkarak	-12332
▁Gayrimenkul	-12333
▁sözlü	-12334
▁buradaki	-12335
▁galibiyet	-12336
adişah	-12337
▁Kullanılan	-12338
▁sayfasından	-12339
ilin	-12340
▁Çıktı	-12341
▁fiyatlı	-12342
▁Orijinal	-12343
▁engeller	-12344
▁qu	-12345
▁iltih	-12346
▁Listeme	-12347
▁sayfamızda	-12348
▁Piş	-12349
▁idare	-12350
▁siteden	-12351
▁Digiturk	-12352
▁İstanbulbahis	-12353
▁plaj	-12354
▁büyüyen	-12355
▁çözünür	-12356
ojen	-12357
ısız	-12358
▁hikây	-12359
▁sonradan	-12360
▁Lise	-12361
▁tren	-12362
▁ard	-12363
▁kazı	-12364
▁türüdür	-12365
▁atabilirsiniz	-12366
ürt	-12367
▁Eyüp	-12368
▁kararlar	-12369
▁programına	-12370
▁Nar	-12371
▁seviyesinde	-12372
▁Sana	-12373
▁sınırı	-12374
▁herkesi	-12375
▁sayfasını	-12376
▁desteklemek	-12377
▁hastane	-12378
▁özelliklere	-12379
▁hemde	-12380
▁Yağmur	-12381
▁benims	-12382
▁böyl	-12383
▁Etkili	-12384
ınızdaki	-12385
▁lazer	-12386
▁başlamadan	-12387
mıza	-12388
▁eksikliği	-12389
în	-12390
gusu	-12391
▁eklenen	-12392
▁tahliye	-12393
▁makineleri	-12394
how	-12395
oza	-12396
madım	-12397
▁ulaşın	-12398
▁kurulması	-12399
▁oyunlarını	-12400
ute	-12401
▁Kastam	-12402
icdan	-12403
laşım	-12404
▁titr	-12405
▁görünce	-12406
▁Danışmanı	-12407
▁gözler	-12408
▁Oluştur	-12409
▁güvence	-12410
EF	-12411
▁kesme	-12412
▁bankan	-12413
▁dr	-12414
loud	-12415
likten	-12416
▁teminat	-12417
▁talepleri	-12418
tify	-12419
IA	-12420
▁ag	-12421
▁atılan	-12422
ablon	-12423
▁eline	-12424
▁kodları	-12425
▁sunabilmek	-12426
▁Kud	-12427
▁lez	-12428
endiğiniz	-12429
▁Pot	-12430
lunun	-12431
▁coşk	-12432
▁edebilecek	-12433
▁Pin	-12434
▁Tablet	-12435
▁Şti	-12436
▁Umar	-12437
▁tahrik	-12438
acaat	-12439
vekil	-12440
▁Bilimler	-12441
▁motosiklet	-12442
laşan	-12443
▁senaryo	-12444
▁temsilcisi	-12445
▁gerektiğinde	-12446
▁ikiye	-12447
lediğimiz	-12448
sy	-12449
▁çalışanların	-12450
rekans	-12451
▁Sov	-12452
▁Heets	-12453
▁yükleme	-12454
▁İzinsiz	-12455
▁Değişimi	-12456
istir	-12457
▁Çukur	-12458
”.	-12459
▁Turan	-12460
▁EYT	-12461
acağına	-12462
▁gündür	-12463
▁yeryüz	-12464
▁Yüce	-12465
▁paylaşılan	-12466
▁Sad	-12467
▁uydur	-12468
▁zafer	-12469
▁felsef	-12470
cilerin	-12471
▁DA	-12472
▁Yetkili	-12473
▁duyulan	-12474
▁makaleler	-12475
▁Sevgi	-12476
▁doğrusu	-12477
▁tasarlanmıştır	-12478
▁kadınları	-12479
mo	-12480
ifi	-12481
▁Eylem	-12482
eksiyonu	-12483
▁indirmek	-12484
▁olmayacaktır	-12485
▁balon	-12486
▁Kongre	-12487
ward	-12488
▁Fed	-12489
▁seviyesine	-12490
eksi	-12491
▁Paslanmaz	-12492
▁Erol	-12493
▁aşık	-12494
▁yanıl	-12495
▁artması	-12496
▁gaziantep	-12497
▁görevleri	-12498
▁İBB	-12499
▁tarifleri	-12500
romu	-12501
▁full	-12502
aksiyon	-12503
▁Dua	-12504
▁ediyorlar	-12505
Top	-12506
▁montajı	-12507
▁Your	-12508
▁köprü	-12509
▁liste	-12510
▁kalmaz	-12511
▁tecavüz	-12512
▁hükümlerine	-12513
emeyecek	-12514
aden	-12515
▁best	-12516
▁name	-12517
▁inceleyin	-12518
uki	-12519
▁liraya	-12520
▁ruhsat	-12521
ekteki	-12522
▁aya	-12523
burnu	-12524
▁Büyü	-12525
▁tıklama	-12526
▁Kuvvetleri	-12527
uştuk	-12528
▁Sandal	-12529
eceğimiz	-12530
▁açıp	-12531
▁söndür	-12532
oint	-12533
▁Hel	-12534
▁Haritası	-12535
▁takı	-12536
▁Turkey	-12537
▁imalatı	-12538
▁Internet	-12539
▁gördüğünüz	-12540
sib	-12541
▁yöntemlerle	-12542
▁Yeter	-12543
▁ısrar	-12544
▁muayen	-12545
▁nedenleri	-12546
▁Yoruma	-12547
▁numaraları	-12548
▁girdiği	-12549
▁imkansız	-12550
▁tarihlerinde	-12551
▁bireyler	-12552
Öğr	-12553
▁zem	-12554
▁Ir	-12555
▁ÖTV	-12556
▁kapsayan	-12557
▁Tap	-12558
▁oksi	-12559
umun	-12560
egment	-12561
çılı	-12562
▁Denet	-12563
▁kavga	-12564
abey	-12565
ciliği	-12566
▁Telefonu	-12567
▁piyasada	-12568
idir	-12569
▁saklama	-12570
▁Seni	-12571
▁cild	-12572
▁stil	-12573
▁Şarj	-12574
▁yapacağı	-12575
▁müte	-12576
▁kıyasla	-12577
▁Fatma	-12578
▁İhtiyaç	-12579
▁Kok	-12580
▁hel	-12581
▁sorusu	-12582
▁birinde	-12583
▁verirken	-12584
cımız	-12585
▁maske	-12586
▁pla	-12587
beyli	-12588
▁korkut	-12589
▁ortağı	-12590
▁öğrencisi	-12591
ovasyon	-12592
▁Sahabet	-12593
▁gayrimenkul	-12594
▁dönüm	-12595
▁hepimiz	-12596
▁Cevapları	-12597
onomik	-12598
▁bölgenin	-12599
tüel	-12600
tirici	-12601
▁Coğraf	-12602
▁düşt	-12603
▁Game	-12604
▁yaşandı	-12605
Sağ	-12606
▁makul	-12607
▁Birkaç	-12608
▁bıraktı	-12609
▁katılımıyla	-12610
▁sahiplerinin	-12611
ımsız	-12612
▁turk	-12613
▁eğitime	-12614
▁altındadır	-12615
▁konusundaki	-12616
▁sahiplerine	-12617
▁CNR	-12618
▁küm	-12619
plant	-12620
▁bizde	-12621
unlar	-12622
▁alay	-12623
▁Levent	-12624
▁TOKİ	-12625
▁Atöly	-12626
▁alışkanlık	-12627
▁pişman	-12628
▁Foto	-12629
▁Kaydol	-12630
▁cil	-12631
▁Nüf	-12632
▁car	-12633
▁muz	-12634
witch	-12635
Bak	-12636
▁görüldü	-12637
▁Zayıf	-12638
laştığı	-12639
▁hic	-12640
eyerek	-12641
▁yaşar	-12642
▁boyama	-12643
çay	-12644
larm	-12645
liliğe	-12646
lanırken	-12647
▁Festival	-12648
ÜK	-12649
rap	-12650
acan	-12651
▁Hafif	-12652
▁endişe	-12653
▁yapmam	-12654
▁saklamak	-12655
▁faz	-12656
▁artı	-12657
▁sağlamaya	-12658
▁sigortası	-12659
▁moderatör	-12660
▁Read	-12661
▁bağırsak	-12662
▁tasarı	-12663
▁maddenin	-12664
▁yaşadı	-12665
▁tercihlerinizi	-12666
ocal	-12667
▁Elit	-12668
▁Ziyaretçi	-12669
▁Değişiklik	-12670
▁Blo	-12671
▁Allâh	-12672
▁Suresi	-12673
acy	-12674
ezya	-12675
oster	-12676
▁Adnan	-12677
▁salonu	-12678
▁elinden	-12679
▁alınacaktır	-12680
▁namazı	-12681
▁çağdaş	-12682
▁ittifak	-12683
▁konsept	-12684
▁Başlangıç	-12685
ublic	-12686
ağan	-12687
atta	-12688
MB	-12689
▁Olimp	-12690
▁Mobile	-12691
▁alınız	-12692
▁yasalarına	-12693
ORT	-12694
▁şimdiye	-12695
raj	-12696
▁bastır	-12697
▁emr	-12698
▁klas	-12699
▁Piyasa	-12700
▁Psikoloji	-12701
▁ilke	-12702
▁sordu	-12703
▁sözcük	-12704
▁Alp	-12705
▁Kimya	-12706
▁mutlak	-12707
▁riskini	-12708
▁verdiğini	-12709
ross	-12710
▁Taşımacılık	-12711
▁Eksik	-12712
▁Sarışın	-12713
▁Vergisi	-12714
▁sürdüren	-12715
▁Portekiz	-12716
▁Davut	-12717
▁gelecekte	-12718
▁viz	-12719
▁almaz	-12720
nal	-12721
▁Büyükelç	-12722
▁Kesinlikle	-12723
▁orjinal	-12724
arna	-12725
▁Şerif	-12726
DER	-12727
indan	-12728
lemiş	-12729
▁anlatım	-12730
▁yaptırım	-12731
ÜL	-12732
▁düzenledi	-12733
▁mesl	-12734
Doğ	-12735
▁berek	-12736
▁doğalgaz	-12737
▁Leg	-12738
▁Kaza	-12739
▁yağlı	-12740
▁Alüminyum	-12741
geçmiş	-12742
İl	-12743
▁kaldırıldı	-12744
▁Efsan	-12745
▁arıyorum	-12746
▁Ücreti	-12747
▁Hon	-12748
▁Şırnak	-12749
iyek	-12750
lugin	-12751
ukatı	-12752
kış	-12753
yani	-12754
▁boşalt	-12755
▁mesela	-12756
▁damla	-12757
▁bakter	-12758
▁Bülten	-12759
▁Petrol	-12760
▁platformudur	-12761
▁kararları	-12762
▁Up	-12763
▁eti	-12764
▁Kaldır	-12765
EST	-12766
unctional	-12767
▁sisteminde	-12768
▁Yılın	-12769
▁Ton	-12770
▁faaliyetlerinin	-12771
▁Out	-12772
▁je	-12773
▁boğaz	-12774
BİT	-12775
▁dükkan	-12776
▁peynir	-12777
▁tahsil	-12778
▁ileti	-12779
▁oyuna	-12780
malarını	-12781
▁Yenilik	-12782
▁düzeni	-12783
amayacak	-12784
arık	-12785
lakat	-12786
▁İletişime	-12787
▁tanır	-12788
▁ayının	-12789
üsüne	-12790
▁dersi	-12791
▁işçiler	-12792
▁çalışanlar	-12793
▁araçların	-12794
ivan	-12795
▁Devr	-12796
▁Yazılımı	-12797
miyorum	-12798
▁olayları	-12799
medim	-12800
▁resimler	-12801
▁linki	-12802
▁müthiş	-12803
▁genetik	-12804
▁muhtemel	-12805
▁sebz	-12806
▁Sendik	-12807
▁kimseye	-12808
▁müşterilerin	-12809
▁Müdürlüğ	-12810
▁bağışıklık	-12811
▁muhabbet	-12812
▁olacağız	-12813
▁Bahçelievler	-12814
▁ömrü	-12815
▁emlak	-12816
▁önlemler	-12817
▁münhasır	-12818
▁olabildiğince	-12819
ally	-12820
▁reg	-12821
▁okula	-12822
▁sorusuna	-12823
▁Sk	-12824
▁Bence	-12825
▁ıslak	-12826
▁yarısı	-12827
▁Sorgulama	-12828
▁SU	-12829
▁Emekli	-12830
▁halkının	-12831
▁Toz	-12832
▁Zengin	-12833
▁Açıklaması	-12834
▁bağlantıları	-12835
▁Yüks	-12836
▁free	-12837
▁Ford	-12838
▁başlandı	-12839
▁Muhar	-12840
▁bahçe	-12841
▁bahisler	-12842
CD	-12843
▁şehirde	-12844
▁keç	-12845
▁donat	-12846
iyo	-12847
▁Bı	-12848
▁AVM	-12849
▁laf	-12850
ınava	-12851
▁ulaşan	-12852
▁internette	-12853
▁YAL	-12854
▁bank	-12855
▁kuruldu	-12856
not	-12857
sındaki	-12858
▁bankalar	-12859
üzg	-12860
▁riv	-12861
▁kitle	-12862
▁teyit	-12863
▁Design	-12864
▁toptan	-12865
▁çalışıyorum	-12866
sarı	-12867
▁Demek	-12868
▁artar	-12869
▁doğdu	-12870
▁dilediği	-12871
▁çatışma	-12872
▁kitaplar	-12873
▁ecz	-12874
▁oldug	-12875
ibratör	-12876
▁ertesi	-12877
▁santral	-12878
▁Haftalık	-12879
▁homeopati	-12880
▁İSTANBUL	-12881
▁Maltbahis	-12882
▁Dek	-12883
▁unutulmaz	-12884
▁varlığını	-12885
▁yapmaktayız	-12886
▁ant	-12887
▁Nereden	-12888
▁Posted	-12889
▁sunmaktayız	-12890
▁ihraç	-12891
▁iktis	-12892
▁olduğunca	-12893
now	-12894
▁ülkeleri	-12895
cept	-12896
▁Eğit	-12897
▁müzak	-12898
▁etmeleri	-12899
▁kalmadı	-12900
▁vermeyi	-12901
▁haliyle	-12902
▁şeref	-12903
▁Uşak	-12904
▁fotokop	-12905
▁Hul	-12906
▁Nem	-12907
▁görüntüler	-12908
ümüzü	-12909
▁olabileceğini	-12910
▁OD	-12911
▁olmamak	-12912
▁lisanslı	-12913
▁önerileri	-12914
▁Şeyh	-12915
▁layık	-12916
▁edeceğini	-12917
atür	-12918
▁havale	-12919
yacağınız	-12920
▁Protokol	-12921
▁önlemleri	-12922
▁Kastamonu	-12923
anta	-12924
▁zira	-12925
▁Sabit	-12926
▁yoldan	-12927
feransı	-12928
▁Gerilim	-12929
▁kadrosu	-12930
▁Buzdolabı	-12931
▁hastaneye	-12932
▁nis	-12933
▁Tru	-12934
▁buldum	-12935
▁olduğumu	-12936
This	-12937
▁Fre	-12938
▁Gur	-12939
▁algorit	-12940
▁şüphesiz	-12941
▁sürecinin	-12942
▁led	-12943
▁bölgelerde	-12944
arları	-12945
▁girecek	-12946
▁Dilerseniz	-12947
eed	-12948
▁üzüm	-12949
▁hususunda	-12950
▁çam	-12951
▁boyutlu	-12952
▁Kızlar	-12953
yasında	-12954
▁hayatının	-12955
▁aradığınız	-12956
▁Faz	-12957
▁Dili	-12958
▁Erdem	-12959
▁Geldi	-12960
▁Stok	-12961
ble	-12962
▁fantez	-12963
▁tezgah	-12964
▁noktasına	-12965
▁göstergesi	-12966
▁Küp	-12967
ister	-12968
▁somut	-12969
tığında	-12970
▁Anında	-12971
▁çıkarma	-12972
ture	-12973
▁gerçekleştiren	-12974
ehr	-12975
sol	-12976
▁Kablo	-12977
▁kazandıran	-12978
▁paylaşımlar	-12979
hion	-12980
▁niye	-12981
▁medeniyet	-12982
▁kamuoyun	-12983
▁IN	-12984
allı	-12985
▁Küb	-12986
▁İnc	-12987
▁Avusturya	-12988
ref	-12989
▁Lor	-12990
delik	-12991
▁Kumar	-12992
SM	-12993
ella	-12994
▁Grand	-12995
ısal	-12996
atları	-12997
▁kurgu	-12998
▁melek	-12999
▁sarışın	-13000
▁sendika	-13001
▁avrupa	-13002
▁saçma	-13003
▁Edilmesi	-13004
▁kütüphan	-13005
▁information	-13006
▁Pal	-13007
▁eğilim	-13008
erspektif	-13009
▁katman	-13010
▁uzaklaştır	-13011
▁Nazlı	-13012
▁taktirde	-13013
dom	-13014
uzun	-13015
▁Aşırı	-13016
asal	-13017
▁Akşener	-13018
▁Herkesin	-13019
üksel	-13020
▁düşünceler	-13021
ınacak	-13022
▁gergin	-13023
▁Desteği	-13024
igh	-13025
uhaf	-13026
▁vekil	-13027
▁noktaları	-13028
▁ürünlerinin	-13029
▁dördüncü	-13030
iba	-13031
▁staj	-13032
▁Pasta	-13033
▁çıkıp	-13034
▁yarattığı	-13035
▁burs	-13036
emezsiniz	-13037
memektedir	-13038
▁tarayıcınızda	-13039
▁Değişikliği	-13040
▁oz	-13041
▁Göztepe	-13042
halde	-13043
ations	-13044
rasya	-13045
▁seyret	-13046
lana	-13047
obahis	-13048
▁adlandırılan	-13049
▁kızın	-13050
▁destekler	-13051
▁konumda	-13052
▁uygulanacak	-13053
▁yapabilecek	-13054
▁{	-13055
▁more	-13056
▁adaylar	-13057
osp	-13058
▁kurut	-13059
▁çekirdek	-13060
ooth	-13061
▁entegr	-13062
▁sitedeki	-13063
▁içeriğinde	-13064
ls	-13065
ater	-13066
grama	-13067
iness	-13068
▁usulü	-13069
▁Başbakanı	-13070
▁Arac	-13071
ılmalı	-13072
▁Esra	-13073
▁Ortadoğu	-13074
▁etkileyici	-13075
eklik	-13076
yasına	-13077
▁filmin	-13078
▁sağladı	-13079
▁DEV	-13080
▁kolaylık	-13081
▁listesinde	-13082
îm	-13083
sten	-13084
▁ürüne	-13085
▁Haftası	-13086
▁çerezlerin	-13087
ato	-13088
▁It	-13089
▁Takı	-13090
▁açıklamaya	-13091
▁Süreç	-13092
▁okundu	-13093
▁Gebelik	-13094
▁Spo	-13095
▁Gölü	-13096
▁silme	-13097
▁Mesajları	-13098
nem	-13099
room	-13100
▁tanıma	-13101
no	-13102
▁füz	-13103
▁Elbise	-13104
▁onlarla	-13105
▁onlardan	-13106
vas	-13107
▁Abonelik	-13108
ANK	-13109
bağ	-13110
▁hissi	-13111
▁kucak	-13112
▁Belirli	-13113
▁muaf	-13114
▁oynayan	-13115
▁Aslı	-13116
▁otor	-13117
▁guzel	-13118
▁pamuk	-13119
▁diyabet	-13120
▁Ermenistan	-13121
BİTAK	-13122
▁ödülü	-13123
▁Bunlara	-13124
▁Karabağ	-13125
▁magazin	-13126
▁Bec	-13127
▁Prim	-13128
diveni	-13129
▁Smart	-13130
▁Kızılay	-13131
üphane	-13132
▁ülkeden	-13133
▁sayfanın	-13134
lenmeye	-13135
geldiniz	-13136
▁doğrultu	-13137
laştığınız	-13138
▁oynamanın	-13139
▁Kop	-13140
ruklu	-13141
▁Karbon	-13142
▁Akademisi	-13143
ington	-13144
ilo	-13145
avori	-13146
▁Vücud	-13147
▁Etkileri	-13148
▁bozukluğu	-13149
GA	-13150
Bölüm	-13151
▁logo	-13152
▁Trak	-13153
▁ithal	-13154
cm	-13155
luğuna	-13156
▁Berlin	-13157
▁geçersiz	-13158
▁görüşlerini	-13159
▁etmenin	-13160
▁milletvekili	-13161
▁İktis	-13162
▁edemez	-13163
▁kullandığımız	-13164
RC	-13165
▁yönetmelik	-13166
▁Final	-13167
SK	-13168
▁bitkiler	-13169
▁dayanan	-13170
▁vücudun	-13171
▁vergisi	-13172
tiniz	-13173
▁yükseğe	-13174
▁avantajı	-13175
▁formatında	-13176
▁Lo	-13177
▁eşleş	-13178
▁katli	-13179
▁sürüş	-13180
▁mağlup	-13181
▁bakarak	-13182
▁Taraftar	-13183
▁ilde	-13184
▁yepyeni	-13185
▁bilgisini	-13186
▁desteklem	-13187
▁arttırmak	-13188
ebilecektir	-13189
insan	-13190
▁Day	-13191
▁sormak	-13192
diğin	-13193
▁Aşık	-13194
▁vurguladı	-13195
itenin	-13196
▁belirlenmesi	-13197
▁Yaratıcı	-13198
▁Meteoroloji	-13199
usa	-13200
azzam	-13201
▁onaylı	-13202
▁Kurtuluş	-13203
▁oluşuyor	-13204
▁tüketimi	-13205
▁BA	-13206
kilatı	-13207
ocument	-13208
▁Konuşma	-13209
▁varan	-13210
▁Finansal	-13211
bre	-13212
vil	-13213
eğim	-13214
▁minik	-13215
▁puanı	-13216
▁category	-13217
▁Estetik	-13218
▁lens	-13219
▁atarak	-13220
▁ayrılan	-13221
▁adresiniz	-13222
▁rüy	-13223
bakan	-13224
lamen	-13225
▁temsilcileri	-13226
dığınızı	-13227
yın	-13228
enli	-13229
idin	-13230
▁Abone	-13231
▁Yürüy	-13232
▁Spr	-13233
▁modeller	-13234
▁yaratmak	-13235
▁bam	-13236
▁buğday	-13237
▁seviyeye	-13238
▁Kos	-13239
▁skor	-13240
▁yayınladı	-13241
▁diyebiliriz	-13242
▁Temsilcisi	-13243
▁edilmesine	-13244
▁Şim	-13245
▁Esnaf	-13246
▁göreve	-13247
▁prensip	-13248
latıyor	-13249
▁Wi	-13250
▁içe	-13251
▁Şark	-13252
verengi	-13253
adası	-13254
usuyla	-13255
▁standar	-13256
▁olabileceği	-13257
▁epey	-13258
Ge	-13259
▁cemaat	-13260
▁Komitesi	-13261
▁Rak	-13262
tasar	-13263
eksika	-13264
▁Fırın	-13265
▁departman	-13266
▁çalışmasını	-13267
Kap	-13268
▁zik	-13269
minin	-13270
▁Paketi	-13271
▁odaları	-13272
İV	-13273
▁küp	-13274
▁SON	-13275
▁Mosk	-13276
▁Konferans	-13277
▁Aksesuarları	-13278
▁OK	-13279
▁Yalan	-13280
▁Zeka	-13281
▁salgını	-13282
▁Fabrika	-13283
▁dökül	-13284
zim	-13285
▁teşh	-13286
!)	-13287
▁başvuruları	-13288
▁YIL	-13289
▁kade	-13290
▁Skype	-13291
▁şişli	-13292
▁Videolar	-13293
▁Perakende	-13294
▁animasyon	-13295
▁listesini	-13296
▁şekeri	-13297
ropol	-13298
▁dönük	-13299
▁kimliği	-13300
▁hamur	-13301
▁Köpr	-13302
▁dergi	-13303
▁fırça	-13304
▁yürüm	-13305
▁projenin	-13306
burt	-13307
hem	-13308
▁yöneticileri	-13309
▁ışın	-13310
▁İstih	-13311
▁kronik	-13312
İC	-13313
▁girmesi	-13314
▁Toplumsal	-13315
▁yayımlandı	-13316
ğın	-13317
▁İlçesi	-13318
▁Si	-13319
▁liman	-13320
▁oradan	-13321
▁Meydanı	-13322
kab	-13323
▁Pop	-13324
▁Ofisi	-13325
LAM	-13326
cookie	-13327
▁Kullanıcıların	-13328
oşet	-13329
adokya	-13330
▁Felsefe	-13331
Bel	-13332
▁değişiklikleri	-13333
.*	-13334
▁etmesini	-13335
▁Örgü	-13336
ookies	-13337
▁nazaran	-13338
▁parçalar	-13339
▁Gümrük	-13340
öm	-13341
eşehir	-13342
▁kalması	-13343
▁devamını	-13344
▁tarafımıza	-13345
▁kablosuz	-13346
▁değerlendirmek	-13347
▁aşağılayıcı	-13348
▁Yayıncılık	-13349
▁kendimizi	-13350
▁cezalandır	-13351
▁içeriklerinden	-13352
kö	-13353
lenin	-13354
▁Direktörü	-13355
olo	-13356
ould	-13357
▁Vide	-13358
▁hâkim	-13359
mediğini	-13360
▁yenileme	-13361
▁keşf	-13362
▁gerekebilir	-13363
▁AC	-13364
▁işg	-13365
▁tanınan	-13366
▁çarpıcı	-13367
▁sunacak	-13368
▁Alex	-13369
▁gözü	-13370
▁kötül	-13371
▁sanık	-13372
▁tırman	-13373
▁meraklı	-13374
▁mübarek	-13375
şen	-13376
ımsak	-13377
▁Hint	-13378
▁durak	-13379
▁tarafta	-13380
▁yürek	-13381
▁hastalığın	-13382
TB	-13383
yah	-13384
mesin	-13385
▁sömür	-13386
▁olursak	-13387
biz	-13388
aryakıt	-13389
▁herşey	-13390
▁Haftanın	-13391
▁Sebep	-13392
▁öykü	-13393
naz	-13394
▁Us	-13395
eyz	-13396
luklar	-13397
▁masöz	-13398
▁nasil	-13399
▁olunur	-13400
▁kurtarı	-13401
aiz	-13402
üşav	-13403
▁mekân	-13404
▁görülebilir	-13405
ott	-13406
ceği	-13407
▁Hid	-13408
▁tadı	-13409
▁müslüm	-13410
▁işlenen	-13411
▁Linkedin	-13412
▁kelimesi	-13413
▁MU	-13414
▁Tır	-13415
▁Niğde	-13416
▁yumuş	-13417
▁İskender	-13418
▁dayanarak	-13419
▁Bende	-13420
its	-13421
eter	-13422
▁İsa	-13423
latır	-13424
▁satı	-13425
▁Avrasya	-13426
ELİ	-13427
▁Hor	-13428
▁doğu	-13429
▁taşır	-13430
▁izlenme	-13431
▁kartları	-13432
▁Operasyon	-13433
▁Tebliğ	-13434
▁dönemine	-13435
▁Tarsus	-13436
▁mutluluğ	-13437
▁mült	-13438
▁Günde	-13439
paganda	-13440
lut	-13441
bulans	-13442
▁Oktay	-13443
▁düşündüğünüz	-13444
▁gerçekleşecek	-13445
▁çarpış	-13446
▁Bilecik	-13447
▁odaklan	-13448
▁Kütüphan	-13449
▁uygulanabilir	-13450
▁Hepsi	-13451
▁Nefes	-13452
DİR	-13453
▁Noel	-13454
pazarı	-13455
iirt	-13456
▁Benz	-13457
▁olmayabilir	-13458
date	-13459
▁Firmalar	-13460
▁mp	-13461
▁irad	-13462
▁tanrı	-13463
▁Cennet	-13464
▁açtığı	-13465
edd	-13466
▁kursu	-13467
▁bağlamda	-13468
read	-13469
▁Ağaç	-13470
ecraft	-13471
▁Favor	-13472
!"	-13473
reon	-13474
▁Yüzde	-13475
ilmekte	-13476
Gel	-13477
▁maks	-13478
üfer	-13479
alesi	-13480
▁yeme	-13481
istanbul	-13482
▁dışarıdan	-13483
▁incelemek	-13484
▁mantıklı	-13485
▁kısıtlama	-13486
adar	-13487
▁fol	-13488
▁kuma	-13489
tanımlı	-13490
▁TE	-13491
▁Gökhan	-13492
▁cezaev	-13493
▁kampanyaları	-13494
▁kazası	-13495
▁Üzere	-13496
▁yetmez	-13497
▁Şehircilik	-13498
▁hazırladığı	-13499
▁okuyup	-13500
▁kararını	-13501
anal	-13502
▁Yenilen	-13503
▁Erzincan	-13504
▁şekillendir	-13505
atma	-13506
▁bulgu	-13507
ace	-13508
▁uğur	-13509
▁Açılış	-13510
▁Çantası	-13511
▁hedefleyen	-13512
▁Ateşli	-13513
▁hizmetlerinin	-13514
▁Oynan	-13515
▁YAZAR	-13516
▁düşer	-13517
▁adil	-13518
elikli	-13519
▁Sancak	-13520
▁önemini	-13521
▁KVK	-13522
larımın	-13523
▁enerjisi	-13524
▁Onarım	-13525
▁Boğaziçi	-13526
▁insanlık	-13527
▁Rights	-13528
▁Malzemeler	-13529
▁Abdül	-13530
▁Şarkı	-13531
tiğinde	-13532
▁English	-13533
▁organizasyonu	-13534
▁Alıntı	-13535
ledikleri	-13536
▁yaşamaya	-13537
▁Kahvaltı	-13538
▁soruların	-13539
▁Yazın	-13540
▁makina	-13541
▁açığa	-13542
▁yapıldığını	-13543
▁ISO	-13544
▁Meş	-13545
▁arayabilirsiniz	-13546
▁QR	-13547
▁korur	-13548
▁Priv	-13549
▁tavır	-13550
▁değiştirilmesi	-13551
▁Metro	-13552
ins	-13553
▁hâlâ	-13554
▁alanındaki	-13555
ador	-13556
▁feth	-13557
▁Linux	-13558
▁yavru	-13559
▁gerilim	-13560
▁İrlanda	-13561
▁Çal	-13562
▁ayın	-13563
▁Tit	-13564
▁üyeliği	-13565
▁paz	-13566
lısınız	-13567
▁Günleri	-13568
▁homeopat	-13569
▁Ulaşım	-13570
Kay	-13571
▁Korsan	-13572
▁eğlenc	-13573
▁ambalajı	-13574
▁Köşe	-13575
▁Türkmen	-13576
The	-13577
ream	-13578
undadır	-13579
▁dünyasına	-13580
fuk	-13581
▁İÇ	-13582
▁tekniği	-13583
kinlik	-13584
▁Muhteşem	-13585
ikli	-13586
▁Betp	-13587
▁gecesi	-13588
▁mahkum	-13589
▁aksiyon	-13590
hor	-13591
▁sac	-13592
eyince	-13593
şk	-13594
calı	-13595
▁dezenf	-13596
▁Premium	-13597
▁kavuştur	-13598
▁öneririz	-13599
▁Ray	-13600
ezite	-13601
▁Buraya	-13602
▁değişir	-13603
▁onayını	-13604
▁desteğiyle	-13605
odcast	-13606
▁Kulüp	-13607
enen	-13608
▁Şük	-13609
▁etsin	-13610
▁hamile	-13611
ilyon	-13612
Kullan	-13613
hatsapp	-13614
ology	-13615
▁Eren	-13616
düğünde	-13617
▁Balkon	-13618
▁sayısına	-13619
▁adrest	-13620
▁zarara	-13621
liğinizi	-13622
▁Buradaki	-13623
▁başarılar	-13624
▁şap	-13625
▁aldıkları	-13626
▁Vef	-13627
▁İşlenen	-13628
▁birtakım	-13629
▁yönetmek	-13630
abin	-13631
▁Çub	-13632
▁kanama	-13633
▁kanalları	-13634
▁internetten	-13635
dig	-13636
eliğin	-13637
▁Vizesi	-13638
rası	-13639
▁ödün	-13640
▁yayınlar	-13641
▁teknikleri	-13642
▁MÜ	-13643
▁tekstil	-13644
▁teknolojiler	-13645
unuş	-13646
▁temp	-13647
▁çadır	-13648
▁geçirildi	-13649
abilitasyon	-13650
▁uzantı	-13651
▁gazetesi	-13652
▁ziyaretçilerin	-13653
▁ms	-13654
▁Por	-13655
▁içten	-13656
▁Sertifika	-13657
▁HP	-13658
▁sürümü	-13659
▁bilmiyor	-13660
▁demokrasi	-13661
▁ibar	-13662
▁anlatır	-13663
▁kurtarma	-13664
▁Rektör	-13665
▁Posta	-13666
▁olsaydı	-13667
▁kokusu	-13668
eyecektir	-13669
▁kast	-13670
▁so	-13671
▁belirsiz	-13672
▁Misafir	-13673
▁Mert	-13674
▁siyasal	-13675
▁gerekçesiyle	-13676
ustom	-13677
▁işlerini	-13678
▁eklentisi	-13679
TE	-13680
hy	-13681
▁Vegan	-13682
üntü	-13683
▁kaydol	-13684
▁Nakit	-13685
▁Tecrüb	-13686
▁Yüzyıl	-13687
▁problemleri	-13688
▁edildiğini	-13689
isy	-13690
tle	-13691
▁Gençler	-13692
▁Hürriyet	-13693
viv	-13694
▁ilim	-13695
▁borcu	-13696
indir	-13697
▁kasa	-13698
ign	-13699
▁kulüb	-13700
barat	-13701
Rus	-13702
▁ettiğim	-13703
▁İncelemesi	-13704
▁Şirketleri	-13705
▁hizmetinizde	-13706
▁yeniye	-13707
▁çekilen	-13708
▁işleminin	-13709
Yar	-13710
▁yaşamı	-13711
▁istiyorsunuz	-13712
gısı	-13713
iyetini	-13714
▁hareketleri	-13715
▁Ekmek	-13716
▁denize	-13717
▁karg	-13718
▁doğrultuda	-13719
▁use	-13720
▁otob	-13721
▁gelebilecek	-13722
▁Dahil	-13723
▁yayında	-13724
▁İttifak	-13725
ilmesinin	-13726
larınızdan	-13727
sörü	-13728
Ve	-13729
İlk	-13730
▁rom	-13731
▁Fırat	-13732
▁Odaları	-13733
▁tehlike	-13734
▁Makineleri	-13735
▁yetkilendir	-13736
▁yapabileceğiniz	-13737
▁BTC	-13738
▁Kürd	-13739
▁şarap	-13740
▁gümrük	-13741
geli	-13742
▁Dog	-13743
▁Körf	-13744
▁cayma	-13745
▁emanet	-13746
▁Düşükten	-13747
▁gazeteci	-13748
▁yuvarlak	-13749
falt	-13750
▁annem	-13751
▁varmı	-13752
▁okuyan	-13753
▁kadınım	-13754
▁İdaresi	-13755
lenecektir	-13756
▁kısmından	-13757
goz	-13758
medik	-13759
▁işken	-13760
▁Siteye	-13761
▁Çocuklarda	-13762
Uz	-13763
▁İhale	-13764
▁kre	-13765
▁Amerikalı	-13766
▁bilgilerine	-13767
etk	-13768
▁deplasman	-13769
▁ilişkilendir	-13770
▁Siber	-13771
▁olanları	-13772
ehri	-13773
▁Vah	-13774
▁yayına	-13775
▁ailesinin	-13776
▁hang	-13777
▁Yanıt	-13778
▁sürdü	-13779
▁Eserleri	-13780
▁geçirdiği	-13781
▁geçirilen	-13782
▁telefonda	-13783
▁takvim	-13784
▁mg	-13785
ilan	-13786
▁molek	-13787
biyen	-13788
▁nolu	-13789
caya	-13790
▁reng	-13791
▁Faruk	-13792
▁ayına	-13793
▁Okumaya	-13794
▁Tespiti	-13795
▁sektörüne	-13796
▁üreticisi	-13797
▁Dip	-13798
larımla	-13799
▁uzanan	-13800
▁çekimi	-13801
▁Sonbahar	-13802
▁Yüksekten	-13803
▁vurgulayan	-13804
▁alındığı	-13805
▁sorulara	-13806
▁bildirildi	-13807
▁Almanca	-13808
▁emeklilik	-13809
▁çıkmasına	-13810
▁Down	-13811
emedim	-13812
▁metni	-13813
▁Istanbul	-13814
▁olmadığına	-13815
▁bölgesinden	-13816
▁all	-13817
▁eminim	-13818
▁kullanırken	-13819
▁zihinsel	-13820
çinin	-13821
▁mecra	-13822
hendisi	-13823
▁Ayarları	-13824
▁yapanlar	-13825
namesi	-13826
▁diğeri	-13827
▁gülüm	-13828
▁Konser	-13829
▁varmış	-13830
▁dö	-13831
▁oyununda	-13832
▁tir	-13833
▁örg	-13834
▁Silivri	-13835
▁geçirdi	-13836
kuş	-13837
kurt	-13838
▁Mul	-13839
▁Tokat	-13840
▁gereksinim	-13841
▁gönderilecektir	-13842
Bey	-13843
taur	-13844
▁Meme	-13845
ımızca	-13846
▁yapmakta	-13847
▁Arzu	-13848
▁rıza	-13849
▁ölen	-13850
▁dolap	-13851
▁oyunda	-13852
▁tebliğ	-13853
ızın	-13854
▁Lit	-13855
▁Robot	-13856
▁İspanyol	-13857
▁iv	-13858
maktayım	-13859
▁heyecanı	-13860
cer	-13861
▁So	-13862
üret	-13863
▁King	-13864
▁oraya	-13865
▁giderken	-13866
▁salatası	-13867
▁deli	-13868
ikleri	-13869
▁önbel	-13870
▁Amasya	-13871
▁durumları	-13872
▁Altyazılı	-13873
osuna	-13874
ikolat	-13875
lamanız	-13876
▁yayını	-13877
▁niteliğinde	-13878
▁bağlantıların	-13879
▁bazlı	-13880
▁imzalı	-13881
▁Ambalaj	-13882
▁beklenm	-13883
İP	-13884
DEM	-13885
▁MA	-13886
▁hev	-13887
▁seans	-13888
▁Sorunu	-13889
▁isminin	-13890
ool	-13891
▁ihrac	-13892
▁Çakır	-13893
▁faydası	-13894
bür	-13895
ılın	-13896
▁server	-13897
▁kurtulmak	-13898
▁oruç	-13899
▁Kolye	-13900
ço	-13901
▁Yurtiçi	-13902
▁hastanede	-13903
▁niteliklerde	-13904
halle	-13905
▁sağlığ	-13906
▁markalar	-13907
▁göstererek	-13908
▁mesai	-13909
▁avantajları	-13910
▁hip	-13911
▁prof	-13912
▁Forumu	-13913
▁işyeri	-13914
▁nihayet	-13915
▁sakat	-13916
▁Başsav	-13917
▁hizmetlerden	-13918
değer	-13919
▁kapsamı	-13920
Man	-13921
hen	-13922
▁Berk	-13923
▁imkânı	-13924
▁Ürünün	-13925
▁çeviri	-13926
▁laboratuvar	-13927
▁Yalnızca	-13928
▁Hit	-13929
▁ekley	-13930
▁sözlük	-13931
▁Efendimiz	-13932
▁Numaraları	-13933
liyorum	-13934
▁content	-13935
▁yollarla	-13936
▁belirlendi	-13937
Genel	-13938
ogram	-13939
▁Olmayan	-13940
akkak	-13941
▁Saygı	-13942
▁sokağa	-13943
▁solunum	-13944
isten	-13945
▁Moskova	-13946
▁Elma	-13947
▁yollar	-13948
▁mükellef	-13949
by	-13950
lemeleri	-13951
▁çalıştı	-13952
▁İdari	-13953
lemi	-13954
▁anlamıyla	-13955
▁görevlisi	-13956
▁verg	-13957
İzmir	-13958
▁keskin	-13959
▁TÜBİTAK	-13960
▁Ceb	-13961
▁attığı	-13962
▁tanımak	-13963
▁açabilir	-13964
▁istenmeyen	-13965
▁Travesti	-13966
ery	-13967
▁duyan	-13968
luy	-13969
tij	-13970
▁Hap	-13971
▁Rol	-13972
▁duran	-13973
▁müracaat	-13974
▁ur	-13975
▁Jack	-13976
▁cevaplar	-13977
▁katılın	-13978
▁okuyabilirsiniz	-13979
dinde	-13980
▁Koşul	-13981
▁Umarım	-13982
▁istemiyorum	-13983
▁gönderme	-13984
Kişisel	-13985
▁Serdar	-13986
▁yasağı	-13987
▁Nitekim	-13988
▁garip	-13989
▁takımın	-13990
▁içme	-13991
▁esmer	-13992
ision	-13993
▁Belediyespor	-13994
▁erişebilirsiniz	-13995
▁deg	-13996
▁Tıkanık	-13997
▁Websitesi	-13998
▁tehditkar	-13999
▁edilmemektedir	-14000
Büyük	-14001
▁kutlama	-14002
▁ailesine	-14003
▁Bekir	-14004
▁Kemer	-14005
▁Ameliyatı	-14006
▁Özcan	-14007
IV	-14008
▁öyk	-14009
âd	-14010
gazm	-14011
▁sezonu	-14012
▁Pandemi	-14013
▁bulabileceğiniz	-14014
▁katılma	-14015
▁renkler	-14016
▁oluşabilecek	-14017
ücel	-14018
▁euro	-14019
▁play	-14020
▁Boyama	-14021
▁verebilmek	-14022
▁niş	-14023
▁meşgul	-14024
ual	-14025
▁Kole	-14026
▁live	-14027
▁Tol	-14028
▁Mahkeme	-14029
eve	-14030
▁into	-14031
▁Inter	-14032
▁kepenk	-14033
▁Oldukça	-14034
▁Rezervasyon	-14035
▁verdikleri	-14036
▁abd	-14037
▁ayırt	-14038
▁okumaya	-14039
▁ataşehir	-14040
▁geliştirilmesi	-14041
▁Tescil	-14042
▁kapıda	-14043
▁İL	-14044
▁doları	-14045
▁eticaret	-14046
▁fotoğrafı	-14047
▁bilinmeyen	-14048
leye	-14049
cınızı	-14050
▁lojistik	-14051
▁Başkent	-14052
Ul	-14053
▁Kovid	-14054
▁geldim	-14055
▁karşınıza	-14056
▁neyi	-14057
▁Que	-14058
▁uyu	-14059
avantaj	-14060
▁kaynaklar	-14061
▁sözde	-14062
▁Bağcılar	-14063
▁geleceğe	-14064
▁başlaması	-14065
▁bakıldığında	-14066
▁etmeyen	-14067
ünüze	-14068
▁Turu	-14069
▁Vizyon	-14070
▁cihazları	-14071
▁BI	-14072
▁Terap	-14073
▁kanaat	-14074
▁android	-14075
abat	-14076
▁koydu	-14077
▁Erg	-14078
▁yatan	-14079
▁Aray	-14080
▁yapmanın	-14081
▁üretilmiştir	-14082
ita	-14083
▁kuran	-14084
▁nişan	-14085
betting	-14086
▁Cal	-14087
▁neye	-14088
▁kaldırılması	-14089
▁mel	-14090
▁çırp	-14091
▁bulunu	-14092
▁Lirası	-14093
▁kişilerle	-14094
▁malzemesi	-14095
lemeler	-14096
▁kuruluşlar	-14097
▁programlar	-14098
▁sitelerini	-14099
▁oluşturuyor	-14100
▁Hata	-14101
▁Keçi	-14102
cıoğlu	-14103
▁seçeneğine	-14104
▁Kalın	-14105
▁hazırlamak	-14106
▁tedbirler	-14107
▁Kampanyası	-14108
Gör	-14109
▁kurdu	-14110
usi	-14111
▁ceb	-14112
▁FIFA	-14113
▁barın	-14114
▁Atlantis	-14115
çü	-14116
▁anlatmak	-14117
▁Cerrahi	-14118
▁nitelikte	-14119
▁hiper	-14120
▁aklıma	-14121
▁hastaların	-14122
▁cidd	-14123
▁aldat	-14124
▁siber	-14125
▁Organik	-14126
▁teması	-14127
▁Tos	-14128
▁Zel	-14129
▁iktid	-14130
▁süpür	-14131
▁Kanser	-14132
siklop	-14133
▁ordus	-14134
CA	-14135
fab	-14136
▁kağıdı	-14137
tedir	-14138
▁Kamer	-14139
▁fos	-14140
lülük	-14141
diğine	-14142
▁Yazan	-14143
▁aranan	-14144
▁kısmının	-14145
▁Şikay	-14146
▁sonbahar	-14147
iret	-14148
▁Lideri	-14149
▁transferi	-14150
▁intik	-14151
▁yatırımsız	-14152
▁değişebilir	-14153
▁Yılında	-14154
▁taşımaktadır	-14155
▁amir	-14156
▁Kurtar	-14157
dığımı	-14158
▁seçimler	-14159
▁gençlerin	-14160
▁ortamlarda	-14161
▁verecektir	-14162
jantin	-14163
▁ısın	-14164
▁Süreci	-14165
▁bulunmuyor	-14166
stan	-14167
▁Ayn	-14168
▁güzerg	-14169
▁mimari	-14170
▁uyandır	-14171
trans	-14172
▁Hükümet	-14173
▁maltepe	-14174
▁yüksektir	-14175
▁erkeğin	-14176
▁kalmadan	-14177
▁DS	-14178
▁sahil	-14179
▁Bürosu	-14180
▁Aktar	-14181
▁Turkcell	-14182
ax	-14183
▁edelim	-14184
▁kurutma	-14185
tınız	-14186
▁andan	-14187
▁dönüyor	-14188
▁getirecek	-14189
emekte	-14190
▁Nesil	-14191
▁Düzenli	-14192
▁gerçekleşir	-14193
ices	-14194
Yaz	-14195
▁litre	-14196
▁başlayarak	-14197
TAL	-14198
▁Göm	-14199
▁tahsis	-14200
lamasını	-14201
▁Altında	-14202
▁antrenman	-14203
▁görüntüle	-14204
▁periyodik	-14205
▁ayarlarını	-14206
▁Birden	-14207
lenirken	-14208
▁Demokrasi	-14209
bik	-14210
▁çığ	-14211
ocial	-14212
▁Hastalığı	-14213
▁muhalefet	-14214
▁terey	-14215
▁sitelerde	-14216
▁tanımlanan	-14217
▁Uncategorized	-14218
▁Pir	-14219
▁kodunu	-14220
▁kapasitesi	-14221
▁yel	-14222
▁Artır	-14223
vis	-14224
▁kuz	-14225
ıyordu	-14226
▁soruyu	-14227
▁bırakmak	-14228
▁ticareti	-14229
▁SMM	-14230
▁sınavı	-14231
▁depresyon	-14232
faiye	-14233
▁ağac	-14234
▁askıya	-14235
▁görmez	-14236
▁kutsal	-14237
▁Problem	-14238
▁malı	-14239
▁süreleri	-14240
▁alacağınız	-14241
▁Kont	-14242
▁dönen	-14243
▁ilacı	-14244
▁ifadesi	-14245
ifer	-14246
▁macer	-14247
▁değerler	-14248
▁şartlarına	-14249
ekkur	-14250
emeye	-14251
▁Konular	-14252
▁değişti	-14253
amel	-14254
▁Ermeni	-14255
▁Çeviri	-14256
▁ödemesi	-14257
▁Alper	-14258
▁yıp	-14259
üksek	-14260
▁kullanmanız	-14261
▁ış	-14262
▁Cer	-14263
larsa	-14264
▁ilgisini	-14265
▁yazıp	-14266
▁Çerçev	-14267
▁Projeleri	-14268
▁Yapılacak	-14269
▁tahmini	-14270
▁gazeteler	-14271
▁Çocukların	-14272
anızın	-14273
▁hükümeti	-14274
▁başlıkları	-14275
Yap	-14276
▁EM	-14277
lıklara	-14278
meliyiz	-14279
▁düşüğe	-14280
▁birikim	-14281
▁oranlar	-14282
▁kurumları	-14283
▁por	-14284
▁Ebru	-14285
▁yalıtım	-14286
▁destekli	-14287
▁hayvanlar	-14288
▁nitelendir	-14289
▁Ra	-14290
▁Hot	-14291
urity	-14292
▁yazınız	-14293
▁dersleri	-14294
▁kapsa	-14295
cool	-14296
▁Beğeni	-14297
▁töreni	-14298
▁Hy	-14299
Daha	-14300
▁şüphel	-14301
▁sevdiği	-14302
▁platformda	-14303
PU	-14304
▁atma	-14305
▁pomp	-14306
leşmiş	-14307
▁ağacı	-14308
▁vizesi	-14309
▁görüldüğü	-14310
▁barındıran	-14311
▁hazırlıyor	-14312
▁yetkilileri	-14313
ümüze	-14314
▁Yumurta	-14315
▁araması	-14316
▁kayseri	-14317
▁Ayv	-14318
▁devleti	-14319
▁aktivasyon	-14320
umda	-14321
▁Lan	-14322
▁Psikolojik	-14323
▁Besin	-14324
▁ekosistem	-14325
▁katılarak	-14326
chan	-14327
ölye	-14328
▁vas	-14329
▁kontr	-14330
▁ihlali	-14331
▁hizmetlerinden	-14332
▁şeri	-14333
▁Belge	-14334
▁soğan	-14335
▁fındık	-14336
▁modülü	-14337
▁birimleri	-14338
▁yıllarında	-14339
▁çalışmalarının	-14340
▁oynadığı	-14341
bilim	-14342
▁Etme	-14343
▁Yumuşak	-14344
▁bilmeyen	-14345
ğrul	-14346
▁vurdu	-14347
▁harita	-14348
▁kader	-14349
▁Kararı	-14350
▁aklınıza	-14351
▁Bölgesel	-14352
▁Sports	-14353
çuk	-14354
▁yuk	-14355
▁dikiş	-14356
üphe	-14357
▁dokuz	-14358
▁Davran	-14359
▁Laptop	-14360
▁penis	-14361
▁Faiz	-14362
▁başlı	-14363
▁izler	-14364
itor	-14365
▁Manşet	-14366
**	-14367
ıcısı	-14368
eliyiz	-14369
ilmemiş	-14370
▁Esenler	-14371
rade	-14372
▁imal	-14373
iyotik	-14374
diğinizde	-14375
▁Blackjack	-14376
▁Veya	-14377
▁çıplak	-14378
▁senesinde	-14379
LİK	-14380
▁Ürünü	-14381
▁sözlerine	-14382
agen	-14383
ULLAN	-14384
ragon	-14385
▁doğacak	-14386
▁Üyeler	-14387
▁mekanik	-14388
▁bilinçli	-14389
▁sağlığını	-14390
▁Komutanlığı	-14391
seo	-14392
▁mum	-14393
kullan	-14394
▁Vadisi	-14395
▁lisansı	-14396
▁Geçiş	-14397
▁halini	-14398
▁sağlıyoruz	-14399
▁giriyor	-14400
▁ilçesine	-14401
▁Çavuşoğlu	-14402
▁yaşadıkları	-14403
▁Ani	-14404
deksi	-14405
▁Tedarik	-14406
▁kapatma	-14407
▁engellemek	-14408
▁intihar	-14409
▁öğrenim	-14410
diz	-14411
Mes	-14412
▁istisna	-14413
EFA	-14414
▁böcek	-14415
▁olayın	-14416
▁görüntüsü	-14417
▁Dava	-14418
▁azın	-14419
▁iyidir	-14420
lendirici	-14421
▁ulaşarak	-14422
▁şehrinde	-14423
▁Yarım	-14424
▁yapacağız	-14425
acası	-14426
▁Studi	-14427
ss	-14428
İç	-14429
▁buhar	-14430
▁başvurular	-14431
▁basıl	-14432
▁Döş	-14433
▁Pla	-14434
▁fal	-14435
▁zihn	-14436
▁İşbirliği	-14437
▁üste	-14438
▁sevdiğim	-14439
▁sözlerini	-14440
larý	-14441
▁belirtir	-14442
▁kurumların	-14443
▁atar	-14444
▁Bitlis	-14445
▁turu	-14446
▁düşünün	-14447
▁noter	-14448
▁Krallık	-14449
▁üretilmiş	-14450
▁Şekil	-14451
▁etmekle	-14452
▁Pur	-14453
▁anten	-14454
taurant	-14455
▁anlatı	-14456
tansiyon	-14457
▁sürecin	-14458
▁reaksiyon	-14459
▁özelliğine	-14460
▁Kalıcı	-14461
▁işleyen	-14462
▁alınabilir	-14463
ocu	-14464
takte	-14465
▁Bingöl	-14466
▁bakımdan	-14467
▁Kooperatif	-14468
▁kozmetik	-14469
taraf	-14470
Anadolu	-14471
▁endeks	-14472
▁sorunlarını	-14473
▁öğretmenler	-14474
▁Adası	-14475
▁Games	-14476
▁Alanları	-14477
▁arkadaşlık	-14478
▁bayanım	-14479
▁etkinleştirin	-14480
ANS	-14481
▁gençlik	-14482
▁şikâyet	-14483
my	-14484
adığını	-14485
▁geçtiği	-14486
▁Vaj	-14487
lemesine	-14488
▁Öde	-14489
▁çerezlerdir	-14490
fone	-14491
▁Taz	-14492
▁Koru	-14493
▁unvan	-14494
lör	-14495
▁tutulması	-14496
For	-14497
forje	-14498
geler	-14499
▁Sedat	-14500
▁Kepenk	-14501
▁yazının	-14502
▁kullanıyorum	-14503
▁süreçlerinin	-14504
▁çil	-14505
ities	-14506
▁kavg	-14507
▁utan	-14508
▁geçecek	-14509
▁İçeriği	-14510
▁kullanmayı	-14511
▁Bizler	-14512
▁kalça	-14513
▁Varsayılan	-14514
▁esir	-14515
▁Özbek	-14516
TP	-14517
▁İmar	-14518
▁Sesli	-14519
▁vatandaşı	-14520
▁kategoride	-14521
▁Öne	-14522
▁krom	-14523
▁hırsız	-14524
▁üstelik	-14525
RS	-14526
pon	-14527
▁Sitemizden	-14528
▁verilecektir	-14529
▁oluşturulması	-14530
sah	-14531
▁gönderin	-14532
▁lif	-14533
siyum	-14534
▁Toto	-14535
▁açıktır	-14536
▁değilseniz	-14537
▁zeytinyağı	-14538
ansa	-14539
▁değiştirebilir	-14540
abol	-14541
▁Yayla	-14542
▁tutma	-14543
max	-14544
çıları	-14545
Kontakte	-14546
abo	-14547
Ex	-14548
üsk	-14549
lavye	-14550
inebilir	-14551
▁ürünlere	-14552
▁kapsamındaki	-14553
ansever	-14554
▁kavramı	-14555
▁yıldızı	-14556
▁ihtiyaçlarına	-14557
▁LG	-14558
▁sayısız	-14559
iha	-14560
▁iyilik	-14561
▁sakarya	-14562
▁çıkaran	-14563
▁teşkilat	-14564
bed	-14565
efendi	-14566
leştiği	-14567
▁İzleme	-14568
▁Karakter	-14569
▁Düzenleme	-14570
inek	-14571
▁ibr	-14572
▁Ultra	-14573
▁Kişinin	-14574
▁ağırlıklı	-14575
▁vicdan	-14576
▁indirimi	-14577
gören	-14578
▁kanuna	-14579
▁tasarlanan	-14580
?,	-14581
GO	-14582
▁Ark	-14583
antel	-14584
▁Memnun	-14585
▁İstediğiniz	-14586
▁Veli	-14587
üğünde	-14588
▁Filtr	-14589
▁indirin	-14590
SYM	-14591
▁İndirme	-14592
▁Psikolog	-14593
▁tıb	-14594
▁yaşta	-14595
▁kurduğu	-14596
▁Sekreter	-14597
▁fırsatlar	-14598
▁müşterilerimiz	-14599
anıp	-14600
▁Ersoy	-14601
ier	-14602
▁Öğret	-14603
▁paramet	-14604
▁düzenlemeler	-14605
bot	-14606
▁Dalı	-14607
devlet	-14608
▁Bağlama	-14609
▁meselesi	-14610
▁açıklamasında	-14611
▁Zorunlu	-14612
▁dikkati	-14613
dr	-14614
▁dk	-14615
▁Siirt	-14616
▁Geliyor	-14617
▁kullanılmıştır	-14618
▁Kamyon	-14619
▁piyan	-14620
▁vesile	-14621
▁Randevu	-14622
▁taşınmaz	-14623
▁Görüntüleme	-14624
odon	-14625
▁işçilik	-14626
▁karot	-14627
▁out	-14628
▁yazmaya	-14629
▁gelmek	-14630
▁Gezilecek	-14631
▁Sing	-14632
▁kayd	-14633
▁ürünümüz	-14634
▁gönderilmesi	-14635
fin	-14636
▁Kuşadası	-14637
▁tarafsız	-14638
▁KAY	-14639
▁Plaj	-14640
▁misyon	-14641
▁hilesi	-14642
▁Müc	-14643
üldüğü	-14644
▁Duygu	-14645
▁kılın	-14646
ÇIN	-14647
aspor	-14648
▁çalışın	-14649
▁VKontakte	-14650
nes	-14651
▁Madd	-14652
▁Çankırı	-14653
ezavantaj	-14654
▁başladık	-14655
▁önerilir	-14656
▁etmelisiniz	-14657
▁Bağımsız	-14658
’,	-14659
▁Creat	-14660
▁ayrıldı	-14661
▁çıkarılan	-14662
VA	-14663
▁ANK	-14664
▁Zemin	-14665
▁çıkışı	-14666
lilere	-14667
▁kılan	-14668
▁taşıt	-14669
▁Ayrı	-14670
▁büro	-14671
▁yakışık	-14672
▁Yör	-14673
▁izmit	-14674
▁peşinde	-14675
kz	-14676
▁BAY	-14677
▁Yöntemi	-14678
▁Polyester	-14679
▁özelliklerine	-14680
▁şö	-14681
▁paslanmaz	-14682
Dİ	-14683
ea	-14684
Yaş	-14685
put	-14686
▁mısır	-14687
▁Dizisi	-14688
▁Sön	-14689
ublish	-14690
▁çoğal	-14691
▁konulardan	-14692
▁Kelimeler	-14693
▁vakıf	-14694
▁Oynanır	-14695
▁kaçınılmaz	-14696
▁yayınlanamaz	-14697
tımı	-14698
rojen	-14699
▁ız	-14700
▁Wal	-14701
▁Gelişmiş	-14702
▁koşullarını	-14703
▁merham	-14704
ileriyle	-14705
fatı	-14706
ımızla	-14707
▁planlanan	-14708
▁sunuluyor	-14709
yout	-14710
▁sürecek	-14711
ror	-14712
▁seti	-14713
▁basamak	-14714
▁Köp	-14715
▁tom	-14716
▁samsun	-14717
▁gideceğ	-14718
▁Olabilir	-14719
▁alabileceğiniz	-14720
ýl	-14721
alandırma	-14722
▁üvey	-14723
▁Kupon	-14724
▁Sitene	-14725
▁ailenin	-14726
▁dü	-14727
▁Etkil	-14728
▁Hepsib	-14729
▁olanağı	-14730
cik	-14731
▁Avrup	-14732
lerince	-14733
▁kapatı	-14734
▁umarım	-14735
ılmasının	-14736
mü	-14737
▁Yazılı	-14738
▁Buradan	-14739
▁elma	-14740
▁Yiğit	-14741
▁endeksi	-14742
▁Şans	-14743
▁mühim	-14744
▁ötesinde	-14745
▁nar	-14746
▁arsa	-14747
▁Huzur	-14748
▁Keyif	-14749
▁doldurarak	-14750
▁taşımacılığı	-14751
uştum	-14752
▁amel	-14753
eliğini	-14754
▁görüştü	-14755
▁bulunabilir	-14756
▁sizce	-14757
▁vadede	-14758
▁Arjantin	-14759
▁kurallarını	-14760
üşü	-14761
cinin	-14762
▁Gran	-14763
▁emperyal	-14764
▁Teknolojisi	-14765
▁rejim	-14766
özel	-14767
▁aksesuarları	-14768
betin	-14769
▁Kafkas	-14770
▁yanıtı	-14771
▁haftasında	-14772
▁yükümlüdür	-14773
▁Güz	-14774
▁Erkan	-14775
▁Yapmak	-14776
▁değişiyor	-14777
▁Çözümleri	-14778
▁programını	-14779
▁faaliyetler	-14780
▁fiyatlarını	-14781
oci	-14782
idiyek	-14783
▁bilişim	-14784
▁izolasyon	-14785
▁ÖN	-14786
▁duş	-14787
▁enj	-14788
şten	-14789
▁Kus	-14790
▁cuma	-14791
▁başardı	-14792
▁doldurun	-14793
▁Card	-14794
▁ülkeyi	-14795
▁anım	-14796
▁Mesajı	-14797
▁bahsede	-14798
▁kazanmış	-14799
▁Karşıyaka	-14800
ilasyon	-14801
▁belgesel	-14802
▁gelecektir	-14803
eceğin	-14804
▁sayfayı	-14805
▁görüntülü	-14806
yoruz	-14807
▁Azgın	-14808
▁huzurlu	-14809
IB	-14810
uval	-14811
asyonları	-14812
wood	-14813
▁DIY	-14814
▁Enflasyon	-14815
▁Center	-14816
BlogThis	-14817
pin	-14818
cası	-14819
oban	-14820
▁yaşamın	-14821
üzsüz	-14822
▁görmeye	-14823
▁Hikayesi	-14824
▁parası	-14825
osunda	-14826
▁James	-14827
▁liralık	-14828
ştı	-14829
▁bebeğin	-14830
▁ekrana	-14831
▁virüsü	-14832
▁Egzersiz	-14833
▁tamamlayan	-14834
sır	-14835
▁Sekreteri	-14836
ebilme	-14837
▁fakült	-14838
▁masaya	-14839
▁tarafa	-14840
▁cumhurbaş	-14841
▁özeti	-14842
▁sitelere	-14843
MET	-14844
▁Kâ	-14845
hael	-14846
iğim	-14847
ompa	-14848
▁nın	-14849
▁Coşk	-14850
▁çıtır	-14851
▁çıkabilir	-14852
▁erit	-14853
▁Rüzgar	-14854
▁haberine	-14855
▁PaylaşFacebook	-14856
tasarim	-14857
▁Turnuv	-14858
▁Tırnak	-14859
▁üretmek	-14860
▁ifadeler	-14861
▁Yenişehir	-14862
▁birliktelik	-14863
▁sark	-14864
▁Enter	-14865
▁Media	-14866
ric	-14867
▁Limon	-14868
▁yerin	-14869
▁inanıyorum	-14870
ehra	-14871
▁şim	-14872
▁Eser	-14873
▁sair	-14874
▁Det	-14875
▁Brit	-14876
▁geneli	-14877
▁buluşma	-14878
▁dediğimiz	-14879
▁köklü	-14880
▁yaban	-14881
▁finansman	-14882
▁süreçleri	-14883
▁kib	-14884
▁amatör	-14885
▁Kendini	-14886
▁zorunluluğu	-14887
ınıp	-14888
▁Biç	-14889
▁Hemş	-14890
▁buluyor	-14891
▁Bitkisel	-14892
▁ml	-14893
▁kampanyalar	-14894
▁Peş	-14895
▁etkisiz	-14896
▁vermekte	-14897
▁iletebilirsiniz	-14898
ulo	-14899
▁elle	-14900
ulacak	-14901
▁İşler	-14902
▁Fri	-14903
▁feder	-14904
mp	-14905
▁Yetiştir	-14906
inli	-14907
ümde	-14908
twitter	-14909
▁sorunlara	-14910
▁yapılmasını	-14911
▁sonuca	-14912
▁Pakistan	-14913
▁Gönderildi	-14914
Gİ	-14915
▁satmak	-14916
▁gönderi	-14917
▁eleştiri	-14918
Çev	-14919
▁Norveç	-14920
▁gittim	-14921
▁maçları	-14922
▁aramak	-14923
▁Kendine	-14924
als	-14925
ladim	-14926
elikop	-14927
nesi	-14928
▁hastası	-14929
▁vakt	-14930
▁başkalarının	-14931
▁Ede	-14932
ulduğu	-14933
▁sepet	-14934
▁portföy	-14935
▁aralıklarla	-14936
▁kendisinden	-14937
▁ücretsizdir	-14938
▁telefonunuzdan	-14939
başka	-14940
alarda	-14941
▁Merkezleri	-14942
scr	-14943
▁Saha	-14944
▁Tesla	-14945
▁allah	-14946
▁Paylaşım	-14947
▁aydır	-14948
▁yaşına	-14949
▁DNA	-14950
Kadın	-14951
▁iştirak	-14952
▁hastalar	-14953
▁GönderBlogThis	-14954
quir	-14955
▁Lüks	-14956
▁oral	-14957
▁oldular	-14958
sir	-14959
yoz	-14960
roşür	-14961
▁Boyun	-14962
▁akşamı	-14963
▁öğrenin	-14964
▁mask	-14965
▁çalıştık	-14966
elerindeki	-14967
▁Dayanışma	-14968
▁nedenlerle	-14969
▁hizmetlerimiz	-14970
▁Yel	-14971
▁paneli	-14972
▁profes	-14973
▁karşılaşma	-14974
▁siparişleriniz	-14975
ii	-14976
▁astr	-14977
▁asır	-14978
▁Kurulum	-14979
nci	-14980
▁iPad	-14981
diğinden	-14982
▁Muhasebe	-14983
avgat	-14984
▁Kapıda	-14985
uşakabin	-14986
Ot	-14987
fig	-14988
▁ÜN	-14989
hizmet	-14990
▁terim	-14991
▁ihtiyacını	-14992
▁imar	-14993
lediğini	-14994
▁seçtiğiniz	-14995
▁Yağı	-14996
▁Modeli	-14997
▁avcılar	-14998
▁bilmeniz	-14999
▁Bahisleri	-15000
▁akışı	-15001
▁dizinin	-15002
▁CGI	-15003
▁Özkan	-15004
▁Hakkari	-15005
▁bölgelerinde	-15006
▁teknolojinin	-15007
çam	-15008
eyner	-15009
▁döküm	-15010
▁Bostancı	-15011
▁Masaüstü	-15012
Hal	-15013
ünger	-15014
▁Sizde	-15015
▁Yavaş	-15016
▁Sünnet	-15017
▁Voleybol	-15018
▁durumdan	-15019
▁yönünden	-15020
▁hack	-15021
▁Mezun	-15022
▁yürüttü	-15023
ladığınız	-15024
▁Bankalar	-15025
Sh	-15026
Kal	-15027
▁Bot	-15028
[...]
